<unk>	0
<s>	0
</s>	0
▁t	-0
▁th	-1
▁a	-2
in	-3
▁w	-4
▁the	-5
re	-6
▁o	-7
▁s	-8
at	-9
er	-10
nd	-11
ou	-12
▁c	-13
is	-14
it	-15
▁b	-16
ing	-17
▁m	-18
en	-19
▁h	-20
on	-21
▁to	-22
▁p	-23
▁f	-24
es	-25
an	-26
▁d	-27
▁of	-28
or	-29
ll	-30
▁in	-31
▁I	-32
▁and	-33
ed	-34
▁l	-35
ar	-36
▁that	-37
▁y	-38
om	-39
▁g	-40
as	-41
ic	-42
le	-43
ve	-44
▁you	-45
al	-46
▁we	-47
▁n	-48
▁wh	-49
ow	-50
▁e	-51
▁is	-52
us	-53
▁be	-54
ut	-55
▁A	-56
▁it	-57
ion	-58
ot	-59
et	-60
▁T	-61
▁re	-62
ent	-63
▁ha	-64
ct	-65
▁on	-66
ld	-67
ver	-68
ay	-69
id	-70
▁Th	-71
▁And	-72
se	-73
all	-74
im	-75
▁this	-76
st	-77
ig	-78
ro	-79
▁S	-80
ur	-81
ly	-82
▁st	-83
ere	-84
ch	-85
ke	-86
ce	-87
▁for	-88
if	-89
▁was	-90
ra	-91
▁W	-92
ir	-93
▁an	-94
▁do	-95
▁are	-96
op	-97
ith	-98
ally	-99
oo	-100
th	-101
am	-102
▁have	-103
▁with	-104
▁ab	-105
▁u	-106
▁they	-107
▁se	-108
▁k	-109
▁can	-110
▁mo	-111
ation	-112
▁-	-113
▁--	-114
▁B	-115
▁as	-116
out	-117
ht	-118
▁li	-119
▁so	-120
▁go	-121
▁wor	-122
▁what	-123
▁com	-124
▁So	-125
ad	-126
▁he	-127
very	-128
ould	-129
ill	-130
▁at	-131
▁me	-132
▁sh	-133
▁ne	-134
▁about	-135
ant	-136
▁not	-137
ter	-138
ge	-139
il	-140
ol	-141
ust	-142
ul	-143
▁all	-144
▁j	-145
ers	-146
▁ex	-147
▁fr	-148
▁The	-149
use	-150
▁pro	-151
ight	-152
▁ch	-153
▁som	-154
▁r	-155
▁or	-156
▁de	-157
▁my	-158
▁pe	-159
▁there	-160
▁"	-161
ear	-162
art	-163
ople	-164
um	-165
pp	-166
ck	-167
▁con	-168
ate	-169
▁like	-170
▁We	-171
ess	-172
ies	-173
▁It	-174
ure	-175
▁people	-176
▁one	-177
ity	-178
ive	-179
nt	-180
est	-181
ca	-182
▁ma	-183
▁from	-184
▁N	-185
ect	-186
▁kn	-187
ist	-188
ble	-189
qu	-190
▁but	-191
▁our	-192
ind	-193
▁al	-194
▁us	-195
▁out	-196
ink	-197
▁just	-198
▁te	-199
rou	-200
▁know	-201
▁int	-202
▁v	-203
un	-204
ook	-205
▁C	-206
▁H	-207
▁M	-208
▁thing	-209
cause	-210
▁sp	-211
▁them	-212
ide	-213
and	-214
▁But	-215
▁see	-216
ie	-217
▁these	-218
ort	-219
os	-220
her	-221
▁tr	-222
▁if	-223
▁very	-224
▁up	-225
▁who	-226
▁think	-227
▁get	-228
▁pl	-229
ci	-230
ich	-231
▁by	-232
el	-233
▁going	-234
one	-235
▁Y	-236
ain	-237
iv	-238
▁some	-239
▁act	-240
▁1	-241
▁when	-242
▁had	-243
▁more	-244
▁because	-245
▁your	-246
▁year	-247
em	-248
▁were	-249
▁im	-250
og	-251
▁would	-252
our	-253
▁sa	-254
▁tim	-255
ine	-256
▁their	-257
▁which	-258
od	-259
ment	-260
▁look	-261
ame	-262
▁work	-263
▁want	-264
▁how	-265
ast	-266
▁comp	-267
▁ta	-268
▁really	-269
▁su	-270
iz	-271
ually	-272
▁Wh	-273
ous	-274
▁O	-275
ood	-276
ard	-277
act	-278
gh	-279
."	-280
ack	-281
▁en	-282
reat	-283
ose	-284
▁way	-285
ap	-286
hing	-287
▁E	-288
▁le	-289
▁world	-290
ore	-291
are	-292
▁has	-293
ab	-294
▁time	-295
▁here	-296
ans	-297
ther	-298
▁then	-299
ag	-300
▁per	-301
ong	-302
▁every	-303
▁This	-304
▁qu	-305
▁P	-306
▁You	-307
▁exp	-308
▁don	-309
▁into	-310
▁could	-311
▁man	-312
▁co	-313
ions	-314
▁ev	-315
ace	-316
▁actually	-317
res	-318
▁will	-319
▁fe	-320
▁say	-321
ild	-322
ud	-323
ence	-324
▁where	-325
▁D	-326
▁G	-327
▁years	-328
age	-329
▁now	-330
itt	-331
▁things	-332
▁ag	-333
▁L	-334
▁other	-335
▁did	-336
alk	-337
▁Now	-338
▁somet	-339
00	-340
ff	-341
ach	-342
iff	-343
nder	-344
▁F	-345
▁In	-346
▁They	-347
▁been	-348
ical	-349
▁any	-350
▁make	-351
▁cl	-352
▁no	-353
▁diff	-354
▁than	-355
▁happ	-356
ice	-357
so	-358
▁need	-359
▁un	-360
ip	-361
▁tw	-362
▁pr	-363
red	-364
▁start	-365
▁right	-366
▁2	-367
irst	-368
▁part	-369
ome	-370
▁over	-371
▁said	-372
ree	-373
▁imp	-374
ign	-375
▁dis	-376
ry	-377
own	-378
▁bu	-379
▁something	-380
ia	-381
ite	-382
▁po	-383
▁R	-384
ount	-385
pt	-386
▁back	-387
ory	-388
uch	-389
round	-390
orm	-391
▁those	-392
ens	-393
▁ar	-394
▁much	-395
▁two	-396
olog	-397
▁chan	-398
▁got	-399
▁call	-400
▁first	-401
▁differe	-402
ife	-403
ib	-404
ass	-405
ell	-406
▁also	-407
ound	-408
▁kind	-409
sel	-410
cent	-411
ater	-412
ep	-413
▁ro	-414
▁new	-415
ittle	-416
▁lo	-417
ue	-418
▁lot	-419
▁little	-420
ac	-421
▁cont	-422
ght	-423
▁spe	-424
way	-425
ple	-426
ult	-427
▁ac	-428
▁most	-429
▁bet	-430
▁talk	-431
▁That	-432
ves	-433
king	-434
ber	-435
vel	-436
▁she	-437
▁res	-438
▁ph	-439
ru	-440
▁only	-441
ving	-442
ody	-443
▁des	-444
▁under	-445
ated	-446
rain	-447
▁even	-448
ations	-449
able	-450
▁his	-451
▁J	-452
co	-453
▁life	-454
▁day	-455
▁sy	-456
▁ad	-457
▁hum	-458
▁am	-459
▁many	-460
lo	-461
▁different	-462
▁take	-463
ick	-464
ms	-465
ial	-466
ict	-467
▁her	-468
other	-469
rough	-470
ish	-471
int	-472
▁good	-473
du	-474
▁comm	-475
▁real	-476
ase	-477
▁around	-478
▁does	-479
ire	-480
ank	-481
▁There	-482
▁through	-483
▁ide	-484
▁down	-485
pe	-486
ents	-487
▁What	-488
▁U	-489
ph	-490
▁put	-491
▁♫	-492
urn	-493
cess	-494
▁pre	-495
▁use	-496
▁show	-497
▁being	-498
ark	-499
▁off	-500
▁tell	-501
form	-502
ress	-503
ible	-504
ors	-505
▁He	-506
ade	-507
▁bl	-508
ether	-509
ak	-510
▁happen	-511
▁too	-512
▁same	-513
ary	-514
les	-515
▁proble	-516
▁thou	-517
▁em	-518
ath	-519
ance	-520
▁inc	-521
▁try	-522
ject	-523
▁count	-524
▁sm	-525
xt	-526
chn	-527
wn	-528
▁fact	-529
ars	-530
iver	-531
ys	-532
ful	-533
stem	-534
▁come	-535
ne	-536
day	-537
row	-538
ang	-539
ual	-540
▁gen	-541
▁ra	-542
tern	-543
ord	-544
▁doing	-545
▁may	-546
he	-547
ons	-548
ile	-549
ning	-550
▁find	-551
ric	-552
▁big	-553
▁br	-554
ool	-555
▁great	-556
▁techn	-557
per	-558
ces	-559
ting	-560
▁human	-561
▁three	-562
ved	-563
▁bec	-564
ower	-565
▁wr	-566
▁pers	-567
ically	-568
▁tra	-569
▁percent	-570
▁If	-571
▁sur	-572
▁system	-573
fter	-574
▁well	-575
ied	-576
▁dec	-577
ology	-578
illion	-579
fore	-580
▁Ch	-581
be	-582
body	-583
▁app	-584
nds	-585
igh	-586
▁build	-587
thing	-588
▁called	-589
▁let	-590
self	-591
te	-592
▁stud	-593
▁gu	-594
▁again	-595
▁inv	-596
cial	-597
ition	-598
▁child	-599
▁quest	-600
▁sim	-601
we	-602
ious	-603
ities	-604
▁exper	-605
▁made	-606
▁ind	-607
ics	-608
▁Well	-609
mer	-610
▁rem	-611
▁long	-612
▁wom	-613
ating	-614
▁own	-615
▁import	-616
▁fl	-617
▁lear	-618
▁bel	-619
ize	-620
oss	-621
▁should	-622
ren	-623
▁why	-624
ub	-625
lic	-626
ates	-627
▁sc	-628
ian	-629
oc	-630
▁underst	-631
▁turn	-632
▁K	-633
▁change	-634
ew	-635
ty	-636
▁didn	-637
erest	-638
▁after	-639
ft	-640
▁feel	-641
▁today	-642
▁design	-643
▁important	-644
ction	-645
▁end	-646
000	-647
▁ob	-648
av	-649
▁thought	-650
con	-651
▁started	-652
▁ask	-653
▁mean	-654
▁hel	-655
▁idea	-656
▁cour	-657
▁person	-658
▁Thank	-659
▁bas	-660
als	-661
▁last	-662
▁sci	-663
▁inst	-664
▁its	-665
▁creat	-666
▁brain	-667
ail	-668
gan	-669
ull	-670
▁Be	-671
▁rel	-672
▁interest	-673
▁him	-674
?"	-675
▁help	-676
▁exam	-677
▁play	-678
▁car	-679
old	-680
▁sch	-681
▁ins	-682
▁trans	-683
,000	-684
ution	-685
▁understand	-686
▁better	-687
ough	-688
▁before	-689
▁went	-690
▁3	-691
▁might	-692
ists	-693
ost	-694
ily	-695
ise	-696
▁problem	-697
ility	-698
▁another	-699
▁give	-700
▁bit	-701
▁never	-702
▁ke	-703
▁coll	-704
▁point	-705
ular	-706
ave	-707
▁able	-708
ros	-709
▁cons	-710
▁course	-711
ese	-712
und	-713
▁St	-714
▁produ	-715
▁gra	-716
▁pol	-717
▁still	-718
▁power	-719
▁commun	-720
▁belie	-721
▁fam	-722
▁story	-723
▁tog	-724
▁together	-725
ob	-726
▁found	-727
ven	-728
▁bo	-729
▁few	-730
kes	-731
▁inter	-732
▁sol	-733
▁ent	-734
▁plan	-735
ert	-736
▁rep	-737
▁ele	-738
▁mon	-739
▁sl	-740
ix	-741
oth	-742
alth	-743
▁ago	-744
velop	-745
ited	-746
▁num	-747
▁next	-748
▁kid	-749
▁sort	-750
▁place	-751
▁mod	-752
▁dr	-753
▁came	-754
atch	-755
▁high	-756
▁school	-757
erg	-758
ween	-759
▁cr	-760
▁19	-761
ng	-762
uc	-763
▁dat	-764
▁str	-765
▁imag	-766
▁used	-767
▁20	-768
▁learn	-769
ather	-770
ense	-771
▁comple	-772
▁water	-773
iss	-774
▁between	-775
read	-776
▁ter	-777
ized	-778
▁each	-779
meric	-780
ork	-781
▁la	-782
ness	-783
▁art	-784
▁When	-785
▁develop	-786
arch	-787
▁technology	-788
▁question	-789
ward	-790
ience	-791
▁ext	-792
▁10	-793
▁pat	-794
▁rec	-795
▁Af	-796
▁ser	-797
▁small	-798
ures	-799
▁med	-800
az	-801
▁data	-802
ets	-803
,"	-804
▁met	-805
▁women	-806
▁att	-807
▁cre	-808
▁fin	-809
▁Americ	-810
ram	-811
ways	-812
▁looking	-813
▁care	-814
▁love	-815
▁example	-816
▁old	-817
▁four	-818
▁op	-819
ific	-820
▁comput	-821
▁grow	-822
ered	-823
cond	-824
cept	-825
▁eff	-826
▁partic	-827
▁doesn	-828
▁done	-829
ced	-830
▁min	-831
ative	-832
▁wanted	-833
▁mom	-834
ings	-835
▁light	-836
▁word	-837
ah	-838
▁cent	-839
▁Because	-840
ute	-841
ably	-842
iness	-843
▁How	-844
▁move	-845
▁ever	-846
▁hard	-847
pl	-848
cy	-849
▁read	-850
▁V	-851
▁cell	-852
▁far	-853
▁reas	-854
conom	-855
▁stu	-856
formation	-857
▁whole	-858
▁chang	-859
ross	-860
▁live	-861
oney	-862
▁lar	-863
▁beh	-864
▁poss	-865
▁trying	-866
▁ear	-867
▁million	-868
ands	-869
▁bi	-870
ger	-871
ational	-872
here	-873
▁away	-874
selves	-875
▁nat	-876
▁always	-877
▁working	-878
▁children	-879
ism	-880
ote	-881
ope	-882
▁less	-883
▁ed	-884
▁giv	-885
▁econom	-886
▁el	-887
▁gener	-888
▁Un	-889
ments	-890
▁country	-891
▁cap	-892
ural	-893
▁believe	-894
▁5	-895
cer	-896
▁Afric	-897
ird	-898
▁supp	-899
ries	-900
▁resp	-901
▁bus	-902
▁health	-903
▁sk	-904
gin	-905
▁As	-906
hip	-907
nect	-908
▁expl	-909
vers	-910
▁using	-911
▁book	-912
▁project	-913
ruct	-914
ont	-915
▁anim	-916
▁vis	-917
▁means	-918
▁pict	-919
▁cor	-920
▁sub	-921
▁frie	-922
▁thinking	-923
▁fo	-924
▁money	-925
▁organ	-926
▁home	-927
▁run	-928
▁inf	-929
▁open	-930
▁space	-931
▁information	-932
atter	-933
▁took	-934
▁mus	-935
led	-936
nce	-937
vern	-938
▁maybe	-939
▁4	-940
▁five	-941
ident	-942
▁pub	-943
▁create	-944
▁cou	-945
ract	-946
▁number	-947
▁hand	-948
▁doll	-949
▁lead	-950
ps	-951
ues	-952
▁become	-953
gg	-954
ks	-955
its	-956
aces	-957
▁everything	-958
▁spec	-959
▁reg	-960
▁process	-961
ital	-962
▁prob	-963
▁compan	-964
▁kids	-965
rib	-966
▁mind	-967
▁second	-968
ten	-969
▁acc	-970
alf	-971
▁fut	-972
▁prog	-973
▁One	-974
air	-975
▁sing	-976
ivers	-977
iron	-978
aut	-979
ond	-980
▁left	-981
▁teach	-982
lob	-983
ouse	-984
▁walk	-985
▁war	-986
▁head	-987
ever	-988
▁form	-989
▁getting	-990
▁eng	-991
▁Ind	-992
▁enough	-993
iew	-994
ergy	-995
▁best	-996
▁future	-997
ention	-998
sw	-999
▁ca	-1000
▁pres	-1001
▁govern	-1002
ines	-1003
iting	-1004
▁grou	-1005
▁quite	-1006
▁My	-1007
▁month	-1008
▁interesting	-1009
▁cle	-1010
▁conf	-1011
▁comes	-1012
ories	-1013
▁social	-1014
▁times	-1015
▁food	-1016
▁happened	-1017
▁contro	-1018
▁set	-1019
▁sense	-1020
▁These	-1021
ety	-1022
▁fun	-1023
▁making	-1024
▁dem	-1025
▁answ	-1026
▁sign	-1027
pr	-1028
▁mark	-1029
▁energy	-1030
▁countries	-1031
▁connect	-1032
▁talking	-1033
ier	-1034
▁probably	-1035
▁She	-1036
▁told	-1037
ts	-1038
▁cur	-1039
▁pass	-1040
ertain	-1041
▁add	-1042
▁body	-1043
▁without	-1044
▁job	-1045
▁begin	-1046
ately	-1047
▁room	-1048
▁moment	-1049
▁building	-1050
tty	-1051
▁stuff	-1052
▁pop	-1053
ying	-1054
▁phys	-1055
imes	-1056
reen	-1057
▁elect	-1058
▁model	-1059
▁keep	-1060
▁wee	-1061
▁men	-1062
▁young	-1063
▁env	-1064
lobal	-1065
▁reason	-1066
▁For	-1067
▁side	-1068
▁allow	-1069
▁dollars	-1070
ient	-1071
ices	-1072
▁beaut	-1073
▁lives	-1074
▁Here	-1075
ner	-1076
▁hist	-1077
▁opp	-1078
▁dist	-1079
▁else	-1080
▁coming	-1081
▁such	-1082
ake	-1083
▁pretty	-1084
▁half	-1085
▁anything	-1086
me	-1087
▁pie	-1088
irl	-1089
▁soci	-1090
▁top	-1091
▁prot	-1092
▁Is	-1093
▁gr	-1094
▁def	-1095
ember	-1096
▁stop	-1097
ortun	-1098
▁science	-1099
▁business	-1100
ogra	-1101
ality	-1102
▁across	-1103
uring	-1104
der	-1105
▁rese	-1106
▁saw	-1107
▁environ	-1108
▁Let	-1109
▁wo	-1110
▁matter	-1111
gs	-1112
most	-1113
▁bad	-1114
ead	-1115
▁family	-1116
▁No	-1117
idd	-1118
ior	-1119
▁An	-1120
▁sound	-1121
ince	-1122
▁eas	-1123
▁bring	-1124
▁makes	-1125
▁200	-1126
▁stand	-1127
kay	-1128
▁seen	-1129
▁ty	-1130
▁later	-1131
▁New	-1132
ream	-1133
▁says	-1134
▁educ	-1135
ided	-1136
▁Africa	-1137
▁All	-1138
olution	-1139
▁ey	-1140
▁scient	-1141
io	-1142
▁asked	-1143
▁fig	-1144
▁hope	-1145
▁living	-1146
ots	-1147
ective	-1148
▁share	-1149
▁experience	-1150
▁cam	-1151
▁hour	-1152
ime	-1153
▁aut	-1154
▁simple	-1155
▁ways	-1156
▁particular	-1157
▁det	-1158
▁global	-1159
ization	-1160
▁research	-1161
▁having	-1162
▁sit	-1163
▁happens	-1164
ken	-1165
ught	-1166
▁days	-1167
▁goes	-1168
▁val	-1169
▁Chin	-1170
▁ref	-1171
▁fore	-1172
where	-1173
▁case	-1174
▁complete	-1175
▁equ	-1176
lf	-1177
man	-1178
▁list	-1179
arth	-1180
▁cult	-1181
▁computer	-1182
▁air	-1183
▁picture	-1184
ilt	-1185
llow	-1186
arr	-1187
ott	-1188
▁wonder	-1189
▁thous	-1190
ready	-1191
▁single	-1192
▁col	-1193
▁planet	-1194
ash	-1195
▁city	-1196
▁prof	-1197
allen	-1198
arent	-1199
▁polit	-1200
▁problems	-1201
▁rob	-1202
▁level	-1203
▁char	-1204
▁phot	-1205
▁public	-1206
▁almost	-1207
iter	-1208
▁bre	-1209
▁community	-1210
aps	-1211
▁mem	-1212
▁watch	-1213
▁while	-1214
▁environment	-1215
ants	-1216
▁dise	-1217
less	-1218
▁amaz	-1219
▁both	-1220
▁rest	-1221
▁test	-1222
▁inside	-1223
ike	-1224
angu	-1225
▁already	-1226
med	-1227
▁loc	-1228
▁six	-1229
▁saying	-1230
uge	-1231
▁mach	-1232
ograph	-1233
orn	-1234
▁sure	-1235
ulation	-1236
▁Se	-1237
unch	-1238
▁suc	-1239
▁Earth	-1240
▁hear	-1241
▁mor	-1242
▁yet	-1243
▁certain	-1244
ases	-1245
▁answer	-1246
▁billion	-1247
▁possible	-1248
▁whether	-1249
ins	-1250
work	-1251
▁looked	-1252
▁gl	-1253
▁exc	-1254
no	-1255
ivid	-1256
▁control	-1257
osed	-1258
▁iss	-1259
ury	-1260
▁contin	-1261
▁pain	-1262
▁once	-1263
ange	-1264
▁disco	-1265
▁music	-1266
▁nothing	-1267
▁langu	-1268
▁someone	-1269
▁within	-1270
▁exact	-1271
▁girl	-1272
▁basically	-1273
▁age	-1274
itive	-1275
▁challen	-1276
▁lab	-1277
▁unt	-1278
▁incred	-1279
▁often	-1280
▁vide	-1281
▁ideas	-1282
▁remember	-1283
▁par	-1284
▁wrong	-1285
imate	-1286
ield	-1287
▁myself	-1288
▁product	-1289
▁amazing	-1290
▁mil	-1291
ED	-1292
▁looks	-1293
side	-1294
▁ass	-1295
▁beautif	-1296
▁history	-1297
oice	-1298
▁Al	-1299
▁wa	-1300
▁guy	-1301
▁true	-1302
▁Why	-1303
▁cost	-1304
▁months	-1305
▁sw	-1306
▁dev	-1307
▁Intern	-1308
undred	-1309
▁night	-1310
▁treat	-1311
lish	-1312
▁heart	-1313
▁dire	-1314
ages	-1315
▁kill	-1316
ene	-1317
ware	-1318
▁imagine	-1319
▁large	-1320
de	-1321
iverse	-1322
▁United	-1323
Wh	-1324
▁entire	-1325
ters	-1326
ians	-1327
▁self	-1328
▁cells	-1329
cle	-1330
▁net	-1331
▁adv	-1332
▁figure	-1333
bers	-1334
ivity	-1335
▁words	-1336
utes	-1337
▁works	-1338
▁group	-1339
▁heard	-1340
▁individ	-1341
▁class	-1342
▁state	-1343
up	-1344
▁che	-1345
aterial	-1346
uck	-1347
uro	-1348
▁news	-1349
▁100	-1350
▁wasn	-1351
▁order	-1352
▁hundred	-1353
▁Or	-1354
▁15	-1355
ling	-1356
▁full	-1357
ering	-1358
▁government	-1359
▁face	-1360
▁built	-1361
▁beautiful	-1362
ired	-1363
▁aff	-1364
▁cond	-1365
iddle	-1366
▁friends	-1367
vious	-1368
ives	-1369
▁couple	-1370
▁mag	-1371
▁30	-1372
▁result	-1373
▁6	-1374
land	-1375
▁sec	-1376
▁incre	-1377
eah	-1378
ected	-1379
▁pay	-1380
ex	-1381
▁'	-1382
▁appro	-1383
▁until	-1384
▁individual	-1385
▁50	-1386
reme	-1387
▁TED	-1388
▁must	-1389
get	-1390
▁fil	-1391
▁ret	-1392
▁front	-1393
▁species	-1394
ustr	-1395
▁ris	-1396
▁follow	-1397
bs	-1398
▁piece	-1399
▁law	-1400
▁vir	-1401
▁places	-1402
atic	-1403
▁cancer	-1404
▁material	-1405
ock	-1406
aper	-1407
▁market	-1408
▁fund	-1409
▁const	-1410
▁quick	-1411
▁became	-1412
▁everybody	-1413
▁di	-1414
outh	-1415
▁Fr	-1416
▁Internet	-1417
▁deep	-1418
▁name	-1419
▁tool	-1420
▁past	-1421
▁completely	-1422
▁z	-1423
▁States	-1424
▁decided	-1425
▁isn	-1426
▁line	-1427
▁cra	-1428
ush	-1429
▁land	-1430
▁object	-1431
▁view	-1432
▁knew	-1433
omes	-1434
▁education	-1435
▁language	-1436
▁though	-1437
▁exactly	-1438
▁experim	-1439
▁terr	-1440
▁happening	-1441
ron	-1442
line	-1443
▁abs	-1444
▁learned	-1445
▁9	-1446
ined	-1447
ats	-1448
▁sca	-1449
▁dra	-1450
▁woman	-1451
▁America	-1452
to	-1453
ision	-1454
▁train	-1455
▁invest	-1456
▁study	-1457
▁jo	-1458
▁Every	-1459
▁stories	-1460
▁success	-1461
cing	-1462
ator	-1463
▁taking	-1464
▁huge	-1465
▁somebody	-1466
▁At	-1467
ental	-1468
▁itself	-1469
▁dru	-1470
nov	-1471
▁free	-1472
▁animals	-1473
▁video	-1474
▁house	-1475
▁gets	-1476
gest	-1477
▁students	-1478
ien	-1479
▁Do	-1480
▁engine	-1481
ane	-1482
▁since	-1483
▁deal	-1484
▁nature	-1485
▁struct	-1486
..	-1487
▁mess	-1488
▁society	-1489
omet	-1490
▁pos	-1491
▁ones	-1492
br	-1493
▁av	-1494
▁stre	-1495
▁meas	-1496
▁against	-1497
▁themselves	-1498
end	-1499
aster	-1500
▁universe	-1501
▁meet	-1502
rop	-1503
▁spend	-1504
ional	-1505
ients	-1506
▁questions	-1507
dd	-1508
▁mic	-1509
▁close	-1510
▁kinds	-1511
▁ourselves	-1512
etic	-1513
ocus	-1514
▁opportun	-1515
ogn	-1516
▁7	-1517
itting	-1518
▁behav	-1519
▁along	-1520
ones	-1521
▁8	-1522
acter	-1523
ctor	-1524
icult	-1525
▁hours	-1526
thers	-1527
▁turns	-1528
▁sometimes	-1529
▁created	-1530
▁India	-1531
▁team	-1532
▁company	-1533
lud	-1534
▁clear	-1535
ability	-1536
▁complex	-1537
▁Some	-1538
▁minutes	-1539
▁dep	-1540
▁couldn	-1541
▁parent	-1542
▁worked	-1543
face	-1544
▁sex	-1545
▁mass	-1546
▁focus	-1547
▁OK	-1548
haps	-1549
▁relations	-1550
▁prov	-1551
▁rather	-1552
sy	-1553
att	-1554
▁math	-1555
▁disease	-1556
cc	-1557
▁oce	-1558
iversity	-1559
...	-1560
ming	-1561
▁hold	-1562
eg	-1563
aw	-1564
▁Br	-1565
▁Then	-1566
▁least	-1567
▁mother	-1568
▁wind	-1569
▁jour	-1570
▁pred	-1571
illions	-1572
ibly	-1573
ples	-1574
▁God	-1575
▁bab	-1576
ature	-1577
▁thousands	-1578
▁everyone	-1579
▁difficult	-1580
▁exist	-1581
▁others	-1582
▁ill	-1583
▁innov	-1584
iol	-1585
ee	-1586
ium	-1587
▁Can	-1588
▁emp	-1589
▁bott	-1590
urs	-1591
▁program	-1592
▁third	-1593
▁black	-1594
▁early	-1595
▁fly	-1596
▁won	-1597
▁network	-1598
▁guys	-1599
▁instead	-1600
▁var	-1601
▁miss	-1602
▁liter	-1603
▁listen	-1604
▁Ar	-1605
ially	-1606
▁field	-1607
▁arch	-1608
ames	-1609
▁game	-1610
istic	-1611
iqu	-1612
ither	-1613
▁amount	-1614
ted	-1615
wards	-1616
▁speak	-1617
ented	-1618
▁gave	-1619
▁lots	-1620
ale	-1621
▁taken	-1622
▁mot	-1623
▁norm	-1624
▁happy	-1625
erv	-1626
▁rad	-1627
▁systems	-1628
▁Euro	-1629
not	-1630
olved	-1631
▁sens	-1632
▁simp	-1633
▁outside	-1634
▁difference	-1635
cul	-1636
ider	-1637
▁cir	-1638
▁fail	-1639
utions	-1640
ination	-1641
▁pot	-1642
▁extra	-1643
▁aud	-1644
▁natural	-1645
ared	-1646
▁leg	-1647
▁death	-1648
▁bro	-1649
ential	-1650
▁changed	-1651
▁American	-1652
aking	-1653
▁York	-1654
▁recent	-1655
app	-1656
▁hy	-1657
▁step	-1658
▁support	-1659
▁Sh	-1660
▁China	-1661
▁interact	-1662
▁ve	-1663
ological	-1664
▁oper	-1665
▁record	-1666
▁Pe	-1667
▁relationship	-1668
▁lim	-1669
▁Okay	-1670
▁middle	-1671
uss	-1672
vered	-1673
▁effect	-1674
▁learning	-1675
▁ant	-1676
▁colle	-1677
▁area	-1678
▁leave	-1679
ased	-1680
▁rev	-1681
▁shap	-1682
▁cut	-1683
▁century	-1684
▁del	-1685
▁saf	-1686
▁eyes	-1687
▁da	-1688
▁Europe	-1689
ully	-1690
▁machine	-1691
▁typ	-1692
▁ident	-1693
▁turned	-1694
▁...	-1695
fect	-1696
▁dig	-1697
▁given	-1698
▁behind	-1699
▁beginning	-1700
▁es	-1701
▁seven	-1702
▁red	-1703
elt	-1704
ides	-1705
▁cities	-1706
orth	-1707
▁dream	-1708
▁hands	-1709
era	-1710
verage	-1711
▁green	-1712
▁behavior	-1713
els	-1714
▁takes	-1715
olute	-1716
▁reach	-1717
▁pick	-1718
▁common	-1719
inary	-1720
▁low	-1721
▁non	-1722
▁explain	-1723
▁short	-1724
▁yourself	-1725
▁population	-1726
The	-1727
iving	-1728
▁seeing	-1729
lock	-1730
▁needed	-1731
▁communic	-1732
ret	-1733
gen	-1734
rew	-1735
▁finally	-1736
▁Eng	-1737
▁began	-1738
▁easy	-1739
▁terms	-1740
aring	-1741
sych	-1742
▁local	-1743
▁tre	-1744
astic	-1745
itions	-1746
▁access	-1747
▁perhaps	-1748
▁On	-1749
▁sym	-1750
▁break	-1751
jor	-1752
▁12	-1753
▁To	-1754
▁moving	-1755
▁powerful	-1756
ges	-1757
▁sent	-1758
▁trad	-1759
▁needs	-1760
ern	-1761
▁pattern	-1762
ery	-1763
▁Chr	-1764
▁oil	-1765
▁obvious	-1766
▁companies	-1767
inal	-1768
ison	-1769
itch	-1770
▁viol	-1771
▁parts	-1772
▁culture	-1773
ove	-1774
year	-1775
▁impro	-1776
▁tot	-1777
▁during	-1778
▁stay	-1779
▁cannot	-1780
▁simply	-1781
▁disc	-1782
▁fre	-1783
▁Man	-1784
▁realized	-1785
▁opt	-1786
▁image	-1787
▁intell	-1788
▁tem	-1789
▁super	-1790
▁longer	-1791
ney	-1792
ipp	-1793
ump	-1794
idence	-1795
NA	-1796
▁Not	-1797
▁18	-1798
▁paper	-1799
▁wonderful	-1800
▁ge	-1801
▁event	-1802
▁famil	-1803
▁emot	-1804
▁serv	-1805
▁major	-1806
▁size	-1807
▁surv	-1808
▁occ	-1809
▁arg	-1810
▁includ	-1811
▁ess	-1812
▁week	-1813
▁eight	-1814
▁father	-1815
▁friend	-1816
▁repres	-1817
ource	-1818
▁parents	-1819
cious	-1820
▁Just	-1821
▁whatever	-1822
▁poor	-1823
▁psych	-1824
hood	-1825
▁felt	-1826
▁special	-1827
▁perform	-1828
ey	-1829
gle	-1830
▁absolute	-1831
port	-1832
▁chem	-1833
▁pract	-1834
▁priv	-1835
fully	-1836
▁surpr	-1837
▁perfect	-1838
▁reality	-1839
▁sun	-1840
▁media	-1841
▁press	-1842
ised	-1843
▁tried	-1844
▁quickly	-1845
ero	-1846
itect	-1847
▁fish	-1848
▁squ	-1849
rought	-1850
▁approach	-1851
▁economic	-1852
▁wall	-1853
▁phone	-1854
▁situ	-1855
▁present	-1856
▁40	-1857
ising	-1858
▁robot	-1859
▁expect	-1860
rodu	-1861
lease	-1862
ax	-1863
osp	-1864
▁insp	-1865
bo	-1866
ony	-1867
ibility	-1868
▁dark	-1869
ources	-1870
▁People	-1871
▁blood	-1872
ton	-1873
crib	-1874
▁spent	-1875
▁humans	-1876
▁measure	-1877
▁protect	-1878
▁buy	-1879
▁fall	-1880
▁scale	-1881
▁emb	-1882
▁interested	-1883
ilar	-1884
ode	-1885
ived	-1886
ledge	-1887
▁conv	-1888
▁requ	-1889
▁personal	-1890
▁strong	-1891
▁ocean	-1892
ards	-1893
▁recogn	-1894
ged	-1895
Well	-1896
▁civ	-1897
▁opportunity	-1898
▁key	-1899
▁grand	-1900
▁known	-1901
▁ground	-1902
▁growth	-1903
▁enc	-1904
oph	-1905
unt	-1906
▁feed	-1907
▁fight	-1908
▁political	-1909
▁yes	-1910
▁gone	-1911
▁weeks	-1912
oh	-1913
bor	-1914
▁ability	-1915
avor	-1916
oms	-1917
▁CA	-1918
▁leaders	-1919
ators	-1920
▁extreme	-1921
▁near	-1922
rent	-1923
▁Tw	-1924
ains	-1925
▁blue	-1926
▁risk	-1927
▁travel	-1928
▁architect	-1929
▁fear	-1930
▁consum	-1931
▁either	-1932
▁economy	-1933
▁eat	-1934
▁vers	-1935
▁sitting	-1936
orld	-1937
oy	-1938
▁Right	-1939
▁lost	-1940
▁mult	-1941
▁direct	-1942
▁changes	-1943
▁May	-1944
▁send	-1945
▁intern	-1946
ler	-1947
▁cy	-1948
▁obs	-1949
▁dest	-1950
▁surface	-1951
izing	-1952
ouch	-1953
▁shows	-1954
▁incredible	-1955
▁respons	-1956
ift	-1957
cially	-1958
▁orig	-1959
▁value	-1960
▁impact	-1961
▁challenge	-1962
urb	-1963
ills	-1964
ral	-1965
▁DNA	-1966
▁areas	-1967
▁predict	-1968
▁democ	-1969
▁Our	-1970
▁climate	-1971
iny	-1972
▁caus	-1973
▁cool	-1974
zy	-1975
▁based	-1976
▁write	-1977
ologies	-1978
▁har	-1979
ument	-1980
entially	-1981
You	-1982
▁white	-1983
▁wouldn	-1984
lt	-1985
hor	-1986
▁cal	-1987
▁feet	-1988
▁feeling	-1989
anger	-1990
▁animal	-1991
▁ap	-1992
▁anal	-1993
▁average	-1994
▁structure	-1995
▁micro	-1996
▁morning	-1997
▁sum	-1998
▁indust	-1999
▁draw	-2000
▁nice	-2001
▁neigh	-2002
What	-2003
ales	-2004
▁fast	-2005
▁patients	-2006
▁physical	-2007
ateg	-2008
▁mar	-2009
▁slow	-2010
▁pull	-2011
▁comb	-2012
▁brought	-2013
▁growing	-2014
▁25	-2015
sh	-2016
amp	-2017
lect	-2018
vent	-2019
▁soft	-2020
▁photograph	-2021
▁bottom	-2022
▁profess	-2023
erm	-2024
ule	-2025
uth	-2026
▁post	-2027
▁numbers	-2028
▁foot	-2029
▁redu	-2030
▁realize	-2031
▁die	-2032
▁attention	-2033
▁evolution	-2034
▁scientists	-2035
dden	-2036
▁win	-2037
ression	-2038
▁born	-2039
cl	-2040
▁box	-2041
ustain	-2042
▁sudden	-2043
▁experiment	-2044
▁bene	-2045
▁hundreds	-2046
eed	-2047
▁medic	-2048
▁pur	-2049
▁mole	-2050
ole	-2051
▁deg	-2052
▁circ	-2053
ext	-2054
chie	-2055
▁vol	-2056
▁developed	-2057
▁literally	-2058
▁understanding	-2059
of	-2060
oll	-2061
ified	-2062
▁tools	-2063
leep	-2064
ensive	-2065
▁wrote	-2066
▁knowledge	-2067
lu	-2068
▁instit	-2069
ored	-2070
▁ste	-2071
ging	-2072
▁main	-2073
▁serious	-2074
▁hor	-2075
▁mov	-2076
▁alone	-2077
▁civil	-2078
▁seems	-2079
▁map	-2080
▁film	-2081
▁prin	-2082
▁prom	-2083
▁running	-2084
▁millions	-2085
▁text	-2086
▁spread	-2087
bon	-2088
loy	-2089
▁polic	-2090
ned	-2091
ug	-2092
ption	-2093
▁meaning	-2094
▁development	-2095
▁crit	-2096
▁books	-2097
▁starting	-2098
▁fac	-2099
▁hosp	-2100
▁technologies	-2101
acy	-2102
▁sea	-2103
▁ball	-2104
▁relig	-2105
▁giving	-2106
▁forward	-2107
▁similar	-2108
eng	-2109
▁ast	-2110
▁hot	-2111
▁World	-2112
com	-2113
▁favor	-2114
▁guess	-2115
cr	-2116
▁flo	-2117
▁issue	-2118
▁miles	-2119
▁telling	-2120
▁movement	-2121
iod	-2122
▁fundam	-2123
aged	-2124
▁tradition	-2125
▁theory	-2126
par	-2127
ev	-2128
▁flow	-2129
▁dead	-2130
▁soon	-2131
▁stra	-2132
▁convers	-2133
▁describ	-2134
oon	-2135
por	-2136
▁force	-2137
bit	-2138
by	-2139
▁vill	-2140
▁South	-2141
ny	-2142
ggest	-2143
▁color	-2144
▁images	-2145
▁collect	-2146
head	-2147
▁compet	-2148
▁Yeah	-2149
▁depe	-2150
▁center	-2151
omen	-2152
▁suggest	-2153
▁electric	-2154
ped	-2155
ades	-2156
▁touch	-2157
▁issues	-2158
▁sho	-2159
▁worth	-2160
▁anyone	-2161
▁proper	-2162
ai	-2163
▁gives	-2164
▁thank	-2165
▁path	-2166
▁talked	-2167
▁absolutely	-2168
chan	-2169
▁rul	-2170
▁period	-2171
▁suff	-2172
▁tele	-2173
▁avail	-2174
▁mathem	-2175
▁visual	-2176
▁sell	-2177
▁stage	-2178
▁forest	-2179
▁audience	-2180
racy	-2181
ilities	-2182
▁current	-2183
▁solution	-2184
iant	-2185
▁arr	-2186
▁achie	-2187
▁fu	-2188
ique	-2189
▁road	-2190
pecially	-2191
▁English	-2192
▁industry	-2193
▁sil	-2194
▁rock	-2195
▁showed	-2196
oose	-2197
ances	-2198
▁ice	-2199
▁lif	-2200
▁cars	-2201
▁stat	-2202
▁track	-2203
▁chance	-2204
amed	-2205
▁girls	-2206
▁sn	-2207
▁rate	-2208
▁sustain	-2209
oud	-2210
▁normal	-2211
▁est	-2212
▁online	-2213
▁discovered	-2214
pect	-2215
▁camp	-2216
▁type	-2217
▁concept	-2218
▁intellig	-2219
▁developing	-2220
▁solve	-2221
▁attack	-2222
▁creating	-2223
▁hon	-2224
▁With	-2225
▁recently	-2226
urity	-2227
Th	-2228
▁among	-2229
▁modern	-2230
▁Am	-2231
ites	-2232
asing	-2233
▁aren	-2234
▁reasons	-2235
▁fire	-2236
▁benef	-2237
▁designed	-2238
▁resources	-2239
ished	-2240
imens	-2241
▁react	-2242
▁playing	-2243
▁experien	-2244
▁situation	-2245
▁seem	-2246
iet	-2247
▁cop	-2248
▁prop	-2249
▁innovation	-2250
apt	-2251
ency	-2252
▁truth	-2253
▁subject	-2254
▁baby	-2255
▁sold	-2256
▁By	-2257
like	-2258
▁lay	-2259
▁available	-2260
▁Goo	-2261
asc	-2262
▁arm	-2263
ences	-2264
phere	-2265
▁er	-2266
▁tiny	-2267
▁voice	-2268
▁especially	-2269
▁incredibly	-2270
yond	-2271
▁asking	-2272
▁produce	-2273
ival	-2274
▁eye	-2275
▁groups	-2276
▁capital	-2277
▁save	-2278
assion	-2279
▁knows	-2280
abor	-2281
ify	-2282
▁song	-2283
▁fur	-2284
▁imm	-2285
▁haven	-2286
ung	-2287
▁plant	-2288
▁computers	-2289
▁transform	-2290
▁ult	-2291
▁sever	-2292
▁search	-2293
▁vac	-2294
▁sleep	-2295
itiz	-2296
▁shape	-2297
▁patient	-2298
▁involved	-2299
▁dou	-2300
▁smart	-2301
▁changing	-2302
▁evidence	-2303
ister	-2304
▁drive	-2305
▁bigger	-2306
▁199	-2307
▁journey	-2308
▁medical	-2309
▁generation	-2310
▁aw	-2311
room	-2312
▁bra	-2313
oices	-2314
▁becomes	-2315
pan	-2316
iction	-2317
▁report	-2318
▁pictures	-2319
▁fem	-2320
▁emerg	-2321
ik	-2322
▁mechan	-2323
▁street	-2324
▁Ph	-2325
▁poll	-2326
▁putting	-2327
▁effective	-2328
pid	-2329
▁Yes	-2330
arily	-2331
▁clos	-2332
▁danger	-2333
erence	-2334
▁towards	-2335
lear	-2336
▁bar	-2337
▁lived	-2338
▁carbon	-2339
▁choice	-2340
▁message	-2341
▁basic	-2342
▁beyond	-2343
▁Google	-2344
▁several	-2345
lict	-2346
istan	-2347
▁Inst	-2348
▁table	-2349
ude	-2350
▁defin	-2351
▁flu	-2352
ishing	-2353
▁bird	-2354
▁except	-2355
▁Chinese	-2356
▁function	-2357
wh	-2358
▁De	-2359
book	-2360
▁solar	-2361
▁60	-2362
▁lea	-2363
▁stru	-2364
▁drugs	-2365
▁likely	-2366
▁neighbor	-2367
oring	-2368
▁mount	-2369
come	-2370
rest	-2371
light	-2372
▁drug	-2373
▁safe	-2374
▁unf	-2375
▁First	-2376
▁citiz	-2377
fort	-2378
▁Com	-2379
▁din	-2380
ously	-2381
▁died	-2382
▁necess	-2383
▁potential	-2384
pre	-2385
▁dom	-2386
▁neur	-2387
▁trust	-2388
▁sounds	-2389
▁writing	-2390
▁communities	-2391
Oh	-2392
▁rain	-2393
▁tend	-2394
ips	-2395
▁ce	-2396
▁rece	-2397
▁breat	-2398
50	-2399
▁fa	-2400
▁bed	-2401
▁sat	-2402
▁action	-2403
ma	-2404
▁fair	-2405
nam	-2406
▁block	-2407
▁schools	-2408
▁201	-2409
ration	-2410
▁activ	-2411
▁digital	-2412
▁violence	-2413
igher	-2414
▁general	-2415
▁extraord	-2416
▁national	-2417
▁software	-2418
ires	-2419
medi	-2420
vert	-2421
▁device	-2422
▁rules	-2423
▁revolution	-2424
ctors	-2425
ressed	-2426
▁speed	-2427
▁account	-2428
▁quality	-2429
▁examples	-2430
▁log	-2431
▁nine	-2432
▁Maybe	-2433
ief	-2434
▁Im	-2435
▁mob	-2436
▁anybody	-2437
uly	-2438
▁higher	-2439
▁office	-2440
put	-2441
▁After	-2442
▁return	-2443
▁starts	-2444
ners	-2445
rast	-2446
▁princi	-2447
▁Oh	-2448
▁son	-2449
▁rich	-2450
ground	-2451
▁compassion	-2452
ran	-2453
▁ep	-2454
▁wish	-2455
▁peace	-2456
▁virus	-2457
▁screen	-2458
▁showing	-2459
oun	-2460
itary	-2461
▁cross	-2462
umb	-2463
une	-2464
onse	-2465
pped	-2466
▁rights	-2467
▁conscious	-2468
▁particularly	-2469
▁walking	-2470
▁certainly	-2471
▁vision	-2472
▁biggest	-2473
usion	-2474
▁Where	-2475
▁moved	-2476
▁hit	-2477
▁nuc	-2478
▁cris	-2479
▁onto	-2480
▁totally	-2481
view	-2482
▁North	-2483
▁clean	-2484
▁bacter	-2485
▁largest	-2486
▁scientific	-2487
▁Of	-2488
▁Bra	-2489
▁camera	-2490
▁exciting	-2491
▁character	-2492
▁obviously	-2493
irth	-2494
verty	-2495
▁diag	-2496
▁prim	-2497
▁particip	-2498
▁syn	-2499
▁effic	-2500
ask	-2501
▁neg	-2502
▁af	-2503
nal	-2504
▁extremely	-2505
▁Re	-2506
antly	-2507
▁okay	-2508
▁virt	-2509
▁cause	-2510
▁further	-2511
iar	-2512
▁Pr	-2513
idge	-2514
▁role	-2515
▁aware	-2516
▁wants	-2517
uit	-2518
▁ec	-2519
▁threat	-2520
▁represent	-2521
how	-2522
▁teachers	-2523
▁print	-2524
▁results	-2525
▁response	-2526
▁80	-2527
▁pa	-2528
▁Pro	-2529
▁rele	-2530
▁meant	-2531
▁detail	-2532
▁plants	-2533
ina	-2534
▁materials	-2535
tend	-2536
▁boy	-2537
▁led	-2538
▁individuals	-2539
eter	-2540
▁fix	-2541
▁ready	-2542
▁nobody	-2543
▁context	-2544
▁creative	-2545
oke	-2546
more	-2547
▁Joh	-2548
▁adm	-2549
▁div	-2550
▁prison	-2551
▁progress	-2552
▁projects	-2553
xy	-2554
ought	-2555
▁marr	-2556
▁apart	-2557
▁eventually	-2558
▁everywhere	-2559
isions	-2560
ows	-2561
▁gas	-2562
▁door	-2563
▁farm	-2564
▁crazy	-2565
osphere	-2566
▁student	-2567
for	-2568
▁skin	-2569
▁poverty	-2570
▁mathemat	-2571
▁fundamental	-2572
▁goal	-2573
iation	-2574
ughter	-2575
licated	-2576
▁allowed	-2577
▁security	-2578
▁connected	-2579
ores	-2580
▁link	-2581
▁push	-2582
▁colleag	-2583
▁favorite	-2584
▁watching	-2585
ze	-2586
iding	-2587
▁notice	-2588
▁conflict	-2589
▁pu	-2590
▁Any	-2591
▁code	-2592
▁named	-2593
▁continue	-2594
▁supposed	-2595
cient	-2596
▁Most	-2597
▁separ	-2598
pective	-2599
▁African	-2600
▁discover	-2601
▁11	-2602
▁check	-2603
▁games	-2604
▁models	-2605
▁strateg	-2606
▁birth	-2607
▁carry	-2608
▁consider	-2609
▁essentially	-2610
▁trees	-2611
▁accept	-2612
▁immedi	-2613
aur	-2614
▁tar	-2615
▁Brit	-2616
▁jobs	-2617
▁introdu	-2618
▁stick	-2619
.,	-2620
icle	-2621
oming	-2622
▁minds	-2623
▁improve	-2624
▁hospital	-2625
▁positive	-2626
eth	-2627
▁chemical	-2628
ops	-2629
erve	-2630
▁dro	-2631
▁grew	-2632
▁meth	-2633
▁tells	-2634
▁signific	-2635
lex	-2636
apan	-2637
▁War	-2638
▁Even	-2639
▁clin	-2640
▁shown	-2641
ruction	-2642
▁objects	-2643
▁Tod	-2644
▁Who	-2645
▁gal	-2646
▁bunch	-2647
▁mis	-2648
▁earl	-2649
▁fill	-2650
▁tree	-2651
▁transl	-2652
▁passion	-2653
▁including	-2654
▁trial	-2655
▁waste	-2656
▁choose	-2657
▁families	-2658
▁Ge	-2659
itten	-2660
▁robots	-2661
▁collabor	-2662
▁extraordinary	-2663
ana	-2664
urban	-2665
▁West	-2666
▁graph	-2667
▁concer	-2668
▁depend	-2669
▁terror	-2670
▁Cal	-2671
▁John	-2672
▁bank	-2673
▁conc	-2674
▁Japan	-2675
▁labor	-2676
▁launch	-2677
▁16	-2678
iger	-2679
▁capt	-2680
▁movie	-2681
▁worse	-2682
▁thousand	-2683
▁buildings	-2684
ission	-2685
▁adult	-2686
▁cases	-2687
▁source	-2688
▁taught	-2689
▁temper	-2690
▁wealth	-2691
▁village	-2692
anc	-2693
ids	-2694
akes	-2695
▁fra	-2696
▁late	-2697
▁sequ	-2698
▁spir	-2699
▁memory	-2700
izations	-2701
We	-2702
▁deb	-2703
▁wife	-2704
▁assum	-2705
▁finan	-2706
▁influ	-2707
▁democracy	-2708
ims	-2709
the	-2710
ffic	-2711
iers	-2712
ulate	-2713
▁brains	-2714
▁faster	-2715
▁killed	-2716
▁discuss	-2717
odies	-2718
▁imposs	-2719
▁excited	-2720
conds	-2721
ounds	-2722
▁remark	-2723
▁conditions	-2724
▁ended	-2725
▁allows	-2726
▁crisis	-2727
▁happiness	-2728
▁somewhere	-2729
▁conversation	-2730
▁pen	-2731
▁lose	-2732
▁above	-2733
▁appear	-2734
▁suddenly	-2735
ortunately	-2736
ror	-2737
▁magn	-2738
▁repl	-2739
▁activity	-2740
edom	-2741
▁webs	-2742
▁genes	-2743
▁college	-2744
▁standing	-2745
▁wait	-2746
▁Today	-2747
▁sorts	-2748
▁affect	-2749
▁larger	-2750
▁medicine	-2751
ech	-2752
▁disapp	-2753
▁finding	-2754
▁increase	-2755
men	-2756
ued	-2757
rage	-2758
atory	-2759
▁cold	-2760
▁Chris	-2761
▁Those	-2762
▁decision	-2763
ured	-2764
▁fant	-2765
▁phil	-2766
▁blind	-2767
▁truly	-2768
▁doctor	-2769
bol	-2770
▁14	-2771
▁bom	-2772
▁mine	-2773
▁police	-2774
▁successful	-2775
▁Le	-2776
▁enj	-2777
▁fing	-2778
▁products	-2779
cise	-2780
▁publish	-2781
▁teacher	-2782
▁fine	-2783
estern	-2784
▁indeed	-2785
▁complicated	-2786
▁doc	-2787
▁kil	-2788
though	-2789
▁earth	-2790
▁minute	-2791
▁traditional	-2792
▁organization	-2793
▁international	-2794
ama	-2795
▁17	-2796
cape	-2797
▁luck	-2798
▁phen	-2799
▁star	-2800
others	-2801
▁afford	-2802
▁impossible	-2803
▁perspective	-2804
IV	-2805
let	-2806
inct	-2807
onst	-2808
soci	-2809
▁stars	-2810
rap	-2811
nces	-2812
▁dam	-2813
▁site	-2814
uments	-2815
▁policy	-2816
▁achieve	-2817
▁sky	-2818
▁older	-2819
▁author	-2820
▁studies	-2821
▁univers	-2822
▁military	-2823
▁position	-2824
▁dy	-2825
isms	-2826
ring	-2827
▁citizens	-2828
▁Look	-2829
▁forms	-2830
▁workers	-2831
ipt	-2832
▁HIV	-2833
▁kept	-2834
inated	-2835
▁lower	-2836
urt	-2837
▁Don	-2838
useum	-2839
▁card	-2840
▁cart	-2841
▁manage	-2842
mb	-2843
rams	-2844
ining	-2845
▁fram	-2846
▁lands	-2847
▁moral	-2848
ologists	-2849
▁contrib	-2850
rad	-2851
rate	-2852
▁bal	-2853
▁galax	-2854
▁region	-2855
▁usually	-2856
▁TV	-2857
ster	-2858
▁wild	-2859
▁straight	-2860
rect	-2861
▁alg	-2862
▁points	-2863
▁massive	-2864
▁nuclear	-2865
▁reading	-2866
▁specific	-2867
la	-2868
▁Car	-2869
▁ign	-2870
▁fasc	-2871
▁pack	-2872
▁purp	-2873
▁Somet	-2874
amm	-2875
▁bur	-2876
▁square	-2877
▁phenomen	-2878
fact	-2879
iven	-2880
▁cat	-2881
▁mist	-2882
▁pieces	-2883
▁electricity	-2884
rab	-2885
agine	-2886
▁burn	-2887
▁port	-2888
▁somehow	-2889
▁training	-2890
ays	-2891
▁lines	-2892
▁series	-2893
▁unique	-2894
▁distrib	-2895
▁service	-2896
▁smaller	-2897
▁recognize	-2898
▁Sp	-2899
▁Like	-2900
▁heav	-2901
▁sand	-2902
▁engage	-2903
▁strugg	-2904
▁mention	-2905
▁solutions	-2906
▁term	-2907
▁enorm	-2908
ugh	-2909
▁Christ	-2910
▁beings	-2911
▁anymore	-2912
imb	-2913
sect	-2914
▁hop	-2915
epend	-2916
▁yeah	-2917
▁throw	-2918
▁urban	-2919
▁Ag	-2920
▁swe	-2921
▁upon	-2922
▁alive	-2923
▁address	-2924
enn	-2925
▁198	-2926
▁Are	-2927
▁oxy	-2928
▁cook	-2929
▁actual	-2930
▁private	-2931
▁dangerous	-2932
▁neighborhood	-2933
▁skills	-2934
▁slight	-2935
▁critical	-2936
▁machines	-2937
time	-2938
ently	-2939
▁board	-2940
▁loved	-2941
▁detect	-2942
▁effort	-2943
▁healthy	-2944
▁patterns	-2945
go	-2946
▁Go	-2947
▁Act	-2948
▁zero	-2949
▁weren	-2950
▁please	-2951
▁biology	-2952
▁respond	-2953
▁decisions	-2954
▁21	-2955
sequ	-2956
▁thr	-2957
▁Afgh	-2958
▁career	-2959
▁seconds	-2960
zz	-2961
▁sou	-2962
▁spect	-2963
imately	-2964
▁employ	-2965
▁provide	-2966
▁becoming	-2967
▁Americans	-2968
rel	-2969
▁Sw	-2970
aging	-2971
▁price	-2972
▁freedom	-2973
▁physics	-2974
eral	-2975
▁roll	-2976
▁town	-2977
▁cloud	-2978
▁prote	-2979
▁famous	-2980
▁version	-2981
▁bacteria	-2982
▁treatment	-2983
No	-2984
po	-2985
▁13	-2986
▁increasing	-2987
fer	-2988
thern	-2989
▁Mar	-2990
▁trou	-2991
▁clearly	-2992
▁expensive	-2993
▁architecture	-2994
▁Ab	-2995
itation	-2996
▁doctors	-2997
▁waiting	-2998
▁anywhere	-2999
▁diseases	-3000
dom	-3001
▁web	-3002
iling	-3003
▁East	-3004
▁remind	-3005
▁comfort	-3006
▁earlier	-3007
▁listening	-3008
yr	-3009
▁Mars	-3010
▁desp	-3011
▁page	-3012
▁trick	-3013
ustrial	-3014
▁bodies	-3015
▁written	-3016
iced	-3017
▁sal	-3018
▁costs	-3019
▁forth	-3020
▁molec	-3021
▁quant	-3022
inating	-3023
▁Afghan	-3024
▁determ	-3025
▁neurons	-3026
ceed	-3027
ndom	-3028
erman	-3029
▁coun	-3030
▁shot	-3031
▁content	-3032
▁institutions	-3033
oid	-3034
back	-3035
oles	-3036
ping	-3037
▁ann	-3038
▁exh	-3039
▁whe	-3040
▁cover	-3041
▁occur	-3042
▁weight	-3043
▁genetic	-3044
▁willing	-3045
▁throughout	-3046
▁governments	-3047
cies	-3048
lebr	-3049
acity	-3050
▁worry	-3051
▁mental	-3052
▁Imagine	-3053
▁explore	-3054
▁strange	-3055
▁greatest	-3056
▁painting	-3057
▁intelligence	-3058
ulf	-3059
rees	-3060
▁dog	-3061
▁eth	-3062
▁lad	-3063
▁vacc	-3064
ashing	-3065
▁magic	-3066
▁calcul	-3067
▁secret	-3068
▁jud	-3069
▁park	-3070
▁Which	-3071
▁glass	-3072
▁Another	-3073
ried	-3074
erson	-3075
▁cust	-3076
▁match	-3077
▁offic	-3078
▁random	-3079
▁direction	-3080
ube	-3081
iest	-3082
▁atm	-3083
▁multip	-3084
▁plastic	-3085
▁immediately	-3086
ained	-3087
itude	-3088
▁laws	-3089
▁catch	-3090
▁floor	-3091
▁greater	-3092
▁financial	-3093
▁rid	-3094
▁jump	-3095
▁drink	-3096
▁levels	-3097
▁familiar	-3098
▁transport	-3099
SA	-3100
ball	-3101
istics	-3102
▁autom	-3103
▁himself	-3104
iti	-3105
▁ran	-3106
▁final	-3107
mic	-3108
oty	-3109
▁veh	-3110
▁decade	-3111
▁driving	-3112
▁journal	-3113
▁90	-3114
▁Ad	-3115
▁Isl	-3116
▁sam	-3117
▁apply	-3118
▁oppos	-3119
▁celebr	-3120
▁values	-3121
▁walked	-3122
▁website	-3123
rom	-3124
resh	-3125
attle	-3126
▁Cent	-3127
▁vari	-3128
▁store	-3129
▁types	-3130
▁income	-3131
▁method	-3132
▁challenges	-3133
aly	-3134
▁Ex	-3135
▁cry	-3136
▁hous	-3137
atives	-3138
▁humanity	-3139
▁environmental	-3140
met	-3141
pro	-3142
aries	-3143
▁legs	-3144
▁rise	-3145
▁range	-3146
rastruct	-3147
▁decades	-3148
▁pressure	-3149
▁services	-3150
▁teaching	-3151
ables	-3152
eless	-3153
orrow	-3154
▁City	-3155
▁saving	-3156
▁meeting	-3157
▁University	-3158
uted	-3159
▁fit	-3160
▁crow	-3161
▁enjoy	-3162
▁optim	-3163
▁terrible	-3164
▁therefore	-3165
na	-3166
▁fuel	-3167
▁hero	-3168
▁active	-3169
▁forget	-3170
▁mobile	-3171
atically	-3172
0,	-3173
▁Har	-3174
▁Ste	-3175
▁gun	-3176
▁ple	-3177
itted	-3178
▁laugh	-3179
ologist	-3180
▁babies	-3181
▁societ	-3182
▁useful	-3183
▁practice	-3184
▁fantastic	-3185
ches	-3186
cope	-3187
▁beauty	-3188
▁interview	-3189
▁Bl	-3190
▁tiss	-3191
▁gradu	-3192
▁associ	-3193
▁respect	-3194
ky	-3195
orry	-3196
▁pan	-3197
▁various	-3198
▁production	-3199
▁Cl	-3200
▁prep	-3201
▁vict	-3202
▁instr	-3203
▁integ	-3204
▁politics	-3205
▁colleagues	-3206
iot	-3207
▁ord	-3208
ystem	-3209
▁weap	-3210
▁ahead	-3211
▁email	-3212
▁decide	-3213
▁infrastruct	-3214
zil	-3215
▁Mus	-3216
antic	-3217
▁broad	-3218
▁encou	-3219
▁German	-3220
▁nation	-3221
▁programs	-3222
▁engineering	-3223
▁performance	-3224
▁organizations	-3225
▁Many	-3226
vision	-3227
▁female	-3228
▁following	-3229
▁atmosphere	-3230
airs	-3231
iles	-3232
▁aid	-3233
▁hair	-3234
▁race	-3235
▁Brazil	-3236
▁Western	-3237
▁consequ	-3238
▁instance	-3239
▁connection	-3240
bb	-3241
udd	-3242
▁choices	-3243
▁surround	-3244
▁remarkable	-3245
ises	-3246
▁Two	-3247
▁destro	-3248
▁honest	-3249
▁spirit	-3250
▁surger	-3251
▁express	-3252
▁although	-3253
▁mal	-3254
ondon	-3255
rated	-3256
▁uses	-3257
▁dynam	-3258
▁shared	-3259
▁standard	-3260
aign	-3261
▁Per	-3262
ement	-3263
▁Cong	-3264
▁Second	-3265
▁helped	-3266
▁speech	-3267
ervation	-3268
▁enormous	-3269
ica	-3270
▁dram	-3271
▁London	-3272
▁streets	-3273
▁invented	-3274
▁relative	-3275
itor	-3276
used	-3277
▁500	-3278
▁diagn	-3279
▁physic	-3280
▁popular	-3281
▁pig	-3282
▁motiv	-3283
▁demonst	-3284
▁base	-3285
▁collective	-3286
ec	-3287
▁i	-3288
key	-3289
▁Ken	-3290
▁tax	-3291
osing	-3292
▁Austr	-3293
▁raise	-3294
ils	-3295
ricult	-3296
▁trade	-3297
▁worst	-3298
▁slightly	-3299
equ	-3300
▁24	-3301
▁70	-3302
▁nut	-3303
▁flying	-3304
▁prevent	-3305
iate	-3306
▁Face	-3307
▁From	-3308
▁surve	-3309
▁belief	-3310
▁understood	-3311
wise	-3312
▁sad	-3313
itter	-3314
ufact	-3315
▁drop	-3316
▁gene	-3317
▁sick	-3318
▁yell	-3319
▁stopped	-3320
▁temperature	-3321
▁ban	-3322
▁scr	-3323
▁Arab	-3324
▁male	-3325
▁below	-3326
▁causes	-3327
▁mostly	-3328
▁effects	-3329
▁possibly	-3330
▁condition	-3331
iring	-3332
▁smell	-3333
▁anyway	-3334
pes	-3335
▁doub	-3336
▁Think	-3337
▁commer	-3338
▁stress	-3339
▁purpose	-3340
▁survive	-3341
▁infrastructure	-3342
olve	-3343
▁197	-3344
▁sus	-3345
anced	-3346
board	-3347
inate	-3348
▁custom	-3349
▁switch	-3350
ios	-3351
ray	-3352
▁Your	-3353
▁gent	-3354
▁shark	-3355
▁whose	-3356
▁supply	-3357
▁relationships	-3358
▁mut	-3359
arian	-3360
ornia	-3361
▁tens	-3362
▁total	-3363
▁altern	-3364
▁insect	-3365
▁directly	-3366
▁experiments	-3367
uct	-3368
▁Sch	-3369
prene	-3370
▁heat	-3371
▁legal	-3372
▁slide	-3373
reprene	-3374
▁members	-3375
▁biological	-3376
▁television	-3377
▁Afghanistan	-3378
▁swim	-3379
▁task	-3380
▁Calif	-3381
▁radio	-3382
▁Instead	-3383
arm	-3384
yle	-3385
iber	-3386
▁hus	-3387
▁paid	-3388
▁dying	-3389
▁artist	-3390
▁closer	-3391
▁invent	-3392
▁meters	-3393
▁philos	-3394
▁states	-3395
▁capacity	-3396
▁creativity	-3397
Why	-3398
nel	-3399
▁Dr	-3400
▁ir	-3401
rupt	-3402
▁visit	-3403
ception	-3404
▁central	-3405
▁profound	-3406
load	-3407
▁His	-3408
▁mix	-3409
▁displ	-3410
▁feels	-3411
▁histor	-3412
▁controll	-3413
▁cultural	-3414
▁electron	-3415
now	-3416
cles	-3417
remend	-3418
▁dimens	-3419
▁summer	-3420
▁degrees	-3421
lications	-3422
▁daughter	-3423
▁societies	-3424
▁California	-3425
▁communicate	-3426
0.	-3427
▁et	-3428
ancy	-3429
vest	-3430
▁dad	-3431
▁loss	-3432
▁analy	-3433
▁reflect	-3434
▁agricult	-3435
▁campaign	-3436
▁manufact	-3437
yl	-3438
How	-3439
raq	-3440
band	-3441
▁196	-3442
arter	-3443
▁shock	-3444
▁answers	-3445
▁tremend	-3446
▁networks	-3447
gy	-3448
▁rule	-3449
cience	-3450
▁played	-3451
▁symbol	-3452
▁Facebook	-3453
▁responsibility	-3454
af	-3455
cks	-3456
oper	-3457
▁Dav	-3458
icles	-3459
order	-3460
▁boys	-3461
▁mamm	-3462
▁scan	-3463
▁bought	-3464
▁broken	-3465
▁easily	-3466
▁microb	-3467
▁planets	-3468
▁speaking	-3469
▁surprising	-3470
▁vast	-3471
▁noticed	-3472
▁significant	-3473
▁Pl	-3474
▁300	-3475
▁markets	-3476
▁mission	-3477
▁published	-3478
raid	-3479
▁ang	-3480
▁hyd	-3481
house	-3482
orith	-3483
rench	-3484
▁twice	-3485
▁reduce	-3486
▁National	-3487
▁original	-3488
▁sustainable	-3489
ked	-3490
ened	-3491
izes	-3492
uing	-3493
cules	-3494
▁Iraq	-3495
▁expand	-3496
▁forces	-3497
▁gentle	-3498
▁oxygen	-3499
▁window	-3500
▁communication	-3501
▁lack	-3502
▁liber	-3503
▁Indian	-3504
▁afraid	-3505
▁corner	-3506
▁devices	-3507
▁algorith	-3508
▁independ	-3509
5,	-3510
▁coff	-3511
▁habit	-3512
▁highly	-3513
▁nearly	-3514
▁knowing	-3515
▁inspired	-3516
▁entreprene	-3517
unk	-3518
▁mid	-3519
ening	-3520
▁rapid	-3521
▁demand	-3522
▁mountain	-3523
▁religion	-3524
▁efficient	-3525
ID	-3526
othes	-3527
phone	-3528
▁wood	-3529
▁evolved	-3530
▁emotional	-3531
▁differently	-3532
It	-3533
mon	-3534
▁San	-3535
atell	-3536
oting	-3537
▁beat	-3538
ashion	-3539
▁basis	-3540
▁funny	-3541
▁deliver	-3542
▁designers	-3543
ya	-3544
▁oh	-3545
▁ut	-3546
anda	-3547
anging	-3548
▁shift	-3549
▁seemed	-3550
▁contact	-3551
▁missing	-3552
▁differences	-3553
▁experiences	-3554
empt	-3555
wood	-3556
aling	-3557
▁gold	-3558
▁dance	-3559
▁resist	-3560
▁hearing	-3561
▁addition	-3562
▁bringing	-3563
amb	-3564
ira	-3565
win	-3566
▁Great	-3567
▁target	-3568
▁helping	-3569
▁produced	-3570
off	-3571
aced	-3572
lies	-3573
▁1,000	-3574
▁trouble	-3575
▁identity	-3576
rim	-3577
cell	-3578
▁Par	-3579
▁hom	-3580
idden	-3581
▁Mich	-3582
▁blog	-3583
▁join	-3584
▁reco	-3585
▁Again	-3586
▁compon	-3587
▁passed	-3588
▁spaces	-3589
▁background	-3590
▁conference	-3591
edd	-3592
lim	-3593
▁Te	-3594
adem	-3595
ander	-3596
water	-3597
▁fort	-3598
▁hall	-3599
▁birds	-3600
▁climb	-3601
▁rough	-3602
▁diversity	-3603
▁molecules	-3604
icon	-3605
▁hole	-3606
▁host	-3607
▁poet	-3608
▁agree	-3609
▁crowd	-3610
▁gotten	-3611
▁satell	-3612
▁volunt	-3613
▁scientist	-3614
fr	-3615
rael	-3616
▁ver	-3617
▁none	-3618
▁rare	-3619
▁consid	-3620
▁Austral	-3621
hy	-3622
gth	-3623
exic	-3624
isco	-3625
term	-3626
▁Russ	-3627
rength	-3628
▁aspect	-3629
▁eating	-3630
▁focused	-3631
▁surgery	-3632
ste	-3633
▁cru	-3634
▁inj	-3635
ulner	-3636
▁river	-3637
▁dreams	-3638
ef	-3639
▁iP	-3640
edia	-3641
▁fat	-3642
▁tun	-3643
▁seas	-3644
▁lights	-3645
▁attract	-3646
val	-3647
▁Over	-3648
▁trip	-3649
▁wire	-3650
▁fully	-3651
▁flight	-3652
▁creates	-3653
cop	-3654
reg	-3655
care	-3656
▁plat	-3657
▁Islam	-3658
▁spending	-3659
▁strength	-3660
▁complexity	-3661
mp	-3662
▁Mc	-3663
▁Ro	-3664
ears	-3665
atures	-3666
icking	-3667
▁Mexic	-3668
▁forever	-3669
▁studying	-3670
▁industrial	-3671
▁Sc	-3672
▁etc	-3673
▁hack	-3674
▁trib	-3675
ifying	-3676
orders	-3677
▁weird	-3678
▁Thanks	-3679
▁easier	-3680
▁traffic	-3681
▁opposite	-3682
▁partners	-3683
▁commercial	-3684
▁fol	-3685
▁reb	-3686
istry	-3687
ording	-3688
▁coffee	-3689
▁genome	-3690
▁sexual	-3691
▁opportunities	-3692
ri	-3693
aul	-3694
reci	-3695
roud	-3696
▁wide	-3697
▁airpl	-3698
▁party	-3699
▁photo	-3700
▁museum	-3701
▁despite	-3702
1,	-3703
rical	-3704
▁10,000	-3705
▁raised	-3706
▁kilomet	-3707
ius	-3708
ties	-3709
cript	-3710
▁harm	-3711
osystem	-3712
▁ancient	-3713
▁consciousness	-3714
tle	-3715
▁ur	-3716
▁ske	-3717
▁boat	-3718
▁infect	-3719
▁structures	-3720
hand	-3721
▁cla	-3722
▁ing	-3723
pping	-3724
▁core	-3725
▁rout	-3726
▁accom	-3727
▁lucky	-3728
▁parad	-3729
▁vulner	-3730
ulations	-3731
▁correct	-3732
▁matters	-3733
▁investment	-3734
▁tremendous	-3735
▁possibility	-3736
ees	-3737
▁Char	-3738
▁Iran	-3739
▁repe	-3740
▁enter	-3741
▁metap	-3742
▁proud	-3743
▁failure	-3744
▁Actually	-3745
8,	-3746
▁1.	-3747
orge	-3748
▁Nor	-3749
ratic	-3750
▁fold	-3751
ography	-3752
▁Israel	-3753
▁therap	-3754
▁farmers	-3755
▁ecosystem	-3756
▁ultimately	-3757
9,	-3758
IDS	-3759
iam	-3760
▁Gu	-3761
▁bag	-3762
▁held	-3763
aining	-3764
▁brill	-3765
artment	-3766
▁notion	-3767
▁transm	-3768
▁describe	-3769
▁importantly	-3770
▁Take	-3771
▁Will	-3772
▁stem	-3773
▁teen	-3774
▁giant	-3775
▁mouth	-3776
▁turning	-3777
▁entirely	-3778
▁religious	-3779
ae	-3780
▁Ob	-3781
▁More	-3782
▁forg	-3783
▁puzz	-3784
▁advant	-3785
▁brings	-3786
▁yellow	-3787
▁However	-3788
▁sharing	-3789
▁benefits	-3790
ysis	-3791
ively	-3792
▁Good	-3793
▁adapt	-3794
▁stuck	-3795
▁accident	-3796
▁platform	-3797
▁landscape	-3798
2,	-3799
irt	-3800
▁alt	-3801
▁fab	-3802
itely	-3803
▁bomb	-3804
▁seed	-3805
▁shop	-3806
▁David	-3807
▁virtual	-3808
▁distance	-3809
▁phenomenon	-3810
zen	-3811
▁Dar	-3812
▁fro	-3813
based	-3814
ipped	-3815
▁hell	-3816
▁epide	-3817
▁magaz	-3818
▁subst	-3819
▁tough	-3820
connect	-3821
▁Middle	-3822
▁tissue	-3823
▁husband	-3824
▁definition	-3825
▁imagination	-3826
▁mos	-3827
▁tum	-3828
▁mort	-3829
▁accur	-3830
▁calls	-3831
▁breast	-3832
▁opened	-3833
▁phones	-3834
▁moments	-3835
▁emotions	-3836
▁negative	-3837
gra	-3838
▁En	-3839
bert	-3840
▁Asia	-3841
icians	-3842
▁corpor	-3843
▁fairly	-3844
▁inform	-3845
▁artists	-3846
▁brother	-3847
▁destroy	-3848
▁European	-3849
▁billions	-3850
▁leadership	-3851
do	-3852
cest	-3853
edic	-3854
reet	-3855
▁cand	-3856
▁chim	-3857
isible	-3858
ulated	-3859
ifically	-3860
▁concent	-3861
▁Sometimes	-3862
▁suffering	-3863
vere	-3864
▁amb	-3865
▁mig	-3866
▁nor	-3867
celer	-3868
▁Once	-3869
▁bound	-3870
▁bright	-3871
▁attempt	-3872
▁foreign	-3873
▁necessarily	-3874
This	-3875
mark	-3876
urch	-3877
▁mill	-3878
▁remote	-3879
▁Twitter	-3880
▁regular	-3881
▁argument	-3882
▁elements	-3883
▁bud	-3884
▁flag	-3885
▁Niger	-3886
▁ancest	-3887
▁desert	-3888
▁justice	-3889
▁require	-3890
▁compared	-3891
▁university	-3892
kn	-3893
atr	-3894
▁Ed	-3895
▁See	-3896
▁den	-3897
▁tom	-3898
▁exer	-3899
▁reve	-3900
inally	-3901
▁brand	-3902
▁helps	-3903
▁pleas	-3904
▁batter	-3905
▁events	-3906
▁sector	-3907
▁stream	-3908
▁figured	-3909
▁creatures	-3910
▁influence	-3911
▁particles	-3912
ett	-3913
aria	-3914
rogen	-3915
verse	-3916
▁appe	-3917
▁bees	-3918
▁sorry	-3919
▁belong	-3920
▁gender	-3921
▁fashion	-3922
▁necessary	-3923
iage	-3924
▁cogn	-3925
▁cheap	-3926
▁coast	-3927
▁walls	-3928
▁charge	-3929
▁failed	-3930
▁shouldn	-3931
▁studied	-3932
my	-3933
ada	-3934
uman	-3935
▁note	-3936
▁sport	-3937
▁pounds	-3938
▁appreci	-3939
▁holding	-3940
▁leading	-3941
▁succeed	-3942
7,	-3943
aker	-3944
gypt	-3945
ulpt	-3946
▁400	-3947
▁egg	-3948
▁spot	-3949
dimens	-3950
▁bread	-3951
▁dinos	-3952
▁sculpt	-3953
▁counter	-3954
▁strategy	-3955
▁competition	-3956
roll	-3957
▁Web	-3958
▁agre	-3959
▁crim	-3960
ctions	-3961
▁cycle	-3962
▁heads	-3963
▁maint	-3964
issions	-3965
▁emotion	-3966
ification	-3967
aff	-3968
ibr	-3969
inc	-3970
▁Tr	-3971
ager	-3972
ford	-3973
▁Dan	-3974
▁fle	-3975
▁joy	-3976
▁bone	-3977
▁cred	-3978
▁disp	-3979
▁north	-3980
▁quote	-3981
▁French	-3982
▁cooper	-3983
▁signal	-3984
▁restaur	-3985
▁document	-3986
▁responsible	-3987
ley	-3988
▁CO	-3989
vant	-3990
▁tor	-3991
▁Bill	-3992
▁tast	-3993
idents	-3994
▁Egypt	-3995
▁indic	-3996
▁offer	-3997
▁previous	-3998
▁president	-3999
▁professional	-4000
▁due	-4001
▁und	-4002
▁exch	-4003
▁narr	-4004
▁poem	-4005
▁ship	-4006
itable	-4007
▁avoid	-4008
lection	-4009
▁convin	-4010
▁dollar	-4011
▁balance	-4012
▁childhood	-4013
▁discovery	-4014
▁Su	-4015
rict	-4016
▁gar	-4017
▁hyp	-4018
▁wis	-4019
▁horr	-4020
▁faith	-4021
▁frequ	-4022
▁fresh	-4023
▁newsp	-4024
▁prior	-4025
▁transp	-4026
▁British	-4027
ibilities	-4028
▁fighting	-4029
▁brilliant	-4030
▁organisms	-4031
▁philosoph	-4032
▁1,	-4033
▁Mr	-4034
▁smo	-4035
inist	-4036
stein	-4037
▁chick	-4038
▁equal	-4039
▁mouse	-4040
▁wheel	-4041
▁deeply	-4042
▁double	-4043
▁lesson	-4044
▁Washing	-4045
▁acceler	-4046
▁install	-4047
▁managed	-4048
▁Me	-4049
thes	-4050
throp	-4051
▁argue	-4052
▁crime	-4053
▁adults	-4054
▁unlike	-4055
▁leaving	-4056
▁related	-4057
▁majority	-4058
▁engineers	-4059
dimensional	-4060
▁businesses	-4061
cra	-4062
▁NA	-4063
▁Ne	-4064
uild	-4065
▁ble	-4066
▁adop	-4067
▁shel	-4068
▁exhib	-4069
▁lunch	-4070
▁names	-4071
▁prost	-4072
▁letter	-4073
▁oceans	-4074
▁finished	-4075
▁construct	-4076
▁fascinating	-4077
exp	-4078
▁Ha	-4079
▁Did	-4080
▁Rich	-4081
elling	-4082
▁embra	-4083
▁leads	-4084
▁bridge	-4085
▁colors	-4086
▁degree	-4087
▁sister	-4088
▁limited	-4089
▁typical	-4090
▁watched	-4091
▁wearing	-4092
▁surprise	-4093
▁Washington	-4094
▁mathematics	-4095
▁unfortunately	-4096
hold	-4097
▁unc	-4098
iable	-4099
▁paint	-4100
ruption	-4101
▁hidden	-4102
▁trained	-4103
▁believed	-4104
▁concerned	-4105
▁institution	-4106
lin	-4107
ugg	-4108
athy	-4109
vity	-4110
▁Des	-4111
▁Gen	-4112
▁iron	-4113
▁purs	-4114
▁faces	-4115
entally	-4116
▁caught	-4117
▁benefit	-4118
▁capable	-4119
▁highest	-4120
▁prototy	-4121
▁creation	-4122
▁everyday	-4123
ij	-4124
oe	-4125
ses	-4126
known	-4127
▁Very	-4128
▁grad	-4129
▁noise	-4130
▁astron	-4131
▁photos	-4132
ographic	-4133
▁followed	-4134
▁described	-4135
▁invisible	-4136
▁kilometers	-4137
pper	-4138
▁Con	-4139
▁edge	-4140
▁hate	-4141
▁pros	-4142
▁grown	-4143
▁closed	-4144
▁volunte	-4145
▁weapons	-4146
▁separate	-4147
oses	-4148
word	-4149
▁Aud	-4150
▁Gra	-4151
▁cos	-4152
▁rot	-4153
▁tit	-4154
▁arms	-4155
▁frag	-4156
▁motor	-4157
▁married	-4158
▁otherwise	-4159
▁constantly	-4160
ox	-4161
cked	-4162
wide	-4163
▁Big	-4164
agers	-4165
alley	-4166
apers	-4167
▁Amaz	-4168
▁Bang	-4169
▁tour	-4170
▁intellect	-4171
▁interaction	-4172
If	-4173
uros	-4174
▁Her	-4175
▁mir	-4176
ength	-4177
illed	-4178
▁foss	-4179
▁opin	-4180
▁Franc	-4181
▁click	-4182
▁grass	-4183
▁mosqu	-4184
▁truck	-4185
▁refuge	-4186
▁slowly	-4187
▁element	-4188
▁received	-4189
DP	-4190
son	-4191
▁150	-4192
▁pet	-4193
▁anti	-4194
▁moon	-4195
▁moves	-4196
▁novel	-4197
▁steps	-4198
▁invited	-4199
▁advantage	-4200
irm	-4201
▁Fl	-4202
aked	-4203
enty	-4204
▁Col	-4205
▁pun	-4206
force	-4207
▁soil	-4208
iration	-4209
▁breath	-4210
▁master	-4211
▁artific	-4212
▁insects	-4213
▁principles	-4214
IT	-4215
ha	-4216
▁App	-4217
itute	-4218
▁Park	-4219
▁bear	-4220
urally	-4221
▁talks	-4222
▁precise	-4223
▁metaphor	-4224
▁multiple	-4225
▁sequence	-4226
▁perfectly	-4227
omy	-4228
oted	-4229
lands	-4230
right	-4231
▁Each	-4232
▁Paul	-4233
▁king	-4234
▁wear	-4235
▁whom	-4236
▁simpl	-4237
▁begins	-4238
▁expert	-4239
▁reward	-4240
▁safety	-4241
▁launched	-4242
▁dry	-4243
▁tox	-4244
essed	-4245
ublic	-4246
▁fell	-4247
▁gard	-4248
forest	-4249
ipping	-4250
▁folks	-4251
▁homes	-4252
▁inequ	-4253
▁plane	-4254
oration	-4255
▁attach	-4256
▁exists	-4257
▁grandm	-4258
▁leader	-4259
▁compare	-4260
▁insight	-4261
▁identify	-4262
▁normally	-4263
▁mentioned	-4264
▁consequences	-4265
mar	-4266
oint	-4267
▁Sun	-4268
▁odd	-4269
asion	-4270
ulous	-4271
uries	-4272
▁Have	-4273
▁intu	-4274
terday	-4275
▁brief	-4276
▁eleph	-4277
vention	-4278
▁paying	-4279
▁replace	-4280
▁currently	-4281
▁surprised	-4282
▁considered	-4283
set	-4284
▁Co	-4285
▁era	-4286
▁nan	-4287
▁ves	-4288
▁hasn	-4289
▁seat	-4290
▁pages	-4291
▁factory	-4292
▁investig	-4293
▁survival	-4294
cil	-4295
cket	-4296
▁fed	-4297
▁ton	-4298
ortex	-4299
▁Life	-4300
▁Pres	-4301
▁bull	-4302
ildren	-4303
ushing	-4304
▁crash	-4305
▁equip	-4306
▁stock	-4307
▁commit	-4308
▁dinner	-4309
▁finger	-4310
▁signals	-4311
▁struggle	-4312
▁operating	-4313
ux	-4314
▁band	-4315
▁roof	-4316
▁tons	-4317
▁Mexico	-4318
▁debate	-4319
▁extend	-4320
▁article	-4321
▁protein	-4322
▁theater	-4323
▁Everybody	-4324
▁GDP	-4325
▁myth	-4326
▁nutr	-4327
▁limit	-4328
▁rural	-4329
▁shoes	-4330
▁fellow	-4331
▁harder	-4332
▁versus	-4333
▁curious	-4334
▁soldiers	-4335
▁Australia	-4336
▁existence	-4337
▁seriously	-4338
▁civilization	-4339
ami	-4340
ino	-4341
ume	-4342
anes	-4343
lied	-4344
▁gay	-4345
▁nerv	-4346
▁micros	-4347
▁stupid	-4348
▁vessel	-4349
▁testing	-4350
▁worried	-4351
▁feedback	-4352
▁cognitive	-4353
▁depression	-4354
ads	-4355
▁Bas	-4356
▁pow	-4357
▁tal	-4358
▁empt	-4359
ancing	-4360
▁Green	-4361
▁categ	-4362
▁finish	-4363
▁mothers	-4364
▁contract	-4365
▁magazine	-4366
▁classroom	-4367
▁associated	-4368
▁alternative	-4369
▁generations	-4370
urd	-4371
▁PM	-4372
oman	-4373
▁Does	-4374
▁init	-4375
▁battle	-4376
▁leaves	-4377
lication	-4378
▁drawing	-4379
▁equival	-4380
▁quantum	-4381
▁planning	-4382
▁resource	-4383
▁healthcare	-4384
▁researchers	-4385
uous	-4386
▁Res	-4387
▁cro	-4388
▁lie	-4389
craft	-4390
▁scen	-4391
▁wave	-4392
▁Three	-4393
▁Would	-4394
▁lifet	-4395
▁south	-4396
▁forced	-4397
▁picked	-4398
▁galaxies	-4399
▁statistics	-4400
RI	-4401
rum	-4402
▁Their	-4403
▁camer	-4404
▁chair	-4405
▁quiet	-4406
▁scene	-4407
▁teles	-4408
▁fields	-4409
▁gather	-4410
▁unless	-4411
▁experts	-4412
▁illustr	-4413
▁marriage	-4414
▁equipment	-4415
▁hopefully	-4416
Yes	-4417
hab	-4418
▁Red	-4419
▁glo	-4420
▁hun	-4421
▁org	-4422
▁lapt	-4423
▁lies	-4424
▁stim	-4425
thetic	-4426
▁daily	-4427
▁layer	-4428
▁saved	-4429
▁surge	-4430
▁academ	-4431
▁frustr	-4432
▁incent	-4433
▁emissions	-4434
▁comfortable	-4435
ara	-4436
bel	-4437
pet	-4438
odes	-4439
sing	-4440
anted	-4441
▁ants	-4442
▁exec	-4443
▁isol	-4444
▁coral	-4445
▁stood	-4446
▁sympt	-4447
▁circle	-4448
▁desire	-4449
▁select	-4450
▁wisdom	-4451
▁England	-4452
▁Germany	-4453
▁keeping	-4454
▁nervous	-4455
▁analysis	-4456
▁designer	-4457
▁molecule	-4458
▁sentence	-4459
▁organized	-4460
4,	-4461
▁ax	-4462
aled	-4463
apse	-4464
ests	-4465
iors	-4466
▁meat	-4467
▁tick	-4468
encies	-4469
▁circum	-4470
▁island	-4471
▁partner	-4472
▁treated	-4473
▁continent	-4474
▁connections	-4475
▁increasingly	-4476
3,	-4477
ago	-4478
car	-4479
gar	-4480
icy	-4481
▁El	-4482
▁gap	-4483
olves	-4484
▁coal	-4485
ensity	-4486
▁inner	-4487
▁filled	-4488
▁motion	-4489
▁calling	-4490
▁clinical	-4491
▁expected	-4492
▁economics	-4493
▁principle	-4494
▁processes	-4495
▁technical	-4496
▁Everything	-4497
ok	-4498
▁35	-4499
▁Sm	-4500
rete	-4501
▁Min	-4502
▁Rep	-4503
▁spl	-4504
estic	-4505
place	-4506
▁Kore	-4507
▁abst	-4508
▁shut	-4509
▁wond	-4510
▁antib	-4511
▁recon	-4512
▁autism	-4513
▁100,000	-4514
▁release	-4515
▁warming	-4516
▁weather	-4517
▁Audience	-4518
▁agriculture	-4519
▁consumption	-4520
▁experienced	-4521
print	-4522
▁bits	-4523
▁date	-4524
▁wake	-4525
▁warm	-4526
▁weak	-4527
itness	-4528
▁2,000	-4529
▁round	-4530
▁users	-4531
▁fourth	-4532
▁arrived	-4533
▁covered	-4534
▁organic	-4535
roph	-4536
▁Ein	-4537
▁Pal	-4538
▁Rem	-4539
isher	-4540
nding	-4541
▁AIDS	-4542
▁King	-4543
▁flat	-4544
▁hadn	-4545
▁libr	-4546
▁puts	-4547
▁tall	-4548
▁chain	-4549
▁spoke	-4550
▁shapes	-4551
▁videos	-4552
▁voices	-4553
▁dealing	-4554
▁reaction	-4555
▁according	-4556
▁languages	-4557
▁artificial	-4558
▁equivalent	-4559
▁importance	-4560
▁distribution	-4561
Hey	-4562
fish	-4563
otic	-4564
▁MIT	-4565
erves	-4566
esome	-4567
umber	-4568
▁lawy	-4569
▁rein	-4570
▁soph	-4571
▁concl	-4572
osition	-4573
▁Darwin	-4574
▁galaxy	-4575
▁setting	-4576
▁vehicle	-4577
▁airplane	-4578
▁messages	-4579
ns	-4580
▁dol	-4581
▁row	-4582
▁hide	-4583
ession	-4584
lement	-4585
▁rates	-4586
▁privile	-4587
▁engineer	-4588
▁property	-4589
▁President	-4590
▁movements	-4591
▁universal	-4592
▁mathematical	-4593
▁transformation	-4594
cast	-4595
neath	-4596
▁compl	-4597
▁facts	-4598
▁sites	-4599
▁movies	-4600
▁symmet	-4601
▁thinks	-4602
▁toward	-4603
▁cameras	-4604
▁factors	-4605
▁letters	-4606
gn	-4607
hi	-4608
vard	-4609
zing	-4610
▁agg	-4611
▁sla	-4612
▁soul	-4613
▁vote	-4614
▁caused	-4615
▁losing	-4616
▁reform	-4617
▁Richard	-4618
▁dynamic	-4619
▁selling	-4620
▁station	-4621
▁wondering	-4622
au	-4623
cale	-4624
semb	-4625
▁dial	-4626
▁Kenya	-4627
▁illeg	-4628
▁neuro	-4629
▁perce	-4630
▁Amazon	-4631
▁variety	-4632
▁Einstein	-4633
▁released	-4634
▁convinced	-4635
▁dimensions	-4636
new	-4637
oes	-4638
That	-4639
down	-4640
ocol	-4641
▁uns	-4642
▁Times	-4643
▁dolph	-4644
▁heavy	-4645
▁infin	-4646
▁prove	-4647
▁risks	-4648
ressive	-4649
▁explan	-4650
▁players	-4651
▁feelings	-4652
▁ordinary	-4653
▁designing	-4654
▁essential	-4655
▁satellite	-4656
▁independent	-4657
▁intelligent	-4658
.'	-4659
▁Bar	-4660
▁nar	-4661
▁pil	-4662
▁arts	-4663
▁copy	-4664
▁enem	-4665
▁gall	-4666
▁qual	-4667
▁colon	-4668
▁estab	-4669
▁solid	-4670
▁damage	-4671
▁deeper	-4672
▁cutting	-4673
▁illness	-4674
▁opening	-4675
▁Japanese	-4676
▁requires	-4677
▁yesterday	-4678
▁expression	-4679
6,	-4680
▁CE	-4681
cipl	-4682
ogen	-4683
uses	-4684
▁poo	-4685
▁Gree	-4686
▁blow	-4687
▁cave	-4688
▁diet	-4689
▁kick	-4690
▁pure	-4691
▁holes	-4692
▁advert	-4693
▁neuros	-4694
▁exchange	-4695
▁collection	-4696
▁properties	-4697
add	-4698
low	-4699
oot	-4700
▁Je	-4701
life	-4702
mber	-4703
▁Ben	-4704
itals	-4705
▁ends	-4706
▁tail	-4707
ension	-4708
▁cards	-4709
▁signs	-4710
▁toile	-4711
▁veget	-4712
▁driver	-4713
▁houses	-4714
▁muscle	-4715
▁conduct	-4716
▁killing	-4717
▁rapidly	-4718
▁epidemic	-4719
▁trillion	-4720
▁electrical	-4721
▁represents	-4722
sec	-4723
uff	-4724
onym	-4725
▁cow	-4726
▁Swed	-4727
acters	-4728
▁waves	-4729
akistan	-4730
▁poetry	-4731
▁reprodu	-4732
▁advanced	-4733
▁interface	-4734
▁characters	-4735
▁underneath	-4736
ald	-4737
▁Sim	-4738
▁god	-4739
▁tow	-4740
iency	-4741
▁facing	-4742
▁malaria	-4743
▁promise	-4744
▁sending	-4745
▁victims	-4746
▁Congress	-4747
▁inequality	-4748
▁construction	-4749
van	-4750
irty	-4751
▁rat	-4752
iques	-4753
▁Last	-4754
▁resc	-4755
▁valu	-4756
▁liked	-4757
▁Center	-4758
▁fossil	-4759
▁remain	-4760
▁trials	-4761
▁Harvard	-4762
▁tomorrow	-4763
▁whenever	-4764
▁Francisco	-4765
▁carefully	-4766
▁management	-4767
▁specifically	-4768
icip	-4769
▁Atl	-4770
akers	-4771
▁2000	-4772
▁NASA	-4773
▁auth	-4774
▁gain	-4775
▁hang	-4776
▁hurt	-4777
▁reef	-4778
▁Could	-4779
▁awful	-4780
▁smile	-4781
▁George	-4782
▁height	-4783
▁Britain	-4784
▁appropr	-4785
▁battery	-4786
▁nations	-4787
▁Pakistan	-4788
▁official	-4789
▁sophistic	-4790
▁transition	-4791
▁intellectual	-4792
2.	-4793
ym	-4794
min	-4795
▁ten	-4796
▁shif	-4797
▁surf	-4798
▁broke	-4799
▁empty	-4800
▁Street	-4801
▁budget	-4802
▁former	-4803
▁display	-4804
▁emerging	-4805
▁exercise	-4806
▁microbes	-4807
▁thoughts	-4808
▁professor	-4809
▁effectively	-4810
▁possibilities	-4811
zed	-4812
engu	-4813
gets	-4814
osis	-4815
▁Cam	-4816
▁dots	-4817
▁gang	-4818
▁user	-4819
▁minim	-4820
▁negot	-4821
itarian	-4822
ulating	-4823
▁details	-4824
▁generate	-4825
▁lifetime	-4826
30	-4827
ait	-4828
oom	-4829
bble	-4830
nded	-4831
▁Ant	-4832
▁Int	-4833
▁Sat	-4834
▁lat	-4835
▁mel	-4836
▁flex	-4837
▁remo	-4838
▁chart	-4839
▁claim	-4840
▁manip	-4841
▁sight	-4842
▁School	-4843
▁player	-4844
▁review	-4845
▁convince	-4846
▁required	-4847
▁entrepreneurs	-4848
▁'9	-4849
▁Mo	-4850
▁define	-4851
▁member	-4852
▁forests	-4853
abilities	-4854
▁location	-4855
▁chemistry	-4856
▁disappear	-4857
▁producing	-4858
▁profession	-4859
hes	-4860
▁fal	-4861
▁mer	-4862
▁pip	-4863
▁tap	-4864
organ	-4865
▁peak	-4866
▁unit	-4867
▁ideal	-4868
▁prefer	-4869
▁Nigeria	-4870
▁depends	-4871
▁lessons	-4872
▁radical	-4873
▁sources	-4874
▁gentlemen	-4875
▁relatively	-4876
▁vulnerable	-4877
▁grandmother	-4878
uh	-4879
alt	-4880
cont	-4881
olds	-4882
▁evil	-4883
▁lady	-4884
▁maps	-4885
▁snow	-4886
▁honor	-4887
▁length	-4888
▁extract	-4889
▁roughly	-4890
▁circumst	-4891
▁cultures	-4892
▁graduate	-4893
▁entertain	-4894
▁mountains	-4895
▁politicians	-4896
rs	-4897
Don	-4898
ael	-4899
▁BG	-4900
abet	-4901
frie	-4902
▁sees	-4903
enture	-4904
stream	-4905
▁grade	-4906
▁pregn	-4907
▁serve	-4908
▁teeth	-4909
▁fortun	-4910
▁capture	-4911
▁Anderson	-4912
▁introduce	-4913
▁instrument	-4914
▁situations	-4915
▁techniques	-4916
▁phr	-4917
▁rub	-4918
rooms	-4919
▁Phil	-4920
▁pray	-4921
▁ride	-4922
▁Since	-4923
▁goals	-4924
▁medium	-4925
▁consist	-4926
▁contain	-4927
▁engaged	-4928
▁funding	-4929
bre	-4930
can	-4931
igm	-4932
lom	-4933
rog	-4934
▁45	-4935
uary	-4936
▁ped	-4937
icago	-4938
lying	-4939
▁Ange	-4940
▁Mart	-4941
▁bill	-4942
▁chap	-4943
▁gift	-4944
▁recy	-4945
▁unus	-4946
▁fewer	-4947
▁grain	-4948
▁kitch	-4949
▁obser	-4950
▁occup	-4951
▁refer	-4952
▁staff	-4953
▁Canada	-4954
▁centers	-4955
▁primary	-4956
▁spectrum	-4957
▁corruption	-4958
▁foundation	-4959
▁participate	-4960
ov	-4961
▁II	-4962
▁Jew	-4963
▁Yet	-4964
▁bul	-4965
▁pal	-4966
usive	-4967
▁bran	-4968
▁pengu	-4969
▁reven	-4970
▁formed	-4971
▁status	-4972
▁encoura	-4973
▁mosquit	-4974
▁valuable	-4975
▁chemicals	-4976
▁establish	-4977
60	-4978
▁GP	-4979
hyth	-4980
▁Mil	-4981
▁lic	-4982
alled	-4983
▁cure	-4984
▁liqu	-4985
▁shad	-4986
▁hyper	-4987
▁input	-4988
▁pitch	-4989
▁thanks	-4990
▁Chicago	-4991
▁actions	-4992
▁consumer	-4993
▁encourage	-4994
▁convention	-4995
▁protection	-4996
▁environments	-4997
1.	-4998
▁US	-4999
▁Lad	-5000
▁Tur	-5001
▁ens	-5002
▁metal	-5003
▁shoot	-5004
▁blocks	-5005
▁buying	-5006
chnology	-5007
▁cartoon	-5008
▁chimpan	-5009
▁courage	-5010
▁however	-5011
▁reached	-5012
▁invention	-5013
▁molecular	-5014
▁discussion	-5015
▁perception	-5016
▁evolutionary	-5017
fit	-5018
itan	-5019
▁bare	-5020
▁grid	-5021
▁inev	-5022
▁nose	-5023
porary	-5024
ternal	-5025
urance	-5026
▁beach	-5027
▁goods	-5028
▁sides	-5029
mission	-5030
▁assist	-5031
▁bottle	-5032
▁compar	-5033
▁forgot	-5034
▁interp	-5035
▁outcome	-5036
▁carrying	-5037
▁disaster	-5038
▁existing	-5039
▁Institute	-5040
▁generally	-5041
▁hospitals	-5042
▁definitely	-5043
▁introduced	-5044
▁combination	-5045
mit	-5046
vable	-5047
▁Bank	-5048
▁intr	-5049
▁myst	-5050
olving	-5051
▁James	-5052
▁Women	-5053
▁shall	-5054
▁assign	-5055
▁season	-5056
▁worlds	-5057
▁include	-5058
▁regions	-5059
▁vaccine	-5060
▁affected	-5061
▁behaviors	-5062
▁increased	-5063
▁conversations	-5064
▁manufacturing	-5065
lly	-5066
▁ho	-5067
bors	-5068
pher	-5069
▁Los	-5070
▁Tom	-5071
▁rom	-5072
▁san	-5073
ended	-5074
icing	-5075
▁desk	-5076
▁flies	-5077
▁sugar	-5078
▁Anyway	-5079
▁analog	-5080
▁drives	-5081
▁pulled	-5082
▁sharks	-5083
▁opinion	-5084
▁criminal	-5085
▁symptoms	-5086
▁worldwide	-5087
▁restaurant	-5088
▁potentially	-5089
ita	-5090
mas	-5091
▁Gh	-5092
mers	-5093
whel	-5094
▁Gal	-5095
abled	-5096
aters	-5097
▁fert	-5098
▁lect	-5099
▁spin	-5100
▁Frank	-5101
▁France	-5102
▁mirror	-5103
▁winter	-5104
▁applied	-5105
▁mistake	-5106
▁password	-5107
▁printing	-5108
▁awareness	-5109
▁radiation	-5110
▁typically	-5111
▁physically	-5112
log	-5113
▁99	-5114
atin	-5115
what	-5116
▁Wik	-5117
ework	-5118
▁thin	-5119
▁keeps	-5120
▁credit	-5121
▁attacks	-5122
▁illegal	-5123
▁kitchen	-5124
▁prepared	-5125
▁recorded	-5126
▁interests	-5127
▁newspaper	-5128
▁traveling	-5129
mal	-5130
spe	-5131
▁75	-5132
▁ju	-5133
aurs	-5134
cred	-5135
▁Dep	-5136
▁bee	-5137
oston	-5138
▁Alex	-5139
▁YouT	-5140
▁decl	-5141
▁dogs	-5142
▁ment	-5143
▁runs	-5144
▁added	-5145
▁atoms	-5146
▁cyber	-5147
▁estim	-5148
▁steel	-5149
▁Muslim	-5150
▁factor	-5151
▁option	-5152
▁regard	-5153
▁sample	-5154
▁solved	-5155
▁accompl	-5156
▁awesome	-5157
▁feature	-5158
▁operate	-5159
▁unusual	-5160
▁viruses	-5161
▁rational	-5162
▁employees	-5163
▁framework	-5164
▁protected	-5165
▁components	-5166
▁meaningful	-5167
iat	-5168
uel	-5169
▁cha	-5170
▁iPh	-5171
▁nav	-5172
etics	-5173
▁acqu	-5174
▁bath	-5175
▁pair	-5176
▁ring	-5177
▁tank	-5178
▁curve	-5179
▁dedic	-5180
▁notes	-5181
▁topic	-5182
▁bubble	-5183
▁conver	-5184
▁desper	-5185
▁ingred	-5186
▁organs	-5187
▁severe	-5188
▁YouTube	-5189
▁empower	-5190
▁overwhel	-5191
▁neighbors	-5192
▁personally	-5193
▁productive	-5194
▁fundamentally	-5195
▁sophisticated	-5196
bur	-5197
olly	-5198
uits	-5199
▁194	-5200
▁Mic	-5201
▁bow	-5202
▁Four	-5203
▁jail	-5204
▁horse	-5205
▁Valley	-5206
▁arrest	-5207
▁clever	-5208
▁perman	-5209
▁spring	-5210
▁fishing	-5211
▁quarter	-5212
▁remains	-5213
▁abstract	-5214
▁equality	-5215
▁stronger	-5216
▁mortality	-5217
▁conservation	-5218
▁collaboration	-5219
ris	-5220
hips	-5221
umps	-5222
▁Bro	-5223
▁biom	-5224
▁drag	-5225
▁pian	-5226
▁plus	-5227
▁vert	-5228
angers	-5229
▁doubt	-5230
▁shame	-5231
▁Boston	-5232
▁liquid	-5233
▁scared	-5234
▁Perhaps	-5235
▁amounts	-5236
▁pleasure	-5237
▁computing	-5238
▁naturally	-5239
▁practical	-5240
▁activities	-5241
▁innovative	-5242
▁processing	-5243
cal	-5244
gged	-5245
▁dip	-5246
▁que	-5247
point	-5248
▁Coll	-5249
isters	-5250
▁Steve	-5251
▁coord	-5252
▁false	-5253
▁horiz	-5254
▁renew	-5255
▁Russia	-5256
▁aftern	-5257
▁church	-5258
▁joined	-5259
▁senses	-5260
▁sphere	-5261
▁empathy	-5262
▁figures	-5263
▁transfer	-5264
▁ultimate	-5265
▁algorithms	-5266
▁destruction	-5267
▁inspiration	-5268
ront	-5269
▁Ber	-5270
▁adj	-5271
▁eld	-5272
▁rig	-5273
▁sen	-5274
enced	-5275
gment	-5276
▁eggs	-5277
▁reci	-5278
▁Other	-5279
▁aging	-5280
▁auton	-5281
▁songs	-5282
▁tumor	-5283
▁cortex	-5284
▁driven	-5285
▁sports	-5286
▁Michael	-5287
▁visible	-5288
▁witness	-5289
▁relevant	-5290
▁vehicles	-5291
▁pollution	-5292
rat	-5293
ums	-5294
Look	-5295
aren	-5296
ingu	-5297
▁spo	-5298
eline	-5299
▁clip	-5300
▁hung	-5301
▁While	-5302
▁satis	-5303
▁toxic	-5304
▁fisher	-5305
▁hoping	-5306
▁replic	-5307
▁survey	-5308
▁gravity	-5309
▁harvest	-5310
▁privacy	-5311
▁unknown	-5312
▁antibiot	-5313
▁hydrogen	-5314
▁mechanism	-5315
▁passionate	-5316
▁technological	-5317
Do	-5318
▁2.	-5319
opia	-5320
▁Also	-5321
▁Part	-5322
▁hunt	-5323
▁mile	-5324
▁suit	-5325
▁wars	-5326
▁Paris	-5327
▁lying	-5328
▁ought	-5329
eration	-5330
▁Nobody	-5331
▁fabric	-5332
▁garden	-5333
▁dropped	-5334
▁equally	-5335
▁housing	-5336
▁singing	-5337
▁apparent	-5338
▁concrete	-5339
▁dramatic	-5340
▁features	-5341
▁policies	-5342
▁authority	-5343
▁operation	-5344
▁providing	-5345
▁democratic	-5346
▁challenging	-5347
20	-5348
gl	-5349
za	-5350
500	-5351
ifth	-5352
▁Art	-5353
▁Pac	-5354
▁anx	-5355
▁toy	-5356
▁wel	-5357
orous	-5358
▁cere	-5359
▁diam	-5360
▁hits	-5361
▁mira	-5362
▁nurs	-5363
lation	-5364
▁clock	-5365
▁skill	-5366
▁sweet	-5367
▁agreed	-5368
▁studio	-5369
▁largely	-5370
▁confront	-5371
▁election	-5372
▁internal	-5373
▁afternoon	-5374
▁ancestors	-5375
▁dinosaurs	-5376
▁functions	-5377
▁narrative	-5378
▁efficiency	-5379
▁underwater	-5380
▁photographs	-5381
uls	-5382
▁asp	-5383
▁Talk	-5384
▁joke	-5385
▁lens	-5386
▁orch	-5387
friend	-5388
▁3,000	-5389
▁tests	-5390
▁advice	-5391
▁critic	-5392
▁puzzle	-5393
▁Charles	-5394
▁clothes	-5395
▁intense	-5396
▁musical	-5397
▁combined	-5398
▁surrounded	-5399
80	-5400
ta	-5401
ham	-5402
itz	-5403
xim	-5404
olic	-5405
▁Dem	-5406
▁Pol	-5407
▁Rob	-5408
▁Mont	-5409
▁cast	-5410
▁scar	-5411
▁chose	-5412
▁polar	-5413
itution	-5414
▁acting	-5415
▁breathe	-5416
▁discipl	-5417
▁swimming	-5418
▁collected	-5419
▁applications	-5420
▁transportation	-5421
ss	-5422
asks	-5423
ault	-5424
gent	-5425
oons	-5426
▁Unf	-5427
▁mere	-5428
▁subs	-5429
▁tape	-5430
father	-5431
ounced	-5432
▁State	-5433
▁domin	-5434
▁initi	-5435
▁navig	-5436
▁thick	-5437
▁upper	-5438
▁Project	-5439
▁cooking	-5440
▁records	-5441
▁infected	-5442
▁mistakes	-5443
▁constrain	-5444
▁explained	-5445
▁terrorism	-5446
▁literature	-5447
▁percentage	-5448
▁psychology	-5449
In	-5450
berg	-5451
▁CEO	-5452
lines	-5453
scale	-5454
▁club	-5455
▁diss	-5456
▁horm	-5457
▁milk	-5458
arrass	-5459
▁prime	-5460
▁storm	-5461
▁stret	-5462
▁trend	-5463
inction	-5464
▁parall	-5465
▁stayed	-5466
▁worker	-5467
▁fingers	-5468
▁silence	-5469
▁constant	-5470
▁horrible	-5471
▁measured	-5472
▁memories	-5473
▁occurred	-5474
▁organism	-5475
▁sunlight	-5476
▁interpret	-5477
▁conclusion	-5478
▁Unfortunately	-5479
▁circumstances	-5480
osh	-5481
▁Jan	-5482
itors	-5483
▁Port	-5484
▁Stan	-5485
▁cord	-5486
▁obst	-5487
▁zone	-5488
▁frame	-5489
▁ridic	-5490
▁roads	-5491
▁Health	-5492
▁boring	-5493
▁contem	-5494
▁deploy	-5495
▁iPhone	-5496
▁remove	-5497
▁rocket	-5498
▁tested	-5499
aneously	-5500
▁borders	-5501
▁chicken	-5502
▁combine	-5503
▁command	-5504
▁defined	-5505
▁nowhere	-5506
▁sensors	-5507
▁solving	-5508
▁tonight	-5509
▁violent	-5510
▁younger	-5511
▁accurate	-5512
▁allowing	-5513
▁implement	-5514
▁appreciate	-5515
▁confidence	-5516
aser	-5517
▁mak	-5518
icide	-5519
itual	-5520
▁outc	-5521
▁sets	-5522
▁wine	-5523
▁dress	-5524
▁score	-5525
▁taste	-5526
▁deaths	-5527
▁handle	-5528
▁reject	-5529
cription	-5530
▁comment	-5531
▁falling	-5532
▁options	-5533
▁suppose	-5534
▁somewhat	-5535
▁wireless	-5536
▁embarrass	-5537
▁sensitive	-5538
▁greenhouse	-5539
▁mathematic	-5540
▁presentation	-5541
5.	-5542
orb	-5543
adic	-5544
bage	-5545
▁Day	-5546
▁Eth	-5547
▁Mon	-5548
being	-5549
night	-5550
▁Five	-5551
▁Only	-5552
▁Sept	-5553
▁load	-5554
▁trig	-5555
Americ	-5556
herent	-5557
iosity	-5558
▁plate	-5559
▁split	-5560
▁theme	-5561
▁uncom	-5562
▁border	-5563
▁button	-5564
▁laptop	-5565
▁closely	-5566
▁fiction	-5567
▁proteins	-5568
▁tracking	-5569
▁selection	-5570
▁instruments	-5571
och	-5572
sem	-5573
anta	-5574
elly	-5575
foot	-5576
▁Air	-5577
▁GPS	-5578
▁Jer	-5579
▁Med	-5580
stand	-5581
▁Come	-5582
▁busy	-5583
▁fake	-5584
▁pool	-5585
illing	-5586
source	-5587
▁angry	-5588
▁cents	-5589
▁guide	-5590
▁hotel	-5591
▁resil	-5592
▁rooms	-5593
▁attend	-5594
▁flower	-5595
▁burning	-5596
▁evening	-5597
▁overall	-5598
▁reverse	-5599
▁presence	-5600
▁September	-5601
▁Something	-5602
▁determine	-5603
▁marketing	-5604
▁controlled	-5605
▁resistance	-5606
▁explanation	-5607
▁psychological	-5608
▁sustainability	-5609
ih	-5610
fin	-5611
▁Thom	-5612
▁bicy	-5613
▁glam	-5614
▁item	-5615
making	-5616
owered	-5617
▁depth	-5618
▁error	-5619
▁electro	-5620
▁parking	-5621
▁therapy	-5622
▁contrast	-5623
▁hypothes	-5624
▁centuries	-5625
▁statement	-5626
▁laboratory	-5627
den	-5628
▁Ac	-5629
xide	-5630
▁Law	-5631
▁Rev	-5632
▁gut	-5633
▁Adam	-5634
▁ears	-5635
▁flew	-5636
▁loud	-5637
▁mice	-5638
▁zoom	-5639
▁House	-5640
▁Micro	-5641
▁fixed	-5642
▁march	-5643
▁patent	-5644
▁suffer	-5645
▁advance	-5646
▁causing	-5647
▁vessels	-5648
▁appropriate	-5649
8.	-5650
ias	-5651
▁23	-5652
cend	-5653
▁600	-5654
▁Mal	-5655
▁Sil	-5656
▁dot	-5657
▁impl	-5658
▁stri	-5659
▁Wikip	-5660
▁faced	-5661
▁films	-5662
▁frank	-5663
▁label	-5664
▁Before	-5665
▁Number	-5666
▁signed	-5667
▁volume	-5668
onscious	-5669
▁channel	-5670
▁circuit	-5671
▁existed	-5672
▁download	-5673
▁subjects	-5674
▁capitalism	-5675
▁exploration	-5676
St	-5677
dr	-5678
yn	-5679
ola	-5680
rem	-5681
ula	-5682
▁Ma	-5683
Yeah	-5684
ctic	-5685
look	-5686
over	-5687
▁bes	-5688
▁pin	-5689
▁van	-5690
belie	-5691
entic	-5692
ingly	-5693
▁barr	-5694
▁clus	-5695
▁cock	-5696
▁firm	-5697
▁tack	-5698
▁datab	-5699
▁flood	-5700
▁recom	-5701
▁stone	-5702
▁teams	-5703
▁unexp	-5704
▁assume	-5705
▁divide	-5706
▁extent	-5707
▁inject	-5708
▁narrow	-5709
▁Pacific	-5710
▁decline	-5711
▁diction	-5712
▁extinct	-5713
▁pushing	-5714
▁receive	-5715
connected	-5716
▁administ	-5717
▁suggests	-5718
▁arguments	-5719
▁destroyed	-5720
But	-5721
agn	-5722
ups	-5723
▁Em	-5724
▁ack	-5725
▁hur	-5726
uting	-5727
▁Mark	-5728
▁cosm	-5729
▁disg	-5730
▁elev	-5731
▁pump	-5732
▁silk	-5733
▁5,000	-5734
▁Mount	-5735
▁Obama	-5736
▁boxes	-5737
▁Global	-5738
▁marine	-5739
▁owners	-5740
▁ritual	-5741
▁string	-5742
▁Angeles	-5743
▁samples	-5744
▁Everyone	-5745
▁birthday	-5746
▁collapse	-5747
▁creature	-5748
▁outcomes	-5749
▁provided	-5750
▁wondered	-5751
▁spiritual	-5752
Is	-5753
ls	-5754
box	-5755
vey	-5756
vis	-5757
▁Fe	-5758
iled	-5759
▁meg	-5760
arant	-5761
▁grab	-5762
▁pill	-5763
▁wash	-5764
asters	-5765
▁admit	-5766
▁expon	-5767
▁multi	-5768
▁enable	-5769
▁explos	-5770
▁ladies	-5771
▁lifest	-5772
▁struck	-5773
▁Science	-5774
▁aspects	-5775
▁balloon	-5776
▁offered	-5777
▁proport	-5778
▁transpl	-5779
▁instruct	-5780
▁Wikipedia	-5781
▁emergency	-5782
▁technique	-5783
▁electronic	-5784
▁unexpected	-5785
alu	-5786
aint	-5787
omic	-5788
▁Bab	-5789
▁shr	-5790
▁Mary	-5791
▁hook	-5792
▁About	-5793
▁Apple	-5794
▁Count	-5795
▁abuse	-5796
▁bones	-5797
▁globe	-5798
▁logic	-5799
▁piano	-5800
▁weigh	-5801
▁Museum	-5802
▁clouds	-5803
▁classes	-5804
▁conclud	-5805
▁flowers	-5806
▁Republic	-5807
▁director	-5808
▁floating	-5809
▁villages	-5810
ologically	-5811
▁Basically	-5812
▁economies	-5813
▁measuring	-5814
▁transformed	-5815
nda	-5816
▁Sa	-5817
keys	-5818
▁mad	-5819
▁sem	-5820
▁tab	-5821
ching	-5822
▁army	-5823
▁elim	-5824
▁furn	-5825
▁neut	-5826
▁Found	-5827
▁breed	-5828
▁explo	-5829
onymous	-5830
▁papers	-5831
▁relate	-5832
▁scenar	-5833
▁secure	-5834
ographer	-5835
▁finance	-5836
▁spectac	-5837
▁distinct	-5838
▁wherever	-5839
▁breathing	-5840
▁customers	-5841
▁presented	-5842
▁standards	-5843
▁economists	-5844
▁populations	-5845
▁implications	-5846
70	-5847
My	-5848
ata	-5849
ato	-5850
nes	-5851
hour	-5852
iety	-5853
▁Haw	-5854
▁Spe	-5855
iters	-5856
iture	-5857
▁June	-5858
▁root	-5859
athers	-5860
▁Human	-5861
▁Never	-5862
▁crack	-5863
▁dozen	-5864
▁legis	-5865
▁males	-5866
▁memor	-5867
▁phase	-5868
▁plans	-5869
▁title	-5870
▁clinic	-5871
▁genius	-5872
▁limits	-5873
▁embrace	-5874
▁library	-5875
▁instinct	-5876
▁maintain	-5877
▁paradigm	-5878
▁increases	-5879
▁precisely	-5880
▁spreading	-5881
▁department	-5882
▁educational	-5883
nic	-5884
Okay	-5885
tail	-5886
▁250	-5887
▁Che	-5888
▁Jul	-5889
▁Syr	-5890
▁irr	-5891
acing	-5892
aming	-5893
eness	-5894
ounce	-5895
▁acts	-5896
▁chip	-5897
▁gras	-5898
▁icon	-5899
▁limb	-5900
▁Antar	-5901
▁Latin	-5902
▁Union	-5903
▁accum	-5904
▁court	-5905
▁youth	-5906
▁Thomas	-5907
▁acknow	-5908
▁corres	-5909
▁diplom	-5910
▁linked	-5911
▁profit	-5912
▁scream	-5913
▁whales	-5914
inations	-5915
▁Finally	-5916
▁anticip	-5917
▁carried	-5918
▁feeding	-5919
▁Remember	-5920
▁domestic	-5921
▁drinking	-5922
▁continued	-5923
▁recording	-5924
▁mechanical	-5925
▁application	-5926
▁represented	-5927
▁automatically	-5928
bl	-5929
uum	-5930
erge	-5931
heim	-5932
rors	-5933
▁Next	-5934
▁biod	-5935
▁nest	-5936
▁ours	-5937
ateful	-5938
called	-5939
profit	-5940
▁Korea	-5941
▁falls	-5942
▁humor	-5943
▁encoun	-5944
▁monkey	-5945
▁stands	-5946
▁engaging	-5947
▁equation	-5948
▁shoulder	-5949
▁Christmas	-5950
▁celebrate	-5951
▁corporate	-5952
▁privilege	-5953
▁translate	-5954
emb	-5955
que	-5956
▁22	-5957
▁La	-5958
▁NG	-5959
cers	-5960
well	-5961
▁Cop	-5962
▁Jim	-5963
▁Pan	-5964
▁ath	-5965
inals	-5966
otion	-5967
sters	-5968
▁dign	-5969
▁poly	-5970
▁stro	-5971
▁anger	-5972
▁grows	-5973
▁pharm	-5974
▁fright	-5975
etically	-5976
▁careful	-5977
▁frankly	-5978
▁neither	-5979
▁savings	-5980
▁achieved	-5981
▁infinite	-5982
▁occasion	-5983
▁pregnant	-5984
▁footprint	-5985
▁identical	-5986
▁prototype	-5987
▁microscope	-5988
▁dramatically	-5989
ban	-5990
oca	-5991
▁Ke	-5992
east	-5993
illy	-5994
rade	-5995
rets	-5996
rows	-5997
tech	-5998
▁cup	-5999
▁hem	-6000
▁tea	-6001
icted	-6002
itory	-6003
▁bike	-6004
rating	-6005
▁decre	-6006
▁dense	-6007
▁fruit	-6008
▁honey	-6009
▁ignor	-6010
▁judge	-6011
▁prize	-6012
▁whist	-6013
▁Please	-6014
▁embedd	-6015
▁evolve	-6016
▁phrase	-6017
▁January	-6018
▁designs	-6019
▁architects	-6020
▁conventional	-6021
4.	-6022
imp	-6023
uce	-6024
▁Po	-6025
▁ru	-6026
lymp	-6027
soft	-6028
▁10,	-6029
▁Sam	-6030
▁twe	-6031
▁Comm	-6032
▁dust	-6033
▁gest	-6034
▁glob	-6035
▁lets	-6036
▁seek	-6037
▁tent	-6038
▁ther	-6039
imeter	-6040
licity	-6041
▁flash	-6042
▁tired	-6043
▁whale	-6044
▁Sweden	-6045
▁interf	-6046
▁myster	-6047
▁pocket	-6048
▁toilet	-6049
▁traged	-6050
▁earthqu	-6051
▁poorest	-6052
▁accepted	-6053
▁obsessed	-6054
▁organize	-6055
▁component	-6056
▁distributed	-6057
▁recognition	-6058
vas	-6059
▁Ah	-6060
▁py	-6061
ille	-6062
oned	-6063
▁Cap	-6064
▁pul	-6065
▁sne	-6066
eters	-6067
level	-6068
▁1950	-6069
▁bias	-6070
▁loop	-6071
▁mush	-6072
arency	-6073
▁Black	-6074
▁aston	-6075
▁colum	-6076
▁scary	-6077
▁shell	-6078
▁stere	-6079
▁style	-6080
▁traum	-6081
▁Robert	-6082
▁hearts	-6083
▁proced	-6084
▁spinal	-6085
▁storyt	-6086
ollywood	-6087
▁Central	-6088
▁conserv	-6089
▁dancing	-6090
▁guarant	-6091
▁methods	-6092
▁surgeon	-6093
▁windows	-6094
▁Africans	-6095
▁brothers	-6096
▁imagined	-6097
▁properly	-6098
▁traveled	-6099
▁reference	-6100
▁telescope	-6101
▁performing	-6102
wr	-6103
aks	-6104
hol	-6105
▁27	-6106
aret	-6107
ener	-6108
otes	-6109
▁ben	-6110
▁raw	-6111
▁vag	-6112
licit	-6113
using	-6114
▁Gulf	-6115
▁pace	-6116
▁Olymp	-6117
▁White	-6118
▁bombs	-6119
▁enemy	-6120
▁persu	-6121
▁recyc	-6122
▁seeds	-6123
erences	-6124
▁Island	-6125
▁hunger	-6126
▁immune	-6127
▁placed	-6128
▁thrown	-6129
▁appears	-6130
▁mammals	-6131
▁academic	-6132
▁appeared	-6133
▁disorder	-6134
▁overcome	-6135
▁parallel	-6136
▁produces	-6137
▁committed	-6138
▁behavioral	-6139
▁strategies	-6140
▁controlling	-6141
mm	-6142
eal	-6143
cean	-6144
esis	-6145
uity	-6146
▁bat	-6147
▁lun	-6148
clear	-6149
iance	-6150
think	-6151
▁Ghana	-6152
▁knock	-6153
▁metab	-6154
▁orbit	-6155
▁tight	-6156
▁toler	-6157
▁walks	-6158
anthrop	-6159
iveness	-6160
raction	-6161
▁candid	-6162
▁colony	-6163
▁mainly	-6164
▁obstac	-6165
▁pollen	-6166
▁rising	-6167
▁diverse	-6168
▁entered	-6169
▁habitat	-6170
▁raising	-6171
▁robotic	-6172
▁elephant	-6173
▁grateful	-6174
▁vaccines	-6175
▁colleague	-6176
▁exploring	-6177
▁household	-6178
▁insurance	-6179
▁Foundation	-6180
▁collecting	-6181
▁connecting	-6182
▁exhibition	-6183
▁grandfather	-6184
▁interacting	-6185
ari	-6186
bal	-6187
gic	-6188
tes	-6189
iggs	-6190
rary	-6191
wich	-6192
▁Sec	-6193
agger	-6194
earch	-6195
▁Ethi	-6196
▁leap	-6197
▁plot	-6198
▁alien	-6199
▁aside	-6200
▁polio	-6201
▁sales	-6202
▁smoke	-6203
▁stack	-6204
▁tries	-6205
illance	-6206
through	-6207
▁chocol	-6208
▁ignore	-6209
▁missed	-6210
▁repair	-6211
▁repeat	-6212
▁script	-6213
▁classic	-6214
▁mystery	-6215
▁painful	-6216
▁removed	-6217
▁meetings	-6218
▁Microsoft	-6219
▁algorithm	-6220
▁consumers	-6221
▁disorders	-6222
▁telephone	-6223
▁commitment	-6224
▁directions	-6225
▁journalist	-6226
▁philosophy	-6227
▁recognized	-6228
▁neighborhoods	-6229
▁x	-6230
Let	-6231
ogue	-6232
▁Get	-6233
▁gla	-6234
▁gon	-6235
esity	-6236
mates	-6237
▁golf	-6238
▁prem	-6239
▁rush	-6240
▁Democ	-6241
▁Inter	-6242
▁banks	-6243
▁blank	-6244
▁plays	-6245
▁units	-6246
▁fertil	-6247
▁plenty	-6248
▁prices	-6249
▁diagram	-6250
▁efforts	-6251
▁prosper	-6252
▁unbelie	-6253
▁whereas	-6254
▁permanent	-6255
▁Revolution	-6256
▁controvers	-6257
▁interactions	-6258
▁productivity	-6259
▁entertainment	-6260
gly	-6261
org	-6262
ota	-6263
▁Gl	-6264
pass	-6265
quar	-6266
▁Bon	-6267
▁fan	-6268
copes	-6269
esign	-6270
pring	-6271
▁cash	-6272
▁lung	-6273
▁Higgs	-6274
▁champ	-6275
▁recru	-6276
▁rhyth	-6277
▁vital	-6278
▁wound	-6279
related	-6280
▁devast	-6281
▁eradic	-6282
▁invite	-6283
▁neural	-6284
▁collaps	-6285
▁density	-6286
▁rebuild	-6287
▁recomme	-6288
▁synthes	-6289
▁wanting	-6290
▁attached	-6291
▁concepts	-6292
▁darkness	-6293
▁embedded	-6294
▁hardware	-6295
▁illusion	-6296
▁isolated	-6297
▁reaching	-6298
▁romantic	-6299
▁treating	-6300
▁vertical	-6301
▁apartment	-6302
▁authentic	-6303
▁curiosity	-6304
▁practices	-6305
▁engagement	-6306
▁personality	-6307
3.	-6308
PA	-6309
ek	-6310
exas	-6311
nels	-6312
rous	-6313
▁NGO	-6314
▁tip	-6315
attan	-6316
eared	-6317
iform	-6318
usted	-6319
▁Bush	-6320
▁boss	-6321
▁fulf	-6322
▁gray	-6323
▁till	-6324
abetes	-6325
ivered	-6326
orking	-6327
▁Grand	-6328
▁delic	-6329
▁tasks	-6330
century	-6331
▁assemb	-6332
▁corals	-6333
▁crying	-6334
▁geomet	-6335
▁heroes	-6336
▁lovely	-6337
▁oldest	-6338
▁pushed	-6339
▁beliefs	-6340
▁cheaper	-6341
▁citizen	-6342
▁concern	-6343
▁license	-6344
▁monkeys	-6345
▁muscles	-6346
▁controls	-6347
▁globally	-6348
▁involves	-6349
▁recovery	-6350
▁depending	-6351
▁universities	-6352
bi	-6353
hib	-6354
iac	-6355
sum	-6356
amin	-6357
appy	-6358
keep	-6359
rant	-6360
▁Cor	-6361
▁Eas	-6362
▁Mad	-6363
▁aim	-6364
▁dio	-6365
aving	-6366
leton	-6367
power	-6368
while	-6369
▁Gold	-6370
▁Jack	-6371
▁Manh	-6372
▁pour	-6373
▁sacr	-6374
▁tube	-6375
ptions	-6376
▁Texas	-6377
▁adopt	-6378
▁drove	-6379
▁fluid	-6380
▁liver	-6381
▁usual	-6382
▁yield	-6383
▁facial	-6384
▁filter	-6385
▁hungry	-6386
▁latest	-6387
▁retire	-6388
▁spider	-6389
children	-6390
▁Nations	-6391
▁Nothing	-6392
▁divided	-6393
▁herself	-6394
▁inspire	-6395
▁suicide	-6396
▁Stanford	-6397
▁captured	-6398
▁Manhattan	-6399
▁lifestyle	-6400
▁sculpture	-6401
▁virtually	-6402
▁contribute	-6403
▁fascinated	-6404
▁antibiotics	-6405
▁spectacular	-6406
▁entrepreneur	-6407
ka	-6408
azz	-6409
cut	-6410
▁Rw	-6411
ello	-6412
gers	-6413
osen	-6414
▁beg	-6415
▁gig	-6416
under	-6417
▁Cons	-6418
▁Narr	-6419
▁Pole	-6420
▁emph	-6421
▁rent	-6422
apping	-6423
phones	-6424
▁Congo	-6425
▁crops	-6426
▁purch	-6427
▁rocks	-6428
ogether	-6429
▁astero	-6430
▁escape	-6431
▁needle	-6432
▁portra	-6433
▁powers	-6434
▁rescue	-6435
▁Islamic	-6436
▁lecture	-6437
▁monitor	-6438
▁orchest	-6439
▁section	-6440
▁estimate	-6441
▁reported	-6442
▁stations	-6443
▁delivered	-6444
▁paintings	-6445
▁volunteers	-6446
▁interactive	-6447
▁manufacture	-6448
▁International	-6449
7.	-6450
bra	-6451
ida	-6452
iel	-6453
▁Hy	-6454
case	-6455
doll	-6456
ubes	-6457
▁Ice	-6458
▁Jes	-6459
▁Nob	-6460
▁Tor	-6461
▁enh	-6462
▁lin	-6463
▁sed	-6464
▁tri	-6465
ckets	-6466
▁axis	-6467
▁choo	-6468
▁dict	-6469
▁prev	-6470
▁Space	-6471
▁Super	-6472
▁Voice	-6473
▁aband	-6474
▁brown	-6475
▁dirty	-6476
▁minor	-6477
▁utter	-6478
▁Indeed	-6479
▁Martin	-6480
▁barely	-6481
▁behave	-6482
▁weapon	-6483
▁writer	-6484
▁airport	-6485
▁dioxide	-6486
▁disrupt	-6487
▁impacts	-6488
▁obesity	-6489
▁reconst	-6490
▁scratch	-6491
▁breaking	-6492
▁district	-6493
▁laughing	-6494
▁penguins	-6495
▁shooting	-6496
▁textbook	-6497
▁dedicated	-6498
▁functional	-6499
▁historical	-6500
▁cooperation	-6501
▁expectations	-6502
▁surveillance	-6503
6.	-6504
han	-6505
rid	-6506
▁Hi	-6507
ship	-6508
▁Lab	-6509
▁Nat	-6510
▁Pre	-6511
▁ate	-6512
▁lob	-6513
▁mim	-6514
There	-6515
angle	-6516
iated	-6517
orter	-6518
oster	-6519
osure	-6520
▁1990	-6521
▁Jeff	-6522
▁corn	-6523
▁cute	-6524
▁flip	-6525
▁sket	-6526
▁vibr	-6527
▁Haiti	-6528
▁fuels	-6529
▁likes	-6530
ishment	-6531
▁borrow	-6532
▁capita	-6533
▁scales	-6534
▁slides	-6535
▁dignity	-6536
▁federal	-6537
▁pretend	-6538
▁elsewhere	-6539
▁apparently	-6540
▁advertising	-6541
AR	-6542
aj	-6543
fl	-6544
ali	-6545
anz	-6546
arp	-6547
aws	-6548
ched	-6549
emic	-6550
lims	-6551
zens	-6552
▁Bay	-6553
▁Del	-6554
▁Leg	-6555
▁wip	-6556
flies	-6557
▁lock	-6558
▁rely	-6559
▁Nobel	-6560
▁pyram	-6561
▁skull	-6562
uration	-6563
▁agenda	-6564
▁conven	-6565
▁defend	-6566
▁excell	-6567
▁surely	-6568
▁talent	-6569
▁concert	-6570
▁opposed	-6571
▁parties	-6572
▁visited	-6573
▁magnetic	-6574
▁particle	-6575
▁provides	-6576
▁documents	-6577
▁generated	-6578
▁searching	-6579
▁uncertain	-6580
▁incentives	-6581
▁transparency	-6582
9.	-6583
▁Bu	-6584
▁DH	-6585
▁Op	-6586
fall	-6587
iday	-6588
lete	-6589
▁Boy	-6590
▁tag	-6591
class	-6592
isons	-6593
▁cens	-6594
lessly	-6595
▁chaos	-6596
▁fifth	-6597
▁helic	-6598
▁sheep	-6599
attered	-6600
forward	-6601
section	-6602
▁expans	-6603
▁hardly	-6604
▁layers	-6605
▁output	-6606
▁charity	-6607
▁initial	-6608
▁Atlantic	-6609
▁astronom	-6610
▁diabetes	-6611
▁sandwich	-6612
▁furniture	-6613
▁uncomfort	-6614
▁accessible	-6615
▁optimistic	-6616
▁protecting	-6617
▁resolution	-6618
▁disappeared	-6619
▁transparent	-6620
▁underground	-6621
-1	-6622
Be	-6623
ket	-6624
ras	-6625
oust	-6626
tery	-6627
udes	-6628
walk	-6629
zees	-6630
▁Dis	-6631
▁cab	-6632
archy	-6633
ester	-6634
going	-6635
iders	-6636
▁High	-6637
▁Stud	-6638
▁cous	-6639
▁dish	-6640
▁hire	-6641
▁mold	-6642
▁peer	-6643
usions	-6644
▁apple	-6645
▁chief	-6646
▁imper	-6647
▁maxim	-6648
▁schol	-6649
▁tears	-6650
▁upset	-6651
▁wings	-6652
▁Palest	-6653
▁chosen	-6654
▁frozen	-6655
▁legacy	-6656
▁locked	-6657
▁ceiling	-6658
▁crucial	-6659
▁exposed	-6660
▁printed	-6661
▁recover	-6662
▁traject	-6663
▁football	-6664
▁refugees	-6665
▁announced	-6666
▁chocolate	-6667
▁conflicts	-6668
▁intention	-6669
▁intuitive	-6670
▁reduction	-6671
▁Department	-6672
▁discoveries	-6673
▁ingredients	-6674
hop	-6675
▁Ox	-6676
ione	-6677
▁Eve	-6678
▁Oct	-6679
▁hat	-6680
▁spr	-6681
▁unp	-6682
cence	-6683
▁Span	-6684
▁earn	-6685
▁guns	-6686
▁ugly	-6687
dollar	-6688
▁angle	-6689
▁chest	-6690
▁digit	-6691
▁gonna	-6692
▁manif	-6693
▁proof	-6694
ughters	-6695
▁attrib	-6696
▁spoken	-6697
▁William	-6698
▁distant	-6699
▁drivers	-6700
▁instant	-6701
▁suspect	-6702
▁tragedy	-6703
▁Narrator	-6704
▁contains	-6705
▁dolphins	-6706
▁external	-6707
▁Christian	-6708
▁backwards	-6709
▁encounter	-6710
▁variation	-6711
▁affordable	-6712
▁transplant	-6713
▁communications	-6714
cel	-6715
emp	-6716
hen	-6717
oma	-6718
▁Ug	-6719
▁id	-6720
▁na	-6721
ding	-6722
▁195	-6723
▁Bob	-6724
▁Hom	-6725
▁Net	-6726
▁Rio	-6727
▁ric	-6728
▁tro	-6729
omous	-6730
▁1980	-6731
▁Budd	-6732
▁Turn	-6733
▁Wall	-6734
▁ages	-6735
▁enth	-6736
▁pink	-6737
▁rail	-6738
▁tech	-6739
▁Woman	-6740
▁abund	-6741
▁conce	-6742
▁doors	-6743
▁meter	-6744
▁reput	-6745
▁sheet	-6746
▁views	-6747
▁20,000	-6748
▁50,000	-6749
▁dozens	-6750
▁farmer	-6751
▁silent	-6752
▁amongst	-6753
▁delight	-6754
▁essence	-6755
▁hanging	-6756
▁letting	-6757
▁picking	-6758
▁touched	-6759
▁agencies	-6760
▁theories	-6761
▁Hollywood	-6762
▁confident	-6763
▁continues	-6764
▁inspiring	-6765
▁investing	-6766
▁boundaries	-6767
▁earthquake	-6768
▁governance	-6769
▁integrated	-6770
▁programming	-6771
▁uncomfortable	-6772
▁characteristics	-6773
BI	-6774
oir	-6775
war	-6776
rons	-6777
viol	-6778
▁Fin	-6779
▁Ten	-6780
▁Was	-6781
▁hol	-6782
▁jun	-6783
▁obl	-6784
alian	-6785
quare	-6786
▁Arch	-6787
▁beer	-6788
▁boom	-6789
▁debt	-6790
▁trop	-6791
ietnam	-6792
▁Scott	-6793
▁drawn	-6794
▁elder	-6795
▁finds	-6796
▁paras	-6797
▁route	-6798
▁shake	-6799
▁stops	-6800
▁veter	-6801
▁Really	-6802
▁actors	-6803
▁origin	-6804
▁sacred	-6805
▁satisf	-6806
▁shadow	-6807
▁subtle	-6808
▁surviv	-6809
American	-6810
▁Muslims	-6811
▁anxiety	-6812
▁painted	-6813
▁dominant	-6814
▁northern	-6815
▁diagnosed	-6816
▁motivation	-6817
▁rainforest	-6818
▁philanthrop	-6819
▁breakthrough	-6820
ua	-6821
rol	-6822
top	-6823
uba	-6824
irds	-6825
oded	-6826
thal	-6827
▁Bel	-6828
▁Pat	-6829
▁Ros	-6830
ctica	-6831
▁Back	-6832
▁Sing	-6833
▁pand	-6834
▁quit	-6835
▁tied	-6836
heimer	-6837
▁Peter	-6838
▁diver	-6839
▁naked	-6840
▁spark	-6841
▁absorb	-6842
▁emerge	-6843
▁extrem	-6844
▁margin	-6845
▁neuron	-6846
▁orange	-6847
▁paraly	-6848
▁served	-6849
▁smooth	-6850
▁trends	-6851
▁granted	-6852
▁passing	-6853
▁promote	-6854
▁refugee	-6855
▁reports	-6856
▁speaker	-6857
▁welcome	-6858
▁Research	-6859
▁focusing	-6860
▁laughter	-6861
▁lighting	-6862
▁minister	-6863
▁animation	-6864
▁dimension	-6865
▁objective	-6866
▁Antarctica	-6867
▁identified	-6868
▁mechanisms	-6869
▁consequence	-6870
▁demonstrate	-6871
▁innovations	-6872
▁agricultural	-6873
So	-6874
And	-6875
bed	-6876
pox	-6877
sey	-6878
▁Jo	-6879
▁gh	-6880
rimp	-6881
▁10-	-6882
▁Bur	-6883
▁Vir	-6884
▁der	-6885
▁nit	-6886
▁pra	-6887
gging	-6888
isted	-6889
tical	-6890
▁1970	-6891
▁Step	-6892
▁bubb	-6893
▁kiss	-6894
▁laid	-6895
▁quad	-6896
▁susp	-6897
▁Ocean	-6898
▁laser	-6899
▁opens	-6900
▁relax	-6901
▁roots	-6902
▁schem	-6903
▁Things	-6904
▁commod	-6905
▁emphas	-6906
▁intent	-6907
▁nurses	-6908
▁perpet	-6909
▁richer	-6910
▁senior	-6911
▁volcan	-6912
▁Vietnam	-6913
▁clients	-6914
▁garbage	-6915
▁pointed	-6916
▁baseball	-6917
▁database	-6918
▁dynamics	-6919
▁repeated	-6920
▁symmetry	-6921
▁dependent	-6922
▁mechanics	-6923
▁capability	-6924
▁originally	-6925
▁simplicity	-6926
▁struggling	-6927
▁improvement	-6928
▁neuroscience	-6929
▁participants	-6930
▁65	-6931
ahar	-6932
born	-6933
ober	-6934
part	-6935
▁Sov	-6936
▁aer	-6937
▁bon	-6938
Where	-6939
ontal	-6940
state	-6941
▁Girl	-6942
▁fool	-6943
▁glad	-6944
▁lift	-6945
▁sink	-6946
othing	-6947
▁4,000	-6948
▁Smith	-6949
▁advoc	-6950
▁coach	-6951
▁drill	-6952
▁gases	-6953
▁legit	-6954
▁links	-6955
▁lungs	-6956
▁marry	-6957
▁monit	-6958
▁pilot	-6959
▁strip	-6960
▁unpre	-6961
▁yours	-6962
▁Design	-6963
▁Uganda	-6964
▁lawyer	-6965
▁rating	-6966
▁reveal	-6967
▁tricks	-6968
▁bicycle	-6969
▁circles	-6970
▁consult	-6971
▁helicop	-6972
▁slavery	-6973
▁strangers	-6974
▁terrorist	-6975
▁terrorists	-6976
▁treatments	-6977
▁assumptions	-6978
▁probability	-6979
uk	-6980
Can	-6981
bul	-6982
def	-6983
ura	-6984
▁0.	-6985
fold	-6986
igen	-6987
izer	-6988
ocal	-6989
▁191	-6990
▁Alz	-6991
▁Fre	-6992
▁Lar	-6993
▁Tal	-6994
▁aes	-6995
▁unh	-6996
▁wra	-6997
itate	-6998
▁1960	-6999
▁dive	-7000
▁east	-7001
▁excl	-7002
▁mail	-7003
▁mood	-7004
▁prec	-7005
arents	-7006
▁Italy	-7007
▁evalu	-7008
▁flows	-7009
▁glaci	-7010
▁punch	-7011
▁Jewish	-7012
▁agency	-7013
▁degrad	-7014
▁landed	-7015
▁poison	-7016
▁stable	-7017
▁stages	-7018
▁theore	-7019
▁October	-7020
▁analyze	-7021
▁anthrop	-7022
▁consume	-7023
▁defense	-7024
▁disturb	-7025
▁officer	-7026
▁reduced	-7027
▁sensory	-7028
▁sisters	-7029
▁smoking	-7030
▁aircraft	-7031
▁returned	-7032
▁Alzheimer	-7033
▁calculate	-7034
▁daughters	-7035
▁highlight	-7036
▁synthetic	-7037
▁afterwards	-7038
▁ridiculous	-7039
▁suggesting	-7040
lyn	-7041
▁32	-7042
▁fib	-7043
▁gro	-7044
▁lux	-7045
enger	-7046
▁deli	-7047
▁hier	-7048
▁pile	-7049
▁salt	-7050
▁sits	-7051
utical	-7052
yright	-7053
▁chrom	-7054
▁disag	-7055
▁edges	-7056
▁threw	-7057
viously	-7058
▁adding	-7059
▁combat	-7060
▁linear	-7061
▁settle	-7062
▁shrimp	-7063
▁simult	-7064
▁victim	-7065
▁briefly	-7066
▁chapter	-7067
▁ethical	-7068
▁educated	-7069
▁facility	-7070
▁includes	-7071
▁manifest	-7072
▁reminded	-7073
▁unlikely	-7074
▁elections	-7075
▁musicians	-7076
▁separated	-7077
▁ecosystems	-7078
▁predictions	-7079
li	-7080
ams	-7081
auc	-7082
cap	-7083
edy	-7084
esh	-7085
ixt	-7086
▁Ok	-7087
ardo	-7088
bits	-7089
▁'60	-7090
▁Hel	-7091
▁Mac	-7092
▁Sea	-7093
▁bio	-7094
▁hip	-7095
▁wid	-7096
izoph	-7097
▁Mand	-7098
▁alco	-7099
▁clim	-7100
▁dump	-7101
▁eleg	-7102
▁neat	-7103
▁toys	-7104
iology	-7105
▁Bible	-7106
▁Third	-7107
▁balls	-7108
▁fract	-7109
unclear	-7110
▁athlet	-7111
▁breaks	-7112
▁curren	-7113
▁ensure	-7114
▁fought	-7115
▁injury	-7116
▁merely	-7117
▁observ	-7118
▁robust	-7119
▁Eastern	-7120
▁Whether	-7121
▁chances	-7122
▁happier	-7123
▁pulling	-7124
aceutical	-7125
▁artistic	-7126
▁crossing	-7127
▁southern	-7128
▁surfaces	-7129
▁adventure	-7130
▁exception	-7131
▁frequency	-7132
▁determined	-7133
▁operations	-7134
▁chimpanzees	-7135
▁electronics	-7136
▁biodiversity	-7137
▁intervention	-7138
tw	-7139
wl	-7140
erd	-7141
omb	-7142
▁95	-7143
When	-7144
apor	-7145
fess	-7146
onds	-7147
▁MRI	-7148
▁Mor	-7149
▁Som	-7150
▁sle	-7151
obile	-7152
opher	-7153
ribly	-7154
stage	-7155
▁Gand	-7156
▁Tell	-7157
▁bars	-7158
▁hill	-7159
▁meal	-7160
▁tort	-7161
▁wing	-7162
encing	-7163
iatric	-7164
mingly	-7165
▁Child	-7166
▁begun	-7167
▁exped	-7168
▁pione	-7169
▁reefs	-7170
▁seats	-7171
igation	-7172
▁funded	-7173
▁heaven	-7174
▁poster	-7175
▁rarely	-7176
▁regret	-7177
▁stores	-7178
▁tribes	-7179
▁waters	-7180
▁General	-7181
▁failing	-7182
▁symbols	-7183
▁warning	-7184
▁Ethiopia	-7185
▁attitude	-7186
▁delivery	-7187
▁flexible	-7188
▁incident	-7189
▁informed	-7190
▁inherent	-7191
▁restrict	-7192
▁speakers	-7193
▁expanding	-7194
▁ignorance	-7195
▁physicist	-7196
▁positions	-7197
▁suggested	-7198
▁additional	-7199
▁biologists	-7200
▁permission	-7201
▁journalists	-7202
▁photographer	-7203
▁grandchildren	-7204
aze	-7205
ete	-7206
hal	-7207
rey	-7208
▁Ty	-7209
free	-7210
icks	-7211
ocin	-7212
phor	-7213
▁700	-7214
▁Aug	-7215
▁Sur	-7216
▁mur	-7217
arity	-7218
capes	-7219
field	-7220
inder	-7221
reens	-7222
▁Flor	-7223
▁adap	-7224
▁knee	-7225
▁mall	-7226
▁pupp	-7227
▁soap	-7228
▁wise	-7229
makers	-7230
▁blame	-7231
▁craft	-7232
▁flour	-7233
▁holds	-7234
▁realm	-7235
▁ultra	-7236
astroph	-7237
unction	-7238
▁Oxford	-7239
▁Rwanda	-7240
▁Within	-7241
▁adjust	-7242
▁adoles	-7243
▁decent	-7244
▁partly	-7245
▁rivers	-7246
▁helpful	-7247
▁millenn	-7248
▁session	-7249
▁Children	-7250
▁conclude	-7251
▁depressed	-7252
▁elephants	-7253
▁supported	-7254
▁underlying	-7255
▁photography	-7256
▁experimental	-7257
▁collaborative	-7258
agh	-7259
▁2,	-7260
onic	-7261
▁120	-7262
▁Hum	-7263
▁Mod	-7264
▁Sou	-7265
▁Wal	-7266
▁lon	-7267
▁wet	-7268
ilize	-7269
oding	-7270
▁Cour	-7271
▁Time	-7272
▁mate	-7273
▁nets	-7274
▁stom	-7275
▁tear	-7276
▁Carol	-7277
▁River	-7278
▁actor	-7279
▁array	-7280
▁cryst	-7281
▁skept	-7282
▁thumb	-7283
▁enthus	-7284
▁ethnic	-7285
▁tackle	-7286
▁thresh	-7287
izophren	-7288
▁Spanish	-7289
▁Through	-7290
▁convert	-7291
▁imagery	-7292
▁protest	-7293
▁shelter	-7294
▁figuring	-7295
▁shopping	-7296
▁sleeping	-7297
▁Obviously	-7298
▁accidents	-7299
▁immediate	-7300
▁nutrition	-7301
▁passwords	-7302
▁predicted	-7303
▁reputation	-7304
▁translated	-7305
▁unbelievable	-7306
▁interestingly	-7307
▁participation	-7308
ason	-7309
izar	-7310
osal	-7311
ulum	-7312
▁Hey	-7313
▁Out	-7314
▁Six	-7315
▁Unt	-7316
▁Ven	-7317
▁caps	-7318
▁incl	-7319
nocent	-7320
▁Cambr	-7321
▁cliff	-7322
▁genoc	-7323
▁mixed	-7324
▁nerve	-7325
▁safer	-7326
▁sharp	-7327
isphere	-7328
▁Nature	-7329
▁Virgin	-7330
▁basket	-7331
▁caring	-7332
▁pursue	-7333
▁trucks	-7334
▁chromos	-7335
▁elected	-7336
▁farming	-7337
▁fastest	-7338
▁lawyers	-7339
▁observe	-7340
▁origami	-7341
▁shocked	-7342
▁smarter	-7343
▁targets	-7344
▁extended	-7345
▁invested	-7346
▁measures	-7347
▁scenario	-7348
▁throwing	-7349
▁abilities	-7350
▁expansion	-7351
▁prisoners	-7352
▁radically	-7353
▁teenagers	-7354
▁catastroph	-7355
▁mysterious	-7356
▁satellites	-7357
▁observation	-7358
▁globalization	-7359
▁significantly	-7360
Ch	-7361
Wow	-7362
opy	-7363
▁LG	-7364
ideo	-7365
iece	-7366
liam	-7367
pond	-7368
rome	-7369
urse	-7370
west	-7371
▁Acc	-7372
▁Put	-7373
erved	-7374
ifice	-7375
tocin	-7376
▁Cont	-7377
▁Move	-7378
▁Star	-7379
▁bags	-7380
▁beet	-7381
▁cats	-7382
▁tuna	-7383
▁vent	-7384
cember	-7385
icious	-7386
▁Gates	-7387
▁Prize	-7388
▁algae	-7389
▁bears	-7390
▁brave	-7391
▁owner	-7392
▁reson	-7393
▁spots	-7394
▁tribe	-7395
▁August	-7396
▁assess	-7397
▁domain	-7398
▁killer	-7399
▁panels	-7400
▁shaped	-7401
▁shrink	-7402
fficient	-7403
▁Florida	-7404
▁comprom	-7405
▁deliber	-7406
▁disgust	-7407
▁emerged	-7408
▁enforce	-7409
▁females	-7410
▁founded	-7411
▁fragile	-7412
▁hackers	-7413
▁pyramid	-7414
▁revenue	-7415
▁routine	-7416
▁wheelch	-7417
istically	-7418
▁answered	-7419
▁category	-7420
▁dinosaur	-7421
▁proposed	-7422
▁gathering	-7423
▁gradually	-7424
▁sentences	-7425
forestation	-7426
▁disappoint	-7427
▁hypothesis	-7428
▁inevitable	-7429
▁proportion	-7430
▁astonishing	-7431
▁constructed	-7432
▁schizophren	-7433
fe	-7434
sc	-7435
ani	-7436
che	-7437
▁BF	-7438
▁KB	-7439
rich	-7440
yard	-7441
▁800	-7442
▁dim	-7443
▁hey	-7444
atrix	-7445
clock	-7446
ician	-7447
inson	-7448
riger	-7449
▁Beij	-7450
▁acid	-7451
▁dear	-7452
itudes	-7453
▁elite	-7454
▁fiber	-7455
▁arrive	-7456
▁correl	-7457
▁regime	-7458
▁sensor	-7459
▁widely	-7460
▁contrad	-7461
▁immense	-7462
▁involve	-7463
▁soldier	-7464
▁threats	-7465
▁December	-7466
▁Southern	-7467
▁choosing	-7468
▁climbing	-7469
▁entering	-7470
▁refriger	-7471
▁smallpox	-7472
▁primarily	-7473
▁dictionary	-7474
▁capabilities	-7475
▁connectivity	-7476
▁transmission	-7477
DA	-7478
MS	-7479
bru	-7480
ena	-7481
mod	-7482
▁26	-7483
Talk	-7484
ache	-7485
atts	-7486
edge	-7487
utch	-7488
▁Gab	-7489
▁Mom	-7490
▁boo	-7491
▁lit	-7492
adays	-7493
amine	-7494
eller	-7495
oning	-7496
▁Long	-7497
▁None	-7498
▁Rome	-7499
▁Sund	-7500
▁defe	-7501
▁mode	-7502
izarre	-7503
market	-7504
mental	-7505
▁Greek	-7506
▁burst	-7507
▁chron	-7508
▁jelly	-7509
▁joint	-7510
▁nucle	-7511
▁trail	-7512
▁wider	-7513
lishing	-7514
▁During	-7515
▁Mother	-7516
▁Soviet	-7517
▁vacuum	-7518
▁alcohol	-7519
▁imaging	-7520
▁magical	-7521
▁articles	-7522
▁dialogue	-7523
▁leverage	-7524
▁forgotten	-7525
▁investors	-7526
▁disability	-7527
▁explaining	-7528
▁frustrated	-7529
▁resilience	-7530
▁experiencing	-7531
▁successfully	-7532
▁surprisingly	-7533
▁demonstration	-7534
▁professionals	-7535
▁3.	-7536
▁Up	-7537
bola	-7538
emen	-7539
half	-7540
▁Ser	-7541
▁ain	-7542
▁cas	-7543
allow	-7544
elled	-7545
gency	-7546
▁asks	-7547
▁brib	-7548
▁brut	-7549
▁sulf	-7550
▁tong	-7551
▁whis	-7552
atever	-7553
rained	-7554
soever	-7555
▁chips	-7556
▁silly	-7557
▁stake	-7558
▁weeke	-7559
athered	-7560
liament	-7561
▁Arabic	-7562
▁curric	-7563
▁jumped	-7564
▁sticks	-7565
▁adopted	-7566
▁affects	-7567
▁enterpr	-7568
▁regener	-7569
▁tissues	-7570
▁Somebody	-7571
▁arrested	-7572
▁channels	-7573
▁confused	-7574
▁fraction	-7575
▁included	-7576
▁innocent	-7577
▁skeleton	-7578
▁strongly	-7579
▁versions	-7580
▁copyright	-7581
▁infection	-7582
▁intuition	-7583
▁primitive	-7584
▁compelling	-7585
▁industries	-7586
▁medication	-7587
▁simulation	-7588
▁traditions	-7589
▁whatsoever	-7590
▁representation	-7591
EC	-7592
MA	-7593
OK	-7594
ala	-7595
oly	-7596
yal	-7597
▁Os	-7598
agos	-7599
eart	-7600
iens	-7601
umes	-7602
▁'70	-7603
▁'90	-7604
▁Isn	-7605
▁Jud	-7606
▁Sar	-7607
▁gee	-7608
▁ink	-7609
athan	-7610
rants	-7611
worth	-7612
▁Coun	-7613
▁Give	-7614
▁bats	-7615
▁butt	-7616
▁cott	-7617
▁dism	-7618
▁file	-7619
▁leaf	-7620
▁neck	-7621
▁plug	-7622
▁rice	-7623
▁stab	-7624
mented	-7625
▁Brown	-7626
▁Video	-7627
▁bored	-7628
▁caves	-7629
▁civic	-7630
▁excit	-7631
▁miser	-7632
▁pairs	-7633
▁screw	-7634
▁uncle	-7635
▁wired	-7636
▁Norway	-7637
▁Turkey	-7638
▁buried	-7639
▁burned	-7640
▁compos	-7641
▁inches	-7642
▁stroke	-7643
▁TEDTalk	-7644
▁bizarre	-7645
▁closing	-7646
▁discrim	-7647
▁elderly	-7648
▁indigen	-7649
▁liberal	-7650
▁drawings	-7651
▁fabulous	-7652
▁mosquito	-7653
▁survived	-7654
▁initially	-7655
▁instantly	-7656
▁perceived	-7657
▁reactions	-7658
▁recommend	-7659
▁autonomous	-7660
▁difficulty	-7661
▁trajectory	-7662
▁authorities	-7663
▁instructions	-7664
▁pharmaceutical	-7665
11	-7666
ET	-7667
ague	-7668
airo	-7669
enly	-7670
onia	-7671
ownt	-7672
▁Hen	-7673
▁Moo	-7674
▁Tim	-7675
▁Wow	-7676
▁cig	-7677
ading	-7678
iment	-7679
opard	-7680
▁Dere	-7681
▁crew	-7682
▁tone	-7683
bruary	-7684
esthes	-7685
ortion	-7686
▁2009,	-7687
▁Court	-7688
▁nurse	-7689
▁panel	-7690
▁plain	-7691
▁pride	-7692
▁shout	-7693
embered	-7694
working	-7695
▁Saturn	-7696
▁chairs	-7697
▁ending	-7698
cedented	-7699
▁bubbles	-7700
▁demands	-7701
▁enables	-7702
▁forming	-7703
▁printer	-7704
▁wealthy	-7705
▁February	-7706
▁colonies	-7707
▁covering	-7708
▁oxytocin	-7709
▁sciences	-7710
▁suffered	-7711
▁broadcast	-7712
▁fortunate	-7713
▁healthier	-7714
▁improving	-7715
▁physician	-7716
▁approaches	-7717
▁attractive	-7718
▁correspond	-7719
▁excitement	-7720
▁indigenous	-7721
▁structural	-7722
▁competitive	-7723
▁architectural	-7724
▁mathematicians	-7725
va	-7726
eda	-7727
elf	-7728
err	-7729
kin	-7730
str	-7731
eday	-7732
play	-7733
road	-7734
zero	-7735
▁Det	-7736
▁Lou	-7737
▁Mag	-7738
▁Mah	-7739
▁Nic	-7740
anged	-7741
aning	-7742
ested	-7743
lings	-7744
otted	-7745
ville	-7746
▁Brun	-7747
▁carr	-7748
▁cong	-7749
▁dies	-7750
▁duck	-7751
▁grat	-7752
aharan	-7753
icient	-7754
semble	-7755
▁incor	-7756
▁intim	-7757
▁stunt	-7758
▁valid	-7759
▁30,000	-7760
▁barrel	-7761
▁convey	-7762
▁metric	-7763
▁native	-7764
▁recept	-7765
▁tracks	-7766
▁unable	-7767
▁Silicon	-7768
▁dolphin	-7769
▁fortune	-7770
▁hitting	-7771
▁paradox	-7772
▁prepare	-7773
▁selfish	-7774
▁staying	-7775
▁writers	-7776
▁accounts	-7777
▁distingu	-7778
▁keyboard	-7779
▁reducing	-7780
▁stereoty	-7781
▁stranger	-7782
▁Cambridge	-7783
▁nutrients	-7784
▁paralyzed	-7785
▁threshold	-7786
▁consistent	-7787
▁profoundly	-7788
▁prosperity	-7789
▁wheelchair	-7790
▁description	-7791
▁unprecedented	-7792
ati	-7793
ela	-7794
oli	-7795
ora	-7796
▁Cr	-7797
aded	-7798
conf	-7799
illa	-7800
▁Den	-7801
▁Jon	-7802
▁LED	-7803
▁Tel	-7804
maker	-7805
puter	-7806
stone	-7807
▁Blue	-7808
▁cert	-7809
▁gaps	-7810
▁pigs	-7811
▁suck	-7812
engine	-7813
fessor	-7814
▁Asian	-7815
▁Ebola	-7816
▁Jesus	-7817
▁March	-7818
▁Titan	-7819
▁agent	-7820
▁armed	-7821
▁audio	-7822
▁fears	-7823
▁immig	-7824
▁spray	-7825
▁tempt	-7826
Saharan	-7827
angible	-7828
inarily	-7829
parents	-7830
▁Arctic	-7831
▁Square	-7832
▁export	-7833
▁mining	-7834
▁ticket	-7835
▁tumors	-7836
▁upside	-7837
changing	-7838
▁Russian	-7839
▁compete	-7840
▁deserve	-7841
▁footage	-7842
▁graphic	-7843
▁methane	-7844
▁miracle	-7845
▁neutral	-7846
▁periods	-7847
▁persist	-7848
▁restore	-7849
▁serving	-7850
▁winning	-7851
▁detailed	-7852
▁homework	-7853
▁improved	-7854
▁judgment	-7855
▁navigate	-7856
▁neurolog	-7857
▁socially	-7858
▁expertise	-7859
▁microbial	-7860
▁curriculum	-7861
▁expectancy	-7862
▁remembered	-7863
▁supporting	-7864
▁threatened	-7865
▁established	-7866
▁exponential	-7867
▁genetically	-7868
▁interviewed	-7869
▁contemporary	-7870
▁photographed	-7871
▁simultaneously	-7872
mo	-7873
ais	-7874
asy	-7875
enh	-7876
sun	-7877
udi	-7878
▁ub	-7879
arsh	-7880
pled	-7881
xual	-7882
▁20,	-7883
▁FBI	-7884
▁Sir	-7885
▁Tes	-7886
▁bug	-7887
▁ham	-7888
▁upd	-7889
ostic	-7890
umble	-7891
▁cham	-7892
▁dumb	-7893
▁lamp	-7894
▁outs	-7895
▁phos	-7896
▁pige	-7897
▁sett	-7898
employ	-7899
▁Chile	-7900
▁Organ	-7901
▁Power	-7902
▁anten	-7903
▁cable	-7904
▁fraud	-7905
▁inhab	-7906
▁kills	-7907
▁owned	-7908
▁squee	-7909
▁tends	-7910
itating	-7911
▁Scient	-7912
▁assets	-7913
▁formal	-7914
▁golden	-7915
▁intrig	-7916
andering	-7917
quarters	-7918
▁Beijing	-7919
▁drought	-7920
▁mindset	-7921
▁minimum	-7922
▁secrets	-7923
▁Northern	-7924
▁applying	-7925
▁clothing	-7926
▁precious	-7927
▁preserve	-7928
▁striking	-7929
▁diagnosis	-7930
▁factories	-7931
▁qualities	-7932
▁replicate	-7933
▁translation	-7934
▁unconscious	-7935
▁conservative	-7936
▁humanitarian	-7937
He	-7938
gu	-7939
ctu	-7940
des	-7941
lar	-7942
obs	-7943
see	-7944
ails	-7945
ares	-7946
kind	-7947
kins	-7948
ords	-7949
▁'80	-7950
▁Bet	-7951
▁aqu	-7952
chool	-7953
▁Comp	-7954
▁Gore	-7955
▁Miss	-7956
▁Play	-7957
▁alph	-7958
▁gods	-7959
▁irre	-7960
▁lake	-7961
▁nurt	-7962
▁odds	-7963
▁orph	-7964
▁triv	-7965
urable	-7966
▁2008,	-7967
▁Until	-7968
▁bucks	-7969
▁gotta	-7970
▁outer	-7971
▁rehab	-7972
▁shots	-7973
▁Church	-7974
▁Should	-7975
▁annual	-7976
▁binary	-7977
▁claims	-7978
▁client	-7979
▁garage	-7980
▁pedest	-7981
▁strike	-7982
▁tragic	-7983
▁Without	-7984
▁beneath	-7985
▁besides	-7986
▁harness	-7987
▁percept	-7988
▁washing	-7989
▁friendly	-7990
▁genocide	-7991
▁intended	-7992
▁openness	-7993
▁pandemic	-7994
▁perceive	-7995
▁remained	-7996
▁tendency	-7997
▁anonymous	-7998
▁completed	-7999
▁gentleman	-8000
▁magnitude	-8001
▁realizing	-8002
▁renewable	-8003
▁responses	-8004
▁categories	-8005
▁comparison	-8006
▁facilities	-8007
▁telescopes	-8008
▁beautifully	-8009
▁computation	-8010
▁corporations	-8011
▁institutional	-8012
Who	-8013
ann	-8014
bar	-8015
eds	-8016
uty	-8017
▁AB	-8018
agen	-8019
iban	-8020
omin	-8021
▁Dra	-8022
▁Far	-8023
▁cub	-8024
▁sin	-8025
▁ven	-8026
anges	-8027
itous	-8028
lades	-8029
▁bold	-8030
▁cake	-8031
▁clay	-8032
▁hors	-8033
▁labs	-8034
▁lone	-8035
▁sail	-8036
▁sole	-8037
▁wedd	-8038
cation	-8039
iences	-8040
rowing	-8041
▁Under	-8042
▁badly	-8043
▁camps	-8044
▁downt	-8045
▁funds	-8046
▁loves	-8047
▁parks	-8048
▁ships	-8049
▁spont	-8050
▁steal	-8051
▁tooth	-8052
usiness	-8053
▁Govern	-8054
▁cheese	-8055
▁column	-8056
▁halluc	-8057
▁headed	-8058
▁orient	-8059
▁scores	-8060
interest	-8061
▁Islands	-8062
▁beating	-8063
▁charges	-8064
▁closest	-8065
▁courses	-8066
▁educate	-8067
▁glasses	-8068
▁portion	-8069
▁profits	-8070
▁Although	-8071
▁Minister	-8072
▁concerns	-8073
▁currency	-8074
▁explains	-8075
▁homeless	-8076
▁listened	-8077
▁morality	-8078
▁peaceful	-8079
▁purposes	-8080
▁Banglades	-8081
▁activists	-8082
▁extension	-8083
▁ownership	-8084
▁remaining	-8085
▁substance	-8086
▁extinction	-8087
▁reasonable	-8088
▁collectively	-8089
CA	-8090
sp	-8091
ini	-8092
▁RB	-8093
cost	-8094
fast	-8095
neys	-8096
oral	-8097
▁202	-8098
▁Joe	-8099
▁gam	-8100
▁lap	-8101
▁sew	-8102
bling	-8103
gence	-8104
gines	-8105
inter	-8106
irect	-8107
opath	-8108
▁2050	-8109
▁Both	-8110
▁Bron	-8111
▁July	-8112
▁Make	-8113
▁bell	-8114
▁gate	-8115
▁pale	-8116
▁rats	-8117
▁soup	-8118
active	-8119
minute	-8120
▁2007,	-8121
▁Derek	-8122
▁Moore	-8123
▁Spain	-8124
▁fancy	-8125
▁hired	-8126
▁shore	-8127
▁spons	-8128
▁trash	-8129
otherap	-8130
▁beaten	-8131
▁luxury	-8132
▁nearby	-8133
▁negoti	-8134
▁occurs	-8135
▁silver	-8136
▁skelet	-8137
▁Develop	-8138
▁engines	-8139
▁hardest	-8140
▁hunting	-8141
▁islands	-8142
▁offices	-8143
▁propose	-8144
▁rolling	-8145
▁spreads	-8146
▁trigger	-8147
▁Secondly	-8148
▁believes	-8149
▁historic	-8150
▁insights	-8151
▁optimism	-8152
▁substant	-8153
▁wildlife	-8154
▁conducted	-8155
▁explosion	-8156
▁challenged	-8157
▁encouraged	-8158
▁hemisphere	-8159
▁influenced	-8160
▁physicists	-8161
▁terrifying	-8162
▁achievement	-8163
▁approaching	-8164
▁demographic	-8165
▁uncertainty	-8166
▁temperatures	-8167
▁deforestation	-8168
LA	-8169
ye	-8170
100	-8171
cro	-8172
oos	-8173
▁Bo	-8174
▁IM	-8175
asty	-8176
away	-8177
long	-8178
made	-8179
▁inn	-8180
apped	-8181
burgh	-8182
human	-8183
▁Mike	-8184
▁aunt	-8185
▁infl	-8186
▁murd	-8187
▁pref	-8188
▁tsun	-8189
▁urge	-8190
▁woke	-8191
▁2000,	-8192
▁Brook	-8193
▁Trans	-8194
▁drone	-8195
▁foods	-8196
▁guard	-8197
▁items	-8198
▁lifes	-8199
▁membr	-8200
itative	-8201
perform	-8202
▁Econom	-8203
▁aggreg	-8204
▁dating	-8205
▁nights	-8206
▁proved	-8207
▁safely	-8208
▁tongue	-8209
▁tunnel	-8210
▁analogy	-8211
▁arrange	-8212
▁metabol	-8213
▁uniform	-8214
▁activist	-8215
▁cartoons	-8216
▁genetics	-8217
▁detection	-8218
▁expecting	-8219
▁nonprofit	-8220
▁volunteer	-8221
▁workforce	-8222
▁aggressive	-8223
▁assumption	-8224
▁continuous	-8225
▁prediction	-8226
▁constraints	-8227
▁limitations	-8228
▁concentration	-8229
▁vulnerability	-8230
▁straightforward	-8231
BM	-8232
aby	-8233
gal	-8234
lla	-8235
▁28	-8236
▁33	-8237
▁85	-8238
▁Ap	-8239
▁CD	-8240
▁rh	-8241
agon	-8242
erer	-8243
four	-8244
ifer	-8245
ilty	-8246
quis	-8247
rats	-8248
▁awk	-8249
arest	-8250
ashed	-8251
asses	-8252
itzer	-8253
▁Bell	-8254
▁Camp	-8255
▁Leon	-8256
▁Same	-8257
▁Walk	-8258
▁brid	-8259
▁damn	-8260
▁genu	-8261
▁melt	-8262
▁nerd	-8263
▁subt	-8264
▁tune	-8265
▁west	-8266
▁2010,	-8267
▁Charl	-8268
▁inher	-8269
▁pound	-8270
looking	-8271
▁acoust	-8272
▁addict	-8273
▁butter	-8274
▁campus	-8275
▁cosmic	-8276
▁crimes	-8277
▁estate	-8278
▁hiding	-8279
▁inevit	-8280
▁matrix	-8281
▁rubber	-8282
▁Italian	-8283
▁Taliban	-8284
▁awkward	-8285
▁bottles	-8286
▁cigaret	-8287
▁fluores	-8288
▁horizon	-8289
▁ignored	-8290
▁located	-8291
▁pockets	-8292
▁profile	-8293
▁someday	-8294
▁connects	-8295
▁customer	-8296
▁failures	-8297
▁gathered	-8298
▁generous	-8299
▁musician	-8300
▁observed	-8301
▁offering	-8302
▁reliable	-8303
▁scholars	-8304
▁terribly	-8305
▁unemploy	-8306
▁obstacles	-8307
▁passenger	-8308
▁sacrifice	-8309
▁strategic	-8310
otechnology	-8311
▁classrooms	-8312
▁continents	-8313
▁continuing	-8314
▁discipline	-8315
▁impressive	-8316
▁newspapers	-8317
▁researcher	-8318
▁yourselves	-8319
▁enforcement	-8320
▁legislation	-8321
▁reconstruct	-8322
▁restaurants	-8323
▁.	-8324
bye	-8325
hot	-8326
uke	-8327
yan	-8328
▁36	-8329
▁Bh	-8330
▁Es	-8331
▁MT	-8332
▁Us	-8333
▁ah	-8334
atar	-8335
imal	-8336
oran	-8337
rian	-8338
utan	-8339
wind	-8340
yrus	-8341
▁Edu	-8342
▁Kev	-8343
▁hal	-8344
▁nom	-8345
▁rac	-8346
ensus	-8347
icial	-8348
rence	-8349
▁Fore	-8350
▁Hill	-8351
▁NGOs	-8352
▁Shan	-8353
▁bend	-8354
▁bind	-8355
▁dawn	-8356
▁dile	-8357
▁gear	-8358
▁mild	-8359
ealand	-8360
itated	-8361
orious	-8362
▁Being	-8363
▁Hawai	-8364
▁Saudi	-8365
▁ambit	-8366
▁cabin	-8367
▁comet	-8368
▁encry	-8369
▁energ	-8370
▁stair	-8371
angered	-8372
▁branch	-8373
▁burden	-8374
▁excess	-8375
▁loving	-8376
▁makers	-8377
▁manner	-8378
▁manual	-8379
▁parach	-8380
▁proven	-8381
▁subway	-8382
▁upload	-8383
▁dressed	-8384
▁genuine	-8385
▁leather	-8386
▁manager	-8387
▁mapping	-8388
▁reminds	-8389
▁screens	-8390
▁stepped	-8391
▁stretch	-8392
▁Palestin	-8393
▁bathroom	-8394
▁mobility	-8395
▁redesign	-8396
▁Alexander	-8397
▁airplanes	-8398
▁glamorous	-8399
▁stability	-8400
▁succeeded	-8401
▁temporary	-8402
▁assistance	-8403
▁helicopter	-8404
▁desperately	-8405
▁compassionate	-8406
fly	-8407
ona	-8408
zee	-8409
▁AK	-8410
▁Id	-8411
aves	-8412
cons	-8413
eady	-8414
gram	-8415
iful	-8416
inth	-8417
lers	-8418
outs	-8419
rial	-8420
ropy	-8421
▁Aut	-8422
▁Hol	-8423
▁Lin	-8424
▁Ver	-8425
▁dys	-8426
▁les	-8427
▁tie	-8428
▁tut	-8429
anzan	-8430
chron	-8431
ellig	-8432
inery	-8433
iogen	-8434
itage	-8435
oples	-8436
roach	-8437
▁Army	-8438
▁Eric	-8439
▁Mach	-8440
▁Sure	-8441
▁coca	-8442
▁exha	-8443
▁fits	-8444
▁grav	-8445
▁loan	-8446
▁wrap	-8447
aneous	-8448
weight	-8449
▁Bronx	-8450
▁Sorry	-8451
▁align	-8452
▁dilem	-8453
▁entry	-8454
▁fault	-8455
▁incom	-8456
▁lions	-8457
▁loans	-8458
▁numer	-8459
▁opera	-8460
▁patch	-8461
▁queen	-8462
▁ratio	-8463
▁suspe	-8464
▁ubiqu	-8465
▁winds	-8466
▁zones	-8467
▁Almost	-8468
▁Argent	-8469
▁Social	-8470
▁Sunday	-8471
▁Tanzan	-8472
▁agents	-8473
▁chains	-8474
▁drones	-8475
▁execut	-8476
▁infant	-8477
▁orders	-8478
▁planes	-8479
▁propag	-8480
▁recipe	-8481
▁subsid	-8482
otherapy	-8483
▁Council	-8484
▁Indians	-8485
▁enabled	-8486
▁flowing	-8487
▁hormone	-8488
▁landing	-8489
▁patents	-8490
▁peoples	-8491
▁rethink	-8492
▁Whatever	-8493
▁comments	-8494
▁counting	-8495
▁distract	-8496
▁downtown	-8497
▁graphics	-8498
▁honestly	-8499
▁interven	-8500
▁pointing	-8501
▁agreement	-8502
▁ambitious	-8503
▁classical	-8504
▁distances	-8505
▁graduated	-8506
▁motivated	-8507
▁procedure	-8508
▁residents	-8509
▁impression	-8510
▁discovering	-8511
▁philosopher	-8512
▁specialized	-8513
▁surrounding	-8514
▁grandparents	-8515
▁occasionally	-8516
▁interpretation	-8517
ga	-8518
gi	-8519
.'"	-8520
asm	-8521
lan	-8522
▁UN	-8523
fram	-8524
gend	-8525
ghai	-8526
ifty	-8527
izza	-8528
▁Age	-8529
▁Cra	-8530
▁Emp	-8531
▁Ray	-8532
▁blo	-8533
▁dop	-8534
arrhe	-8535
break	-8536
ogram	-8537
orage	-8538
▁Hall	-8539
▁Jose	-8540
▁Josh	-8541
▁bure	-8542
▁dung	-8543
▁frog	-8544
▁heal	-8545
▁rape	-8546
▁synd	-8547
▁tatt	-8548
▁Syria	-8549
▁blogs	-8550
▁drown	-8551
▁fires	-8552
▁incar	-8553
▁ingen	-8554
▁phant	-8555
▁poems	-8556
▁proto	-8557
▁redef	-8558
▁tower	-8559
rection	-8560
uilding	-8561
▁Except	-8562
▁Ladies	-8563
▁Newton	-8564
▁builds	-8565
▁bullet	-8566
▁canopy	-8567
▁cotton	-8568
▁errors	-8569
▁insane	-8570
▁lowest	-8571
▁murder	-8572
▁preval	-8573
▁speaks	-8574
▁static	-8575
▁stimul	-8576
▁trains	-8577
▁voting	-8578
▁absence	-8579
▁despair	-8580
▁kingdom	-8581
▁ongoing	-8582
▁princip	-8583
▁pursuit	-8584
▁rituals	-8585
▁scanner	-8586
▁stomach	-8587
efficient	-8588
▁earliest	-8589
▁managers	-8590
▁promised	-8591
▁reinvent	-8592
▁robotics	-8593
▁shifting	-8594
▁supplies	-8595
▁affecting	-8596
▁excellent	-8597
▁guarantee	-8598
▁interrupt	-8599
▁preparing	-8600
▁religions	-8601
▁Technology	-8602
▁accomplish	-8603
▁illustrate	-8604
▁monitoring	-8605
▁previously	-8606
▁acknowledge	-8607
▁encouraging	-8608
▁administration	-8609
All	-8610
bow	-8611
uts	-8612
▁LT	-8613
▁SS	-8614
lend	-8615
mony	-8616
ueen	-8617
umin	-8618
▁Met	-8619
▁Sal	-8620
▁Sud	-8621
▁ski	-8622
elson	-8623
izers	-8624
press	-8625
uther	-8626
▁Ford	-8627
▁Fort	-8628
▁Gene	-8629
▁Homo	-8630
▁Open	-8631
▁cath	-8632
▁crop	-8633
▁enjo	-8634
▁fate	-8635
▁iPod	-8636
▁mand	-8637
▁rose	-8638
▁sons	-8639
▁turb	-8640
iberia	-8641
ournal	-8642
▁Brian	-8643
▁Dutch	-8644
▁Eight	-8645
▁Henry	-8646
▁Santa	-8647
▁amate	-8648
▁boats	-8649
▁coinc	-8650
▁crick	-8651
▁cruel	-8652
▁eaten	-8653
▁pause	-8654
▁revol	-8655
▁slums	-8656
▁spell	-8657
▁tubes	-8658
fulness	-8659
▁Compan	-8660
▁Howard	-8661
▁Twenty	-8662
▁Yorker	-8663
▁habits	-8664
▁offers	-8665
esthesia	-8666
standing	-8667
▁Whereas	-8668
▁artwork	-8669
▁clinics	-8670
▁cluster	-8671
▁corrupt	-8672
▁logical	-8673
▁package	-8674
▁storage	-8675
▁branches	-8676
▁circuits	-8677
▁compound	-8678
▁explicit	-8679
▁exposure	-8680
▁magnific	-8681
▁transmit	-8682
▁economist	-8683
▁estimates	-8684
▁headlines	-8685
▁incentive	-8686
▁locations	-8687
▁officials	-8688
▁overnight	-8689
▁territory	-8690
▁chimpanzee	-8691
▁commission	-8692
▁endangered	-8693
▁physicians	-8694
▁sufficient	-8695
▁fortunately	-8696
▁storytelling	-8697
py	-8698
ava	-8699
vir	-8700
eros	-8701
rint	-8702
ules	-8703
▁20-	-8704
▁Cur	-8705
▁Fey	-8706
▁Ire	-8707
▁Lib	-8708
▁Str	-8709
▁bin	-8710
▁jet	-8711
▁via	-8712
▁vit	-8713
grade	-8714
icked	-8715
inger	-8716
produ	-8717
ushed	-8718
▁Cath	-8719
▁Rand	-8720
▁Sudd	-8721
▁ampl	-8722
▁deck	-8723
▁hybr	-8724
▁neoc	-8725
▁nuts	-8726
▁sexy	-8727
astics	-8728
ilized	-8729
▁Delhi	-8730
▁Hello	-8731
▁altru	-8732
▁farms	-8733
▁flags	-8734
▁hopes	-8735
▁immun	-8736
▁overl	-8737
▁sauce	-8738
▁trace	-8739
▁wires	-8740
cession	-8741
violent	-8742
▁cycles	-8743
▁diving	-8744
▁epidem	-8745
▁fallen	-8746
▁freely	-8747
▁recall	-8748
▁strict	-8749
▁troops	-8750
controll	-8751
▁Indones	-8752
▁Johnson	-8753
▁banking	-8754
▁destiny	-8755
▁entropy	-8756
▁heading	-8757
▁passive	-8758
▁prisons	-8759
▁proceed	-8760
▁readers	-8761
▁teenage	-8762
▁tsunami	-8763
▁venture	-8764
▁Shanghai	-8765
▁catching	-8766
▁contrary	-8767
▁decrease	-8768
▁geometry	-8769
▁replaced	-8770
▁shipping	-8771
▁smallest	-8772
▁stopping	-8773
▁teenager	-8774
▁audiences	-8775
▁describes	-8776
▁formation	-8777
▁miserable	-8778
▁performed	-8779
▁phenomena	-8780
▁reproduce	-8781
▁signature	-8782
▁terrified	-8783
▁Bangladesh	-8784
▁appearance	-8785
▁ecological	-8786
▁elementary	-8787
▁landscapes	-8788
▁manipulate	-8789
▁marketplace	-8790
▁partnership	-8791
▁alternatives	-8792
▁concentrated	-8793
▁interconnected	-8794
IS	-8795
SP	-8796
aid	-8797
cip	-8798
ege	-8799
ima	-8800
law	-8801
mun	-8802
▁Bi	-8803
aped	-8804
crim	-8805
ieve	-8806
ipts	-8807
list	-8808
▁Mel	-8809
▁alb	-8810
▁hub	-8811
▁jew	-8812
▁tur	-8813
ament	-8814
bably	-8815
ctive	-8816
enter	-8817
inent	-8818
omics	-8819
ormal	-8820
phony	-8821
rance	-8822
▁Hist	-8823
▁Mill	-8824
▁Moon	-8825
▁ange	-8826
▁anno	-8827
▁blah	-8828
▁calm	-8829
▁clue	-8830
▁cree	-8831
▁gram	-8832
▁palm	-8833
▁shit	-8834
arians	-8835
driven	-8836
esters	-8837
gments	-8838
ometer	-8839
▁Peace	-8840
▁Watch	-8841
▁appla	-8842
▁award	-8843
▁devil	-8844
▁divor	-8845
▁knife	-8846
▁lobby	-8847
▁shirt	-8848
▁sixth	-8849
▁stays	-8850
ometown	-8851
▁Andrew	-8852
▁Nelson	-8853
▁System	-8854
▁compre	-8855
▁guilty	-8856
▁immers	-8857
▁marvel	-8858
▁mentor	-8859
▁nerves	-8860
▁relief	-8861
▁scenes	-8862
▁stored	-8863
▁tempor	-8864
▁trauma	-8865
▁200,000	-8866
▁Anybody	-8867
▁barrier	-8868
▁continu	-8869
▁counsel	-8870
▁resolve	-8871
▁retreat	-8872
▁seeking	-8873
▁tension	-8874
▁wedding	-8875
▁Carolina	-8876
▁Suddenly	-8877
▁cellular	-8878
▁dopamine	-8879
▁relation	-8880
▁reserves	-8881
▁synchron	-8882
▁blindness	-8883
▁empowered	-8884
▁estimated	-8885
▁receiving	-8886
▁seemingly	-8887
▁approached	-8888
▁assignment	-8889
▁expedition	-8890
▁generating	-8891
▁mainstream	-8892
▁retirement	-8893
▁vegetables	-8894
▁contributed	-8895
▁measurements	-8896
▁psychologists	-8897
▁extraordinarily	-8898
mn	-8899
ape	-8900
arl	-8901
neg	-8902
two	-8903
▁2:	-8904
▁42	-8905
ador	-8906
cycl	-8907
ihad	-8908
▁15-	-8909
▁30-	-8910
▁350	-8911
▁Civ	-8912
▁Ext	-8913
▁Its	-8914
▁ash	-8915
▁gif	-8916
▁obt	-8917
▁pit	-8918
cking	-8919
copic	-8920
enses	-8921
erent	-8922
ifact	-8923
▁Love	-8924
▁Math	-8925
▁Penn	-8926
▁Prot	-8927
▁Rock	-8928
▁Vict	-8929
▁drew	-8930
▁glow	-8931
▁offs	-8932
▁rank	-8933
▁rope	-8934
▁toes	-8935
▁vary	-8936
phorus	-8937
racies	-8938
umines	-8939
▁6,000	-8940
▁Arist	-8941
▁Bruno	-8942
▁Leban	-8943
▁cared	-8944
▁fatal	-8945
▁grabb	-8946
▁lever	-8947
▁param	-8948
▁pizza	-8949
▁raped	-8950
▁spill	-8951
▁viral	-8952
▁wheat	-8953
ativity	-8954
rations	-8955
▁County	-8956
▁Friday	-8957
▁appeal	-8958
▁covers	-8959
▁editor	-8960
▁fibers	-8961
▁gained	-8962
▁improv	-8963
▁prosec	-8964
▁rhythm	-8965
▁traits	-8966
▁Mandela	-8967
▁Neander	-8968
▁Seattle	-8969
▁follows	-8970
▁phantom	-8971
▁attacked	-8972
▁mentally	-8973
▁momentum	-8974
▁prostate	-8975
▁selected	-8976
▁Professor	-8977
▁addiction	-8978
▁biologist	-8979
▁breakfast	-8980
▁collapsed	-8981
▁intensive	-8982
▁transcend	-8983
▁Industrial	-8984
▁convenient	-8985
▁electrodes	-8986
▁infections	-8987
▁initiative	-8988
▁reflection	-8989
▁regardless	-8990
▁predictable	-8991
▁proposition	-8992
▁transforming	-8993
▁schizophrenia	-8994
200	-8995
For	-8996
eps	-8997
ker	-8998
nat	-8999
oln	-9000
▁Er	-9001
bled	-9002
hist	-9003
ugal	-9004
▁Dad	-9005
▁Had	-9006
▁Moz	-9007
▁Sky	-9008
▁Tas	-9009
▁Val	-9010
▁avo	-9011
▁ech	-9012
▁pir	-9013
aware	-9014
eries	-9015
isten	-9016
sized	-9017
storm	-9018
▁Half	-9019
▁Hans	-9020
▁News	-9021
▁Snow	-9022
▁Supp	-9023
▁carp	-9024
▁chat	-9025
▁coat	-9026
▁enzy	-9027
▁indo	-9028
▁keys	-9029
▁pole	-9030
▁spat	-9031
▁ware	-9032
aching	-9033
incoln	-9034
person	-9035
vation	-9036
▁2011,	-9037
▁Koran	-9038
▁Media	-9039
▁Medic	-9040
▁blink	-9041
▁defic	-9042
▁delay	-9043
▁drops	-9044
▁hated	-9045
▁hydro	-9046
▁loose	-9047
▁mayor	-9048
▁nodes	-9049
▁risky	-9050
▁shine	-9051
▁taxes	-9052
istical	-9053
umented	-9054
▁Rather	-9055
▁livest	-9056
▁packed	-9057
▁strain	-9058
▁thread	-9059
▁wheels	-9060
▁Aristot	-9061
▁Ireland	-9062
▁arguing	-9063
▁bureauc	-9064
▁cocaine	-9065
▁deepest	-9066
▁earning	-9067
▁ecology	-9068
▁enemies	-9069
▁locally	-9070
▁puzzles	-9071
▁staring	-9072
▁trapped	-9073
▁trivial	-9074
▁unhappy	-9075
▁advances	-9076
▁altitude	-9077
▁artifact	-9078
▁clusters	-9079
▁complain	-9080
▁diameter	-9081
▁interior	-9082
▁mushroom	-9083
▁nowadays	-9084
▁randomly	-9085
▁worrying	-9086
▁aesthetic	-9087
▁astronaut	-9088
▁installed	-9089
▁jellyfish	-9090
▁precision	-9091
▁sensation	-9092
▁describing	-9093
▁inevitably	-9094
▁interviews	-9095
▁journalism	-9096
▁prevention	-9097
▁ubiquitous	-9098
▁variations	-9099
▁devastating	-9100
▁understands	-9101
▁contribution	-9102
▁installation	-9103
▁personalized	-9104
OL	-9105
yd	-9106
Are	-9107
ado	-9108
eff	-9109
ila	-9110
▁DV	-9111
alia	-9112
amps	-9113
char	-9114
irts	-9115
sell	-9116
stru	-9117
▁Nan	-9118
▁Try	-9119
▁Way	-9120
▁ads	-9121
▁ooh	-9122
▁orb	-9123
▁shy	-9124
▁sib	-9125
ademy	-9126
ifies	-9127
lfare	-9128
world	-9129
▁Nove	-9130
▁Soci	-9131
▁bang	-9132
▁batt	-9133
▁biof	-9134
▁drum	-9135
▁epis	-9136
▁inch	-9137
▁summ	-9138
cyclop	-9139
▁Swiss	-9140
▁conqu	-9141
▁deals	-9142
▁depos	-9143
▁exerc	-9144
▁grasp	-9145
▁humil	-9146
▁resur	-9147
▁roles	-9148
▁shelf	-9149
▁sperm	-9150
▁tweet	-9151
▁wrist	-9152
▁Albert	-9153
▁Anyone	-9154
▁Columb	-9155
▁Little	-9156
▁apolog	-9157
▁asleep	-9158
▁bother	-9159
▁config	-9160
▁contam	-9161
▁dragon	-9162
▁fusion	-9163
▁integr	-9164
▁motors	-9165
▁vagina	-9166
▁valley	-9167
▁College	-9168
▁Iceland	-9169
▁Israeli	-9170
▁Someone	-9171
▁crossed	-9172
▁diarrhe	-9173
▁elegant	-9174
▁fathers	-9175
▁genomes	-9176
▁gesture	-9177
▁halfway	-9178
▁highway	-9179
▁implant	-9180
▁request	-9181
▁whistle	-9182
criptions	-9183
▁approved	-9184
▁barriers	-9185
▁breeding	-9186
▁tropical	-9187
▁amazingly	-9188
▁criminals	-9189
▁equations	-9190
▁machinery	-9191
▁medicines	-9192
▁mosquitos	-9193
▁orchestra	-9194
▁recycling	-9195
▁relatives	-9196
▁responded	-9197
▁frequently	-9198
▁infectious	-9199
▁publishing	-9200
▁punishment	-9201
▁spacecraft	-9202
▁politically	-9203
▁intersection	-9204
aa	-9205
col	-9206
deg	-9207
dig	-9208
dis	-9209
lor	-9210
pat	-9211
▁55	-9212
▁Gi	-9213
▁UC	-9214
▁je	-9215
▁od	-9216
..."	-9217
cher	-9218
inem	-9219
oter	-9220
▁Off	-9221
▁Roy	-9222
▁Tra	-9223
▁aug	-9224
▁cyl	-9225
ubble	-9226
uctor	-9227
venth	-9228
▁Jane	-9229
▁Tony	-9230
▁anat	-9231
▁chop	-9232
▁dirt	-9233
▁forb	-9234
▁logo	-9235
▁rect	-9236
income	-9237
▁Gabby	-9238
▁Kevin	-9239
▁Yemen	-9240
▁bench	-9241
▁bless	-9242
▁donor	-9243
▁embry	-9244
▁insul	-9245
▁locom	-9246
▁minus	-9247
▁peers	-9248
▁penet	-9249
▁proph	-9250
▁recre	-9251
▁scaff	-9252
▁sched	-9253
▁slime	-9254
orgeous	-9255
▁Berlin	-9256
▁amazed	-9257
▁curves	-9258
▁posted	-9259
▁slower	-9260
▁unlock	-9261
▁worthy	-9262
function	-9263
ventions	-9264
▁Lincoln	-9265
▁adapted	-9266
▁belongs	-9267
▁colored	-9268
▁doubled	-9269
▁enjoyed	-9270
▁sectors	-9271
▁terrain	-9272
▁useless	-9273
▁Brooklyn	-9274
▁November	-9275
▁Security	-9276
▁Tanzania	-9277
▁accuracy	-9278
▁disagree	-9279
▁hometown	-9280
▁hormones	-9281
▁priority	-9282
▁revealed	-9283
▁sidewalk	-9284
▁touching	-9285
▁Brazilian	-9286
▁Indonesia	-9287
▁believing	-9288
▁competing	-9289
▁cooperate	-9290
▁correctly	-9291
▁predators	-9292
▁screaming	-9293
▁shoulders	-9294
▁workplace	-9295
▁phosphorus	-9296
▁remarkably	-9297
▁foundations	-9298
▁supermarket	-9299
▁technically	-9300
▁psychologist	-9301
▁communicating	-9302
"?	-9303
,'	-9304
Sh	-9305
tr	-9306
zes	-9307
▁MK	-9308
▁SP	-9309
aeda	-9310
city	-9311
ette	-9312
mill	-9313
olen	-9314
▁Ann	-9315
▁Dou	-9316
▁Sus	-9317
▁Tun	-9318
▁tin	-9319
cover	-9320
eling	-9321
erals	-9322
gradu	-9323
odied	-9324
urday	-9325
▁Abra	-9326
▁Coke	-9327
▁Hong	-9328
▁Pitt	-9329
▁Show	-9330
▁Whit	-9331
▁athe	-9332
▁biol	-9333
▁bite	-9334
▁bump	-9335
▁dent	-9336
▁dose	-9337
▁hipp	-9338
▁jazz	-9339
▁mask	-9340
▁meme	-9341
▁sale	-9342
▁shoe	-9343
▁tact	-9344
▁unre	-9345
▁Clint	-9346
▁Turns	-9347
▁ambig	-9348
▁aspir	-9349
▁bills	-9350
▁blown	-9351
▁impul	-9352
▁limbs	-9353
▁messy	-9354
▁perip	-9355
▁pills	-9356
▁plank	-9357
▁sheer	-9358
▁shops	-9359
▁sizes	-9360
▁tiles	-9361
▁worms	-9362
powered	-9363
▁Victor	-9364
▁approx	-9365
▁atomic	-9366
▁elabor	-9367
▁equity	-9368
▁lonely	-9369
▁nightm	-9370
▁orphan	-9371
▁purple	-9372
▁revers	-9373
▁sheets	-9374
▁summar	-9375
▁Redwood	-9376
▁Switzer	-9377
▁bedroom	-9378
▁bridges	-9379
▁constit	-9380
▁couples	-9381
▁healing	-9382
▁injured	-9383
▁intrins	-9384
▁laptops	-9385
▁origins	-9386
▁refused	-9387
▁smiling	-9388
▁utterly	-9389
▁Catholic	-9390
▁Leonardo	-9391
▁Probably	-9392
▁backyard	-9393
▁calories	-9394
▁consumed	-9395
▁disabled	-9396
▁division	-9397
▁evolving	-9398
▁expanded	-9399
▁incarcer	-9400
▁predator	-9401
▁simplest	-9402
▁spinning	-9403
▁syndrome	-9404
▁abandoned	-9405
▁hierarchy	-9406
▁parachute	-9407
▁reflected	-9408
▁regularly	-9409
▁statistic	-9410
▁automobile	-9411
▁destroying	-9412
▁organizing	-9413
▁Switzerland	-9414
▁consciously	-9415
▁magnificent	-9416
▁calculations	-9417
▁demonstrated	-9418
▁historically	-9419
▁observations	-9420
▁overwhelming	-9421
▁controversial	-9422
▁interventions	-9423
40	-9424
God	-9425
isy	-9426
uan	-9427
yon	-9428
Here	-9429
alem	-9430
grad	-9431
pers	-9432
plus	-9433
raph	-9434
▁190	-9435
▁193	-9436
▁Bol	-9437
▁Jup	-9438
▁USA	-9439
▁dil	-9440
▁gre	-9441
▁oct	-9442
▁pix	-9443
▁rib	-9444
▁vel	-9445
adium	-9446
eping	-9447
orted	-9448
owers	-9449
ucose	-9450
▁1900	-9451
▁Conf	-9452
▁Hope	-9453
▁Jord	-9454
▁Lake	-9455
▁Turk	-9456
▁atom	-9457
▁coin	-9458
▁deaf	-9459
▁indu	-9460
▁junk	-9461
▁rabb	-9462
▁sake	-9463
▁ties	-9464
▁unst	-9465
coming	-9466
culiar	-9467
inging	-9468
lihood	-9469
orters	-9470
thirds	-9471
ulsion	-9472
▁Coast	-9473
▁Stage	-9474
▁Still	-9475
▁Teles	-9476
▁alter	-9477
▁fired	-9478
▁grave	-9479
▁jihad	-9480
▁meals	-9481
▁obese	-9482
▁pulse	-9483
bsolute	-9484
ructive	-9485
▁advent	-9486
▁carpet	-9487
▁cousin	-9488
▁depart	-9489
▁grocer	-9490
▁horror	-9491
▁magnet	-9492
▁modest	-9493
▁namely	-9494
▁pencil	-9495
▁retail	-9496
▁topics	-9497
▁wishes	-9498
▁Jupiter	-9499
▁cancers	-9500
▁corners	-9501
▁cricket	-9502
▁default	-9503
▁formula	-9504
▁hacking	-9505
▁harmony	-9506
▁kidding	-9507
▁onstage	-9508
▁recruit	-9509
▁rehabil	-9510
▁toilets	-9511
▁welfare	-9512
▁Saturday	-9513
▁Together	-9514
▁asteroid	-9515
▁enjoying	-9516
▁findings	-9517
▁peculiar	-9518
▁portrait	-9519
▁switched	-9520
▁underest	-9521
▁websites	-9522
▁attitudes	-9523
▁candidate	-9524
▁planetary	-9525
▁therapies	-9526
▁tolerance	-9527
▁visualize	-9528
▁discussing	-9529
▁engineered	-9530
▁girlfriend	-9531
▁microphone	-9532
▁sanitation	-9533
▁discussions	-9534
▁frightening	-9535
▁investments	-9536
BA	-9537
da	-9538
eu	-9539
dam	-9540
▁AT	-9541
▁Ev	-9542
▁RS	-9543
▁SW	-9544
door	-9545
fare	-9546
lesh	-9547
nman	-9548
seen	-9549
▁Men	-9550
▁PMS	-9551
▁Rom	-9552
▁Ron	-9553
▁Sup	-9554
▁rap	-9555
▁sco	-9556
▁sir	-9557
apore	-9558
atson	-9559
ighth	-9560
ouses	-9561
peare	-9562
three	-9563
▁Lord	-9564
▁Nick	-9565
▁Nike	-9566
▁bulb	-9567
▁cows	-9568
▁crap	-9569
▁glue	-9570
▁jugg	-9571
▁span	-9572
▁subm	-9573
▁verb	-9574
▁wore	-9575
degree	-9576
▁Civil	-9577
▁Detro	-9578
▁Force	-9579
▁McDon	-9580
▁bonds	-9581
▁float	-9582
▁jewel	-9583
▁lanes	-9584
▁loads	-9585
▁memes	-9586
▁naive	-9587
▁sends	-9588
▁straw	-9589
ressing	-9590
theless	-9591
▁Pretty	-9592
▁behalf	-9593
▁corrid	-9594
▁dispar	-9595
▁emails	-9596
▁excuse	-9597
▁exotic	-9598
▁format	-9599
▁lifted	-9600
▁marath	-9601
▁pigeon	-9602
▁render	-9603
▁stolen	-9604
▁stones	-9605
▁unfold	-9606
▁Abraham	-9607
▁Feynman	-9608
▁biomass	-9609
▁broader	-9610
▁climbed	-9611
▁enhance	-9612
▁glacier	-9613
▁inhabit	-9614
▁insulin	-9615
▁mankind	-9616
▁nearest	-9617
▁returns	-9618
▁wrapped	-9619
akespeare	-9620
▁Business	-9621
▁activate	-9622
▁athletes	-9623
▁explored	-9624
▁gorgeous	-9625
▁kindness	-9626
▁nitrogen	-9627
▁opinions	-9628
▁prisoner	-9629
▁publicly	-9630
▁transact	-9631
▁According	-9632
▁Singapore	-9633
▁alongside	-9634
▁compounds	-9635
▁dominated	-9636
▁expressed	-9637
▁protocell	-9638
▁realistic	-9639
▁realities	-9640
▁reporting	-9641
▁Geographic	-9642
▁accelerate	-9643
▁calculated	-9644
▁compromise	-9645
▁legitimate	-9646
▁likelihood	-9647
▁narratives	-9648
▁phenomenal	-9649
▁sequencing	-9650
▁smartphone	-9651
▁expressions	-9652
▁neuroscient	-9653
▁independence	-9654
▁computational	-9655
▁discrimination	-9656
tt	-9657
nut	-9658
oen	-9659
osn	-9660
rit	-9661
upp	-9662
erey	-9663
iots	-9664
pril	-9665
rane	-9666
thur	-9667
unks	-9668
▁Amy	-9669
▁DVD	-9670
▁Fed	-9671
▁blu	-9672
▁hob	-9673
▁unw	-9674
acher	-9675
aired	-9676
ansas	-9677
asive	-9678
gener	-9679
ivate	-9680
raine	-9681
▁..."	-9682
▁Brad	-9683
▁Carl	-9684
▁Lead	-9685
▁Mass	-9686
▁airl	-9687
▁blob	-9688
▁brow	-9689
▁buff	-9690
▁dece	-9691
▁hint	-9692
▁jack	-9693
▁lean	-9694
▁2005,	-9695
▁April	-9696
▁Jones	-9697
▁Young	-9698
▁alarm	-9699
▁belly	-9700
▁careg	-9701
▁comic	-9702
▁cream	-9703
▁gains	-9704
▁index	-9705
▁infer	-9706
▁inhib	-9707
▁irony	-9708
▁lists	-9709
▁mimic	-9710
▁mines	-9711
▁pulls	-9712
▁regul	-9713
▁remix	-9714
▁rings	-9715
▁steam	-9716
▁sweat	-9717
ascular	-9718
essions	-9719
ictions	-9720
keepers	-9721
▁Gandhi	-9722
▁Tasman	-9723
▁Watson	-9724
▁argued	-9725
▁denial	-9726
▁divers	-9727
▁handed	-9728
▁horses	-9729
▁kidney	-9730
▁marker	-9731
▁prosth	-9732
▁sketch	-9733
▁summit	-9734
▁typing	-9735
▁Atlanta	-9736
▁Clinton	-9737
▁Journal	-9738
▁Society	-9739
▁chronic	-9740
▁congest	-9741
▁consent	-9742
▁envelop	-9743
▁exploit	-9744
▁glamour	-9745
▁glucose	-9746
▁harmful	-9747
▁labeled	-9748
▁optical	-9749
▁planned	-9750
▁swallow	-9751
▁Interest	-9752
▁Monterey	-9753
▁boundary	-9754
▁ceremony	-9755
▁deployed	-9756
▁feminist	-9757
▁incorpor	-9758
▁informal	-9759
▁mutation	-9760
▁protests	-9761
▁sexually	-9762
▁thrilled	-9763
▁Argentina	-9764
▁Parkinson	-9765
▁Telescope	-9766
▁batteries	-9767
▁geography	-9768
▁resistant	-9769
▁textbooks	-9770
▁anticipate	-9771
▁biolumines	-9772
▁determines	-9773
▁privileged	-9774
▁regulation	-9775
▁separation	-9776
▁Shakespeare	-9777
▁distinction	-9778
▁instruction	-9779
▁overwhelmed	-9780
▁realization	-9781
▁theoretical	-9782
▁Organization	-9783
▁continuously	-9784
▁embarrassing	-9785
▁philanthropy	-9786
▁visualization	-9787
lif	-9788
mes	-9789
rof	-9790
▁29	-9791
▁37	-9792
▁JH	-9793
▁PC	-9794
,500	-9795
They	-9796
erry	-9797
five	-9798
hear	-9799
ican	-9800
igma	-9801
mind	-9802
orph	-9803
uana	-9804
wing	-9805
▁10.	-9806
▁Has	-9807
▁Inc	-9808
▁Kir	-9809
▁Mos	-9810
▁Rad	-9811
▁Ram	-9812
▁mud	-9813
▁vib	-9814
amboo	-9815
cribe	-9816
inity	-9817
oenix	-9818
oline	-9819
▁Benj	-9820
▁Home	-9821
▁Rick	-9822
▁apps	-9823
▁ende	-9824
▁fest	-9825
▁lion	-9826
▁mast	-9827
▁mesh	-9828
▁mini	-9829
▁thus	-9830
▁ward	-9831
assemb	-9832
olitan	-9833
uction	-9834
unning	-9835
▁Creat	-9836
▁Trade	-9837
▁artic	-9838
▁boost	-9839
▁boots	-9840
▁buses	-9841
▁dough	-9842
▁drunk	-9843
▁fence	-9844
▁illum	-9845
▁maker	-9846
▁maneu	-9847
▁norms	-9848
▁pants	-9849
▁surre	-9850
▁trips	-9851
▁twist	-9852
atories	-9853
imeters	-9854
▁40,000	-9855
▁bamboo	-9856
▁canvas	-9857
▁cosmos	-9858
▁criter	-9859
▁guards	-9860
▁iconic	-9861
▁masses	-9862
▁sooner	-9863
▁tables	-9864
▁viewer	-9865
▁warmer	-9866
etheless	-9867
ortunate	-9868
▁Stephen	-9869
▁antenna	-9870
▁assault	-9871
▁charged	-9872
▁handful	-9873
▁heavily	-9874
▁outrage	-9875
▁penguin	-9876
▁simpler	-9877
▁teaches	-9878
bsolutely	-9879
▁accompan	-9880
▁actively	-9881
▁hopeless	-9882
▁ideology	-9883
▁injuries	-9884
▁overhead	-9885
▁plastics	-9886
▁proposal	-9887
▁Aristotle	-9888
▁abundance	-9889
▁acknowled	-9890
▁bacterial	-9891
▁cockroach	-9892
▁consensus	-9893
▁delicious	-9894
▁desperate	-9895
▁electrons	-9896
▁fisheries	-9897
▁imagining	-9898
▁intensity	-9899
▁mutations	-9900
▁occurring	-9901
▁offspring	-9902
▁platforms	-9903
▁survivors	-9904
▁responding	-9905
▁collaborate	-9906
▁fluorescent	-9907
▁contributing	-9908
▁introduction	-9909
▁civilizations	-9910
▁mathematician	-9911
▁systematically	-9912
BC	-9913
She	-9914
▁Ol	-9915
adel	-9916
aken	-9917
alog	-9918
bean	-9919
orse	-9920
take	-9921
▁Bre	-9922
▁Dub	-9923
▁Ele	-9924
▁Mer	-9925
▁Mur	-9926
▁Vol	-9927
▁jar	-9928
ellow	-9929
ourse	-9930
proof	-9931
▁Fund	-9932
▁Hosp	-9933
▁Kong	-9934
▁Nord	-9935
▁Norm	-9936
▁cuts	-9937
ijuana	-9938
orough	-9939
romagn	-9940
umbled	-9941
▁Stone	-9942
▁arbit	-9943
▁arrow	-9944
▁bleed	-9945
▁candy	-9946
▁decor	-9947
▁grace	-9948
▁inexp	-9949
▁nasty	-9950
▁panic	-9951
▁steep	-9952
▁vivid	-9953
itivity	-9954
▁Greece	-9955
▁cattle	-9956
▁comedy	-9957
▁comics	-9958
▁deadly	-9959
▁fluctu	-9960
▁hybrid	-9961
▁intact	-9962
▁kicked	-9963
▁riding	-9964
▁shifts	-9965
▁smells	-9966
▁sovere	-9967
▁timing	-9968
▁wooden	-9969
▁Olympic	-9970
▁Supreme	-9971
▁authors	-9972
▁careers	-9973
▁chamber	-9974
▁coastal	-9975
▁dilemma	-9976
▁endless	-9977
▁fulfill	-9978
▁hopeful	-9979
▁laughed	-9980
▁planted	-9981
▁reaches	-9982
▁reactor	-9983
▁strands	-9984
▁strings	-9985
▁trading	-9986
▁circular	-9987
▁coverage	-9988
▁dropping	-9989
▁freezing	-9990
▁heritage	-9991
▁innovate	-9992
▁scanning	-9993
▁transist	-9994
▁vacation	-9995
▁youngest	-9996
▁convicted	-9997
▁disasters	-9998
▁eliminate	-9999
▁favorites	-10000
▁suspended	-10001
▁witnessed	-10002
▁basketball	-10003
▁delivering	-10004
▁projection	-10005
▁psychopath	-10006
▁Development	-10007
▁composition	-10008
▁democracies	-10009
▁destination	-10010
▁documentary	-10011
▁electromagn	-10012
▁investigate	-10013
▁accomplished	-10014
▁coordination	-10015
▁significance	-10016
ETI	-10017
Man	-10018
izz	-10019
tra	-10020
vol	-10021
▁JF	-10022
▁Kh	-10023
▁tu	-10024
amas	-10025
bing	-10026
ccer	-10027
eren	-10028
fire	-10029
laim	-10030
olas	-10031
▁11,	-10032
▁192	-10033
▁Def	-10034
▁IBM	-10035
▁Sen	-10036
▁Wol	-10037
▁mat	-10038
▁sav	-10039
▁sel	-10040
Thank	-10041
adian	-10042
ogens	-10043
▁Lego	-10044
▁Sand	-10045
▁bond	-10046
▁chew	-10047
▁demo	-10048
▁depr	-10049
▁drif	-10050
▁duty	-10051
▁fees	-10052
▁herd	-10053
▁mant	-10054
▁quar	-10055
▁slic	-10056
▁symp	-10057
ending	-10058
iously	-10059
unting	-10060
▁Elect	-10061
▁Louis	-10062
▁Seven	-10063
▁brows	-10064
▁erect	-10065
▁flesh	-10066
▁gross	-10067
▁harsh	-10068
▁hoped	-10069
▁juice	-10070
▁penal	-10071
▁picks	-10072
▁reass	-10073
▁revel	-10074
▁unint	-10075
faction	-10076
osexual	-10077
▁Daniel	-10078
▁Disney	-10079
▁Michel	-10080
▁Steven	-10081
▁advers	-10082
▁checks	-10083
▁courts	-10084
▁harbor	-10085
▁insert	-10086
▁legisl	-10087
▁losses	-10088
▁raises	-10089
▁shower	-10090
▁History	-10091
▁gallery	-10092
▁happily	-10093
▁inmates	-10094
▁maximum	-10095
▁rewards	-10096
▁scaling	-10097
▁texture	-10098
▁transit	-10099
▁visions	-10100
▁whoever	-10101
▁Egyptian	-10102
▁McDonald	-10103
▁advocate	-10104
▁analyzed	-10105
▁annivers	-10106
▁announce	-10107
▁defining	-10108
▁democrat	-10109
▁indicate	-10110
▁literacy	-10111
▁minority	-10112
▁rejected	-10113
▁remotely	-10114
▁surgeons	-10115
▁visiting	-10116
▁comparing	-10117
▁generates	-10118
▁inflation	-10119
▁livestock	-10120
▁Christians	-10121
▁adolescent	-10122
▁confronted	-10123
▁enterprise	-10124
▁suggestion	-10125
▁distinguish	-10126
▁emotionally	-10127
▁programmers	-10128
▁regulations	-10129
▁unfortunate	-10130
▁transformative	-10131
?'	-10132
Ah	-10133
jo	-10134
net	-10135
orr	-10136
▁31	-10137
▁ED	-10138
▁JA	-10139
▁MR	-10140
aste	-10141
bees	-10142
burg	-10143
ials	-10144
iatr	-10145
igan	-10146
inci	-10147
inda	-10148
irms	-10149
itar	-10150
mate	-10151
omed	-10152
oric	-10153
pack	-10154
▁Jac	-10155
▁Mid	-10156
▁Nep	-10157
▁Pop	-10158
▁Sah	-10159
▁Tib	-10160
▁jam	-10161
▁pla	-10162
berry	-10163
heads	-10164
impse	-10165
iracy	-10166
keley	-10167
matic	-10168
oters	-10169
▁Bern	-10170
▁Ever	-10171
▁Jews	-10172
▁Matt	-10173
▁Mond	-10174
▁Plan	-10175
▁Scot	-10176
▁Wind	-10177
▁asth	-10178
▁blew	-10179
▁lawn	-10180
▁pays	-10181
▁porn	-10182
▁prey	-10183
▁seal	-10184
▁unle	-10185
Please	-10186
erving	-10187
iances	-10188
istine	-10189
orient	-10190
usalem	-10191
▁1,500	-10192
▁2004,	-10193
▁blast	-10194
▁brush	-10195
▁chase	-10196
▁cheat	-10197
▁clubs	-10198
▁consp	-10199
▁fever	-10200
▁meets	-10201
▁twins	-10202
▁25,000	-10203
▁60,000	-10204
▁Hawaii	-10205
▁Korean	-10206
▁Rights	-10207
▁helium	-10208
▁immort	-10209
▁passes	-10210
▁plates	-10211
▁preced	-10212
▁regist	-10213
▁rotate	-10214
▁serves	-10215
▁soccer	-10216
▁speeds	-10217
▁virgin	-10218
▁waited	-10219
aggering	-10220
ifferent	-10221
▁Detroit	-10222
▁Similar	-10223
▁assumed	-10224
▁exagger	-10225
▁exhibit	-10226
▁farther	-10227
▁glimpse	-10228
▁longest	-10229
▁lottery	-10230
▁melting	-10231
ventually	-10232
▁Benjamin	-10233
▁Berkeley	-10234
▁Virginia	-10235
▁contempl	-10236
▁forecast	-10237
▁helpless	-10238
▁improvis	-10239
▁intimate	-10240
▁managing	-10241
▁multiply	-10242
▁recycled	-10243
▁skeletal	-10244
▁visually	-10245
▁Jerusalem	-10246
▁attracted	-10247
▁elaborate	-10248
▁migration	-10249
▁principal	-10250
▁returning	-10251
▁surgeries	-10252
▁candidates	-10253
▁documented	-10254
▁employment	-10255
▁inherently	-10256
▁professors	-10257
▁prototypes	-10258
▁systematic	-10259
▁astronomers	-10260
▁implemented	-10261
▁integration	-10262
▁recognizing	-10263
▁trafficking	-10264
▁accelerating	-10265
▁accountability	-10266
▁representative	-10267
awn	-10268
aza	-10269
bie	-10270
isc	-10271
leg	-10272
mat	-10273
oto	-10274
via	-10275
▁72	-10276
▁AI	-10277
▁JS	-10278
▁Wi	-10279
▁nu	-10280
flow	-10281
oked	-10282
olar	-10283
phia	-10284
wart	-10285
▁12,	-10286
▁FDA	-10287
▁Mas	-10288
▁NSA	-10289
▁Nav	-10290
▁ego	-10291
▁wow	-10292
arded	-10293
front	-10294
month	-10295
osity	-10296
oured	-10297
plete	-10298
thood	-10299
umbai	-10300
▁Cape	-10301
▁Keep	-10302
▁Lear	-10303
▁Less	-10304
▁SETI	-10305
▁bush	-10306
▁chef	-10307
▁dare	-10308
▁fier	-10309
▁kidn	-10310
▁radi	-10311
▁torn	-10312
ancers	-10313
ection	-10314
enance	-10315
gevity	-10316
shaped	-10317
vasive	-10318
▁Water	-10319
▁acres	-10320
▁crude	-10321
▁favel	-10322
▁freak	-10323
▁insec	-10324
▁juven	-10325
▁lingu	-10326
▁loses	-10327
▁posed	-10328
▁stamp	-10329
▁tapir	-10330
▁texts	-10331
▁vocal	-10332
enhagen	-10333
inished	-10334
natural	-10335
▁15,000	-10336
▁Arabia	-10337
▁Mumbai	-10338
▁Nether	-10339
▁Public	-10340
▁accent	-10341
▁donors	-10342
▁empath	-10343
▁evapor	-10344
▁exceed	-10345
▁grades	-10346
▁lethal	-10347
▁mapped	-10348
▁scheme	-10349
▁selves	-10350
▁triang	-10351
▁wasted	-10352
adelphia	-10353
▁150,000	-10354
▁Medical	-10355
▁carries	-10356
▁cooling	-10357
▁eastern	-10358
▁filling	-10359
▁hostile	-10360
▁matched	-10361
▁mirrors	-10362
▁museums	-10363
▁ordered	-10364
▁priorit	-10365
▁sensing	-10366
▁stadium	-10367
▁streams	-10368
▁superst	-10369
▁Mountain	-10370
▁assembly	-10371
▁attempts	-10372
▁criteria	-10373
▁diarrhea	-10374
▁pleasant	-10375
▁shocking	-10376
▁talented	-10377
ustainable	-10378
▁asteroids	-10379
▁collision	-10380
▁commodity	-10381
▁integrate	-10382
▁isolation	-10383
▁neocortex	-10384
▁screening	-10385
▁sequences	-10386
▁staircase	-10387
▁Copenhagen	-10388
▁Eventually	-10389
▁exceptions	-10390
▁fertilizer	-10391
▁irrational	-10392
▁practicing	-10393
▁preventing	-10394
▁staggering	-10395
▁subjective	-10396
▁Netherlands	-10397
▁anniversary	-10398
▁concentrate	-10399
▁transmitted	-10400
▁Philadelphia	-10401
▁representing	-10402
▁approximately	-10403
Go	-10404
bag	-10405
dra	-10406
pos	-10407
▁4.	-10408
▁GG	-10409
▁Sl	-10410
▁TK	-10411
agan	-10412
aman	-10413
imag	-10414
offs	-10415
▁Old	-10416
▁Pot	-10417
▁Tam	-10418
▁Ult	-10419
▁pad	-10420
abeth	-10421
asure	-10422
ierra	-10423
olera	-10424
shore	-10425
speed	-10426
viron	-10427
▁1930	-10428
▁Hind	-10429
▁Kids	-10430
▁Libr	-10431
▁Ross	-10432
▁belt	-10433
▁cope	-10434
▁flaw	-10435
▁pipe	-10436
▁thro	-10437
▁voca	-10438
abling	-10439
ergart	-10440
ounded	-10441
ounder	-10442
rators	-10443
ulture	-10444
▁Laden	-10445
▁Tunis	-10446
▁alert	-10447
▁codes	-10448
▁couch	-10449
▁escal	-10450
▁facil	-10451
▁femin	-10452
▁flock	-10453
▁lifel	-10454
▁probe	-10455
▁slice	-10456
▁spare	-10457
▁suits	-10458
▁voted	-10459
▁wages	-10460
▁watts	-10461
▁wrest	-10462
ounding	-10463
percent	-10464
quality	-10465
ulative	-10466
▁Around	-10467
▁Arthur	-10468
▁Bhutan	-10469
▁chimps	-10470
▁copies	-10471
▁counts	-10472
▁frames	-10473
▁insist	-10474
▁mammal	-10475
▁pestic	-10476
▁presum	-10477
▁refuse	-10478
▁scaled	-10479
▁underm	-10480
▁winner	-10481
ependent	-10482
▁Academy	-10483
▁Lebanon	-10484
▁browser	-10485
▁cardiac	-10486
▁clarity	-10487
▁decides	-10488
▁enlight	-10489
▁grocery	-10490
▁jumping	-10491
▁pouring	-10492
▁powered	-10493
▁richest	-10494
▁shifted	-10495
▁strikes	-10496
▁texting	-10497
▁Nigerian	-10498
▁adoption	-10499
▁ambition	-10500
▁checking	-10501
▁chickens	-10502
▁cleaning	-10503
▁deciding	-10504
▁detector	-10505
▁entities	-10506
▁habitats	-10507
▁lifespan	-10508
▁officers	-10509
▁outbreak	-10510
▁protocol	-10511
▁resident	-10512
▁scaffold	-10513
▁terrific	-10514
▁thinkers	-10515
▁answering	-10516
▁associate	-10517
▁astronomy	-10518
▁champions	-10519
▁converted	-10520
▁emergence	-10521
▁inclusive	-10522
▁psychiatr	-10523
▁reasoning	-10524
▁recession	-10525
▁disconnect	-10526
▁enormously	-10527
▁horizontal	-10528
▁ingredient	-10529
▁nonviolent	-10530
▁opposition	-10531
▁sculptures	-10532
▁undergradu	-10533
▁constitution	-10534
▁economically	-10535
▁headquarters	-10536
▁philosophical	-10537
Af	-10538
As	-10539
RA	-10540
ki	-10541
tz	-10542
eem	-10543
jud	-10544
kyo	-10545
wan	-10546
▁46	-10547
▁48	-10548
▁AM	-10549
▁CM	-10550
AIDS	-10551
Come	-10552
anas	-10553
aver	-10554
enth	-10555
etti	-10556
eyed	-10557
food	-10558
inos	-10559
roup	-10560
uilt	-10561
▁Nam	-10562
▁Say	-10563
▁Tre	-10564
▁cul	-10565
▁nap	-10566
▁rod	-10567
▁yog	-10568
atoes	-10569
ennis	-10570
grand	-10571
iolet	-10572
piece	-10573
rates	-10574
▁Chap	-10575
▁Desp	-10576
▁Peru	-10577
▁blur	-10578
▁craw	-10579
▁flee	-10580
▁mixt	-10581
▁obsc	-10582
▁piss	-10583
▁scal	-10584
▁toll	-10585
▁wins	-10586
alysis	-10587
ricane	-10588
▁2003,	-10589
▁Apoll	-10590
▁Georg	-10591
▁Harry	-10592
▁Light	-10593
▁Sarah	-10594
▁Tokyo	-10595
▁deter	-10596
▁dread	-10597
▁feeds	-10598
▁knees	-10599
▁mater	-10600
▁morph	-10601
▁spite	-10602
ocation	-10603
reating	-10604
umbling	-10605
▁Associ	-10606
▁Joseph	-10607
▁Luther	-10608
▁Secret	-10609
▁Wright	-10610
▁aliens	-10611
▁allies	-10612
▁boards	-10613
▁cables	-10614
▁casual	-10615
▁crowds	-10616
▁dishes	-10617
▁equals	-10618
▁exquis	-10619
▁flavor	-10620
▁floors	-10621
▁judges	-10622
▁nicely	-10623
▁prepar	-10624
▁purely	-10625
▁racing	-10626
▁Kingdom	-10627
▁Mexican	-10628
▁blowing	-10629
▁budgets	-10630
▁chasing	-10631
▁commons	-10632
▁compreh	-10633
▁compute	-10634
▁condoms	-10635
▁damaged	-10636
▁digging	-10637
▁eternal	-10638
▁forgive	-10639
▁generic	-10640
▁rescued	-10641
▁reserve	-10642
▁shorter	-10643
▁spiders	-10644
▁squares	-10645
▁weekend	-10646
▁western	-10647
▁Olympics	-10648
▁acquired	-10649
▁alphabet	-10650
▁basement	-10651
▁calculus	-10652
▁cylinder	-10653
▁peripher	-10654
▁siblings	-10655
▁sticking	-10656
▁stressed	-10657
▁variable	-10658
cyclopedia	-10659
▁achieving	-10660
▁analyzing	-10661
▁deception	-10662
▁negotiate	-10663
▁nightmare	-10664
▁portraits	-10665
▁secondary	-10666
▁universes	-10667
▁conceptual	-10668
▁intentions	-10669
▁interfaces	-10670
▁invitation	-10671
▁networking	-10672
▁politician	-10673
▁Fortunately	-10674
▁Palestinian	-10675
▁practically	-10676
▁disabilities	-10677
▁laboratories	-10678
▁prostitution	-10679
▁reproductive	-10680
▁collaborators	-10681
gr	-10682
erk	-10683
gon	-10684
▁AL	-10685
▁Di	-10686
▁EM	-10687
▁Gr	-10688
▁Py	-10689
▁RM	-10690
▁vo	-10691
isan	-10692
pace	-10693
teen	-10694
▁1.2	-10695
▁12-	-10696
▁130	-10697
▁203	-10698
▁Mat	-10699
▁Tar	-10700
▁Van	-10701
▁awe	-10702
▁mit	-10703
▁wre	-10704
elect	-10705
epher	-10706
hythm	-10707
vania	-10708
▁2008	-10709
▁2010	-10710
▁Gard	-10711
▁Mean	-10712
▁Oper	-10713
▁bowl	-10714
▁bust	-10715
▁calc	-10716
▁cups	-10717
▁fuck	-10718
▁obso	-10719
▁outl	-10720
▁pose	-10721
▁reck	-10722
▁slog	-10723
▁solo	-10724
▁surg	-10725
▁tags	-10726
▁turt	-10727
▁unac	-10728
▁vice	-10729
▁wage	-10730
▁warr	-10731
eprint	-10732
minded	-10733
normal	-10734
stairs	-10735
▁Goals	-10736
▁acids	-10737
▁acute	-10738
▁bulbs	-10739
▁cares	-10740
▁chess	-10741
▁drain	-10742
▁entit	-10743
▁infra	-10744
▁loyal	-10745
▁marks	-10746
▁rigid	-10747
▁scans	-10748
▁seals	-10749
▁usage	-10750
ilation	-10751
izabeth	-10752
▁Jersey	-10753
▁Mozart	-10754
▁Spring	-10755
▁abroad	-10756
▁cataly	-10757
▁contra	-10758
▁hugely	-10759
▁mating	-10760
▁server	-10761
ountered	-10762
pectives	-10763
restrial	-10764
▁Charlie	-10765
▁Connect	-10766
▁Library	-10767
▁Somalia	-10768
▁acquire	-10769
▁cholera	-10770
▁counted	-10771
▁creator	-10772
▁filters	-10773
▁folding	-10774
▁luckily	-10775
▁menstru	-10776
▁motions	-10777
▁pathway	-10778
▁shaking	-10779
▁shining	-10780
▁trailer	-10781
mentation	-10782
▁cocktail	-10783
▁dreaming	-10784
▁frontier	-10785
▁membrane	-10786
▁modeling	-10787
▁revenues	-10788
▁tangible	-10789
▁targeted	-10790
▁Greenland	-10791
▁contained	-10792
▁discussed	-10793
▁embracing	-10794
▁extensive	-10795
▁involving	-10796
▁warehouse	-10797
▁Absolutely	-10798
▁addressing	-10799
▁critically	-10800
▁identities	-10801
▁kindergart	-10802
▁parliament	-10803
▁protective	-10804
▁disciplines	-10805
▁encountered	-10806
▁frustration	-10807
▁inexpensive	-10808
▁projections	-10809
▁researching	-10810
▁sensitivity	-10811
▁authenticity	-10812
▁partnerships	-10813
▁prescription	-10814
▁investigation	-10815
▁revolutionary	-10816
pa	-10817
sm	-10818
Now	-10819
syl	-10820
▁Av	-10821
▁BJ	-10822
▁BM	-10823
▁DP	-10824
▁DR	-10825
▁Ky	-10826
▁Ra	-10827
▁UK	-10828
fund	-10829
idal	-10830
step	-10831
ylon	-10832
▁'50	-10833
▁30,	-10834
▁900	-10835
▁Han	-10836
▁Lev	-10837
▁Luc	-10838
▁Ted	-10839
▁caf	-10840
▁ger	-10841
▁mas	-10842
▁nic	-10843
▁rip	-10844
Point	-10845
anium	-10846
brush	-10847
digit	-10848
idesp	-10849
uster	-10850
▁Bosn	-10851
▁CEOs	-10852
▁Cold	-10853
▁adds	-10854
▁cage	-10855
▁cycl	-10856
▁folk	-10857
▁germ	-10858
▁panc	-10859
▁shed	-10860
▁toss	-10861
ailand	-10862
alized	-10863
cribed	-10864
estone	-10865
▁2012,	-10866
▁8,000	-10867
▁Alice	-10868
▁Color	-10869
▁Cyrus	-10870
▁Later	-10871
▁camel	-10872
▁ghost	-10873
▁greet	-10874
▁jumps	-10875
▁paste	-10876
▁paths	-10877
▁rains	-10878
▁tanks	-10879
▁towns	-10880
▁yards	-10881
▁zeros	-10882
issance	-10883
ouncing	-10884
▁Having	-10885
▁Office	-10886
▁Sierra	-10887
▁apples	-10888
▁circul	-10889
▁digest	-10890
▁foster	-10891
▁graphs	-10892
▁jungle	-10893
▁mixing	-10894
▁overse	-10895
▁prohib	-10896
▁submit	-10897
▁tagged	-10898
▁tribal	-10899
▁viewed	-10900
computer	-10901
sylvania	-10902
▁Despite	-10903
▁Iranian	-10904
▁applies	-10905
▁desires	-10906
▁enthusi	-10907
▁fantasy	-10908
▁greatly	-10909
▁heating	-10910
▁impress	-10911
▁logging	-10912
▁matches	-10913
▁monster	-10914
▁penalty	-10915
▁pleased	-10916
▁reforms	-10917
▁segment	-10918
▁spatial	-10919
▁travels	-10920
ationally	-10921
effective	-10922
idespread	-10923
inational	-10924
▁Hospital	-10925
▁Thailand	-10926
▁angiogen	-10927
▁deserves	-10928
▁entrance	-10929
▁envision	-10930
▁famously	-10931
▁internet	-10932
▁inventor	-10933
▁marathon	-10934
▁motivate	-10935
▁obsolete	-10936
▁parasite	-10937
▁pathways	-10938
▁reflects	-10939
▁regional	-10940
▁simulate	-10941
▁uniquely	-10942
▁Meanwhile	-10943
▁Therefore	-10944
▁blueprint	-10945
▁celebrity	-10946
▁longevity	-10947
▁observing	-10948
▁resilient	-10949
▁therapist	-10950
▁vegetable	-10951
▁accounting	-10952
▁accumulate	-10953
▁apartments	-10954
▁congestion	-10955
▁disruptive	-10956
▁disturbing	-10957
▁empowering	-10958
▁households	-10959
▁locomotion	-10960
▁millimeter	-10961
▁procedures	-10962
▁profitable	-10963
▁prosthetic	-10964
▁cooperative	-10965
▁functioning	-10966
▁medications	-10967
▁preparation	-10968
▁progression	-10969
▁substantial	-10970
▁transported	-10971
▁Pennsylvania	-10972
▁authoritarian	-10973
▁exponentially	-10974
▁participating	-10975
▁characteristic	-10976
▁scientifically	-10977
TC	-10978
vy	-10979
afe	-10980
psy	-10981
vin	-10982
zzy	-10983
▁AG	-10984
▁ID	-10985
▁Ir	-10986
Just	-10987
aire	-10988
expl	-10989
held	-10990
inch	-10991
mass	-10992
nedy	-10993
osov	-10994
ucks	-10995
ucky	-10996
umbs	-10997
ylac	-10998
▁1.5	-10999
▁Ang	-11000
▁RNA	-11001
▁Sub	-11002
▁Sum	-11003
▁fog	-11004
▁voy	-11005
aches	-11006
ambod	-11007
glect	-11008
ittee	-11009
iumph	-11010
ivals	-11011
▁Abed	-11012
▁Dick	-11013
▁Wait	-11014
▁alar	-11015
▁beds	-11016
▁beef	-11017
▁cube	-11018
▁dens	-11019
▁esca	-11020
▁fans	-11021
▁hamb	-11022
▁holy	-11023
▁leak	-11024
▁odor	-11025
▁ster	-11026
▁worm	-11027
boards	-11028
bulary	-11029
inding	-11030
ndered	-11031
verted	-11032
violet	-11033
▁2006,	-11034
▁Alask	-11035
▁Craig	-11036
▁Indus	-11037
▁Sudan	-11038
▁advis	-11039
▁album	-11040
▁ambul	-11041
▁arise	-11042
▁asset	-11043
▁cloth	-11044
▁clues	-11045
▁grant	-11046
▁mycel	-11047
▁reper	-11048
▁rises	-11049
▁roofs	-11050
▁simul	-11051
▁stare	-11052
▁strat	-11053
▁veloc	-11054
▁wives	-11055
frontal	-11056
▁Cambod	-11057
▁Hubble	-11058
▁Jordan	-11059
▁Recent	-11060
▁admire	-11061
▁brands	-11062
▁eighth	-11063
▁firing	-11064
▁grains	-11065
▁intric	-11066
▁occupy	-11067
▁precip	-11068
▁rolled	-11069
▁steady	-11070
▁temple	-11071
▁themes	-11072
▁traces	-11073
▁unfair	-11074
▁Climate	-11075
▁Kennedy	-11076
▁Suppose	-11077
▁blessed	-11078
▁cousins	-11079
▁dismiss	-11080
▁episode	-11081
▁grabbed	-11082
▁legally	-11083
▁neglect	-11084
▁playful	-11085
▁squeeze	-11086
▁surveys	-11087
▁thereby	-11088
▁touches	-11089
▁trusted	-11090
izational	-11091
▁Canadian	-11092
▁admitted	-11093
▁ancestor	-11094
▁assemble	-11095
▁displays	-11096
▁gasoline	-11097
▁gestures	-11098
▁maneuver	-11099
▁minerals	-11100
▁passions	-11101
▁persuade	-11102
▁activated	-11103
▁apologize	-11104
▁artifacts	-11105
▁emphasize	-11106
▁finishing	-11107
▁integrity	-11108
▁judgments	-11109
▁magazines	-11110
▁massively	-11111
▁parenting	-11112
▁pressures	-11113
▁processor	-11114
▁projected	-11115
▁replacing	-11116
▁struggled	-11117
▁successes	-11118
▁surviving	-11119
▁variables	-11120
▁wandering	-11121
▁PowerPoint	-11122
▁accurately	-11123
▁altogether	-11124
▁presenting	-11125
▁priorities	-11126
▁translator	-11127
▁vocabulary	-11128
▁Association	-11129
▁chromosomes	-11130
▁considering	-11131
▁empowerment	-11132
▁maintenance	-11133
▁replacement	-11134
▁statistical	-11135
▁chemotherapy	-11136
▁disappointed	-11137
▁improvements	-11138
▁philosophers	-11139
▁satisfaction	-11140
▁multinational	-11141
Fi	-11142
IN	-11143
bee	-11144
bot	-11145
ecd	-11146
pay	-11147
▁Ba	-11148
▁JC	-11149
▁eB	-11150
arly	-11151
beat	-11152
chem	-11153
iasm	-11154
page	-11155
pted	-11156
velt	-11157
▁15,	-11158
▁50-	-11159
▁Add	-11160
▁Ara	-11161
▁Arm	-11162
▁Ast	-11163
▁Beh	-11164
▁Gar	-11165
▁Pen	-11166
▁Syl	-11167
▁Tit	-11168
▁arc	-11169
▁bip	-11170
▁goo	-11171
▁mum	-11172
Would	-11173
aurus	-11174
ieval	-11175
inema	-11176
irmed	-11177
pound	-11178
▁Book	-11179
▁Know	-11180
▁Mall	-11181
▁Marc	-11182
▁Phot	-11183
▁Post	-11184
▁Year	-11185
▁beam	-11186
▁carc	-11187
▁dood	-11188
▁epip	-11189
▁merg	-11190
▁nano	-11191
▁perm	-11192
▁plut	-11193
▁pops	-11194
▁pron	-11195
▁semi	-11196
angelo	-11197
ankind	-11198
commun	-11199
ements	-11200
engers	-11201
epherd	-11202
ertips	-11203
ilated	-11204
inable	-11205
inates	-11206
resist	-11207
rition	-11208
▁Clear	-11209
▁Fifty	-11210
▁Kosov	-11211
▁Pitts	-11212
▁Tibet	-11213
▁anecd	-11214
▁awake	-11215
▁clips	-11216
▁crows	-11217
▁ethic	-11218
▁fails	-11219
▁macro	-11220
▁noisy	-11221
▁occas	-11222
▁slave	-11223
▁slept	-11224
▁sucks	-11225
▁Humans	-11226
▁Monday	-11227
▁Norden	-11228
▁Syrian	-11229
▁Thirty	-11230
▁absurd	-11231
▁assure	-11232
▁behold	-11233
▁biases	-11234
▁candle	-11235
▁contag	-11236
▁copied	-11237
▁cracks	-11238
▁earned	-11239
▁enrich	-11240
▁filmed	-11241
▁gravit	-11242
▁hatred	-11243
▁ironic	-11244
▁mutual	-11245
▁potent	-11246
▁reflex	-11247
▁salmon	-11248
▁spiral	-11249
▁stairs	-11250
▁thrive	-11251
▁unseen	-11252
▁weighs	-11253
▁Everest	-11254
▁Montana	-11255
▁Swedish	-11256
▁altered	-11257
▁dancers	-11258
▁dispers	-11259
▁gardens	-11260
▁iceberg	-11261
▁praying	-11262
▁relates	-11263
▁settled	-11264
▁talents	-11265
▁tightly	-11266
▁utility	-11267
▁abundant	-11268
▁accommod	-11269
▁balloons	-11270
▁blocking	-11271
▁cheating	-11272
▁consists	-11273
▁friction	-11274
▁gigantic	-11275
▁headline	-11276
▁obstacle	-11277
▁offshore	-11278
▁operates	-11279
▁pipeline	-11280
▁singular	-11281
▁sometime	-11282
▁triangle	-11283
ographical	-11284
▁Similarly	-11285
▁cardboard	-11286
▁diplomacy	-11287
▁displaced	-11288
▁execution	-11289
▁impressed	-11290
▁lightning	-11291
▁millennia	-11292
▁mushrooms	-11293
▁producers	-11294
▁promoting	-11295
▁enthusiasm	-11296
▁friendship	-11297
▁pedestrian	-11298
▁programmed	-11299
▁renewables	-11300
▁widespread	-11301
▁accountable	-11302
▁correlation	-11303
▁dysfunction	-11304
▁frequencies	-11305
▁nonetheless	-11306
▁orientation	-11307
▁revolutions	-11308
▁ultraviolet	-11309
▁dictionaries	-11310
▁individually	-11311
▁kindergarten	-11312
▁perspectives	-11313
▁rehabilitation	-11314
NC	-11315
Did	-11316
SPR	-11317
cod	-11318
loc	-11319
you	-11320
▁Da	-11321
▁IP	-11322
▁ov	-11323
acle	-11324
bian	-11325
fing	-11326
hors	-11327
inea	-11328
lets	-11329
oton	-11330
ptic	-11331
size	-11332
udge	-11333
yles	-11334
▁140	-11335
▁160	-11336
▁CRI	-11337
▁Dru	-11338
▁cod	-11339
▁eru	-11340
▁gad	-11341
Afric	-11342
Every	-11343
allas	-11344
ancer	-11345
arial	-11346
pling	-11347
ponds	-11348
▁Cost	-11349
▁Free	-11350
▁Pete	-11351
▁Tues	-11352
▁Wood	-11353
▁bugs	-11354
▁cram	-11355
▁curt	-11356
▁ease	-11357
▁goat	-11358
▁hurd	-11359
▁narc	-11360
▁node	-11361
▁nons	-11362
▁rays	-11363
ibbean	-11364
orship	-11365
ustice	-11366
▁Broad	-11367
▁Heart	-11368
▁Linux	-11369
▁Party	-11370
▁Roman	-11371
▁arena	-11372
▁brick	-11373
▁discl	-11374
▁frogs	-11375
▁fuzzy	-11376
▁guerr	-11377
▁heter	-11378
▁hills	-11379
▁jokes	-11380
▁midst	-11381
▁oppon	-11382
▁penis	-11383
▁smugg	-11384
alities	-11385
iterate	-11386
ourcing	-11387
raising	-11388
▁Apollo	-11389
▁CRISPR	-11390
▁Cancer	-11391
▁Edward	-11392
▁Notice	-11393
▁Sahara	-11394
▁angles	-11395
▁beetle	-11396
▁beside	-11397
▁brutal	-11398
▁calend	-11399
▁famine	-11400
▁folded	-11401
▁fruits	-11402
▁humble	-11403
▁issued	-11404
▁lately	-11405
▁metals	-11406
▁mouths	-11407
▁resemb	-11408
▁storms	-11409
▁tattoo	-11410
▁viable	-11411
▁virtue	-11412
▁voters	-11413
breaking	-11414
▁Certain	-11415
▁Defense	-11416
▁Georgia	-11417
▁Tuesday	-11418
▁airline	-11419
▁ashamed	-11420
▁blocked	-11421
▁boiling	-11422
▁buttons	-11423
▁checked	-11424
▁chemist	-11425
▁columns	-11426
▁flights	-11427
▁goodbye	-11428
▁honored	-11429
▁lighter	-11430
▁passage	-11431
▁sadness	-11432
▁shortly	-11433
▁sounded	-11434
▁thermal	-11435
▁triumph	-11436
▁warrior	-11437
ropolitan	-11438
▁Consider	-11439
▁TEDTalks	-11440
▁Whenever	-11441
▁autistic	-11442
▁autonomy	-11443
▁champion	-11444
▁elevator	-11445
▁goodness	-11446
▁humility	-11447
▁infrared	-11448
▁intimacy	-11449
▁numerous	-11450
▁overseas	-11451
▁prospect	-11452
▁receptor	-11453
▁regulate	-11454
▁supports	-11455
▁survivor	-11456
▁upstream	-11457
ifications	-11458
▁Caribbean	-11459
▁Education	-11460
▁Elizabeth	-11461
▁addressed	-11462
▁bacterium	-11463
▁belonging	-11464
▁consuming	-11465
▁dictators	-11466
▁fishermen	-11467
▁indicates	-11468
▁libraries	-11469
▁marijuana	-11470
▁metabolic	-11471
▁sexuality	-11472
engineering	-11473
▁Australian	-11474
▁adaptation	-11475
▁celebrated	-11476
▁chromosome	-11477
▁convincing	-11478
▁diagnostic	-11479
▁metabolism	-11480
▁physiology	-11481
▁predicting	-11482
▁regenerate	-11483
▁relativity	-11484
▁supportive	-11485
▁Republicans	-11486
▁calculation	-11487
▁celebration	-11488
▁controversy	-11489
▁corresponds	-11490
▁problematic	-11491
▁remembering	-11492
▁angiogenesis	-11493
▁deliberately	-11494
▁disappearing	-11495
▁Interestingly	-11496
▁spontaneously	-11497
▁hallucinations	-11498
10	-11499
Le	-11500
hr	-11501
▁:	-11502
11,	-11503
Mom	-11504
eys	-11505
iro	-11506
lad	-11507
lah	-11508
nik	-11509
rep	-11510
wid	-11511
▁CP	-11512
▁MS	-11513
Good	-11514
abwe	-11515
copy	-11516
educ	-11517
eton	-11518
gage	-11519
hops	-11520
mile	-11521
sens	-11522
unes	-11523
▁Naz	-11524
▁Nin	-11525
▁Top	-11526
▁hut	-11527
ached	-11528
avors	-11529
ccoli	-11530
epler	-11531
opian	-11532
rison	-11533
roots	-11534
sight	-11535
urger	-11536
venue	-11537
▁Bali	-11538
▁Cuba	-11539
▁Fred	-11540
▁Pent	-11541
▁Stop	-11542
▁Such	-11543
▁bent	-11544
▁clar	-11545
▁disk	-11546
▁dorm	-11547
▁fled	-11548
▁foie	-11549
▁numb	-11550
▁pean	-11551
▁slip	-11552
▁tale	-11553
▁trap	-11554
advant	-11555
awater	-11556
formed	-11557
imalay	-11558
ograms	-11559
second	-11560
uminum	-11561
ussani	-11562
▁2001,	-11563
▁Beach	-11564
▁Const	-11565
▁Guard	-11566
▁Larry	-11567
▁Namib	-11568
▁Nepal	-11569
▁Princ	-11570
▁Tesla	-11571
▁Venus	-11572
▁alike	-11573
▁freed	-11574
▁hurts	-11575
▁laund	-11576
▁manus	-11577
▁newly	-11578
▁sells	-11579
▁snake	-11580
▁squid	-11581
▁taboo	-11582
▁unequ	-11583
▁wiped	-11584
imbabwe	-11585
▁12,000	-11586
▁Alaska	-11587
▁Canyon	-11588
▁Greeks	-11589
▁Joshua	-11590
▁Sylvia	-11591
▁Warren	-11592
▁anonym	-11593
▁asthma	-11594
▁banned	-11595
▁cooler	-11596
▁hacker	-11597
▁hunter	-11598
▁marrow	-11599
▁mature	-11600
▁punish	-11601
▁racial	-11602
▁scarce	-11603
▁snakes	-11604
▁spends	-11605
▁thylac	-11606
▁upward	-11607
▁Clearly	-11608
▁Environ	-11609
▁Himalay	-11610
▁Phoenix	-11611
▁Stewart	-11612
▁affairs	-11613
▁anytime	-11614
▁appoint	-11615
▁archive	-11616
▁beetles	-11617
▁desktop	-11618
▁donated	-11619
▁dreamed	-11620
▁emerges	-11621
▁explode	-11622
▁liberty	-11623
▁migrate	-11624
▁minimal	-11625
▁portray	-11626
▁pricing	-11627
▁reclaim	-11628
▁seventh	-11629
▁shelves	-11630
▁skilled	-11631
▁warfare	-11632
▁winners	-11633
conscious	-11634
▁Columbia	-11635
▁Giussani	-11636
▁assuming	-11637
▁detected	-11638
▁diamonds	-11639
▁invasion	-11640
▁misunder	-11641
▁petition	-11642
▁pressing	-11643
▁promises	-11644
▁stealing	-11645
▁stepping	-11646
▁supernov	-11647
▁visitors	-11648
▁weakness	-11649
▁Egyptians	-11650
▁Princeton	-11651
▁countless	-11652
▁demanding	-11653
▁disadvant	-11654
▁humankind	-11655
▁illusions	-11656
▁intervene	-11657
▁obsession	-11658
▁similarly	-11659
▁skeptical	-11660
▁stimulate	-11661
▁strengths	-11662
▁sustained	-11663
▁acceptance	-11664
▁beneficial	-11665
▁developers	-11666
▁generosity	-11667
▁inventions	-11668
▁repeatedly	-11669
▁symmetries	-11670
▁association	-11671
▁destructive	-11672
▁embarrassed	-11673
▁flexibility	-11674
▁frustrating	-11675
▁perceptions	-11676
▁questioning	-11677
▁symmetrical	-11678
▁appreciation	-11679
▁catastrophic	-11680
▁explanations	-11681
▁nevertheless	-11682
▁reproduction	-11683
▁experimenting	-11684
ES	-11685
Ex	-11686
ja	-11687
sa	-11688
300	-11689
Not	-11690
One	-11691
idi	-11692
mia	-11693
▁MA	-11694
▁MO	-11695
▁Wo	-11696
▁gy	-11697
▁oy	-11698
acco	-11699
bles	-11700
elle	-11701
enez	-11702
eron	-11703
oler	-11704
pons	-11705
roid	-11706
ropr	-11707
uper	-11708
weet	-11709
▁24-	-11710
▁Ask	-11711
▁CMU	-11712
▁Cir	-11713
▁Dal	-11714
▁Ell	-11715
▁Sad	-11716
▁bay	-11717
▁cum	-11718
▁fee	-11719
▁gel	-11720
▁jaw	-11721
▁kit	-11722
▁owe	-11723
child	-11724
graph	-11725
ilibr	-11726
negie	-11727
rowth	-11728
▁2009	-11729
▁Band	-11730
▁Data	-11731
▁Food	-11732
▁Hung	-11733
▁Mind	-11734
▁apes	-11735
▁eBay	-11736
▁eats	-11737
▁edit	-11738
▁orth	-11739
▁padd	-11740
▁perf	-11741
▁sang	-11742
▁stew	-11743
▁tide	-11744
airobi	-11745
itical	-11746
rogram	-11747
▁Cairo	-11748
▁Lagos	-11749
▁Prime	-11750
▁Small	-11751
▁Story	-11752
▁adequ	-11753
▁chore	-11754
▁dates	-11755
▁drama	-11756
▁faint	-11757
▁merit	-11758
▁moist	-11759
▁physi	-11760
▁pipes	-11761
▁slope	-11762
▁tiger	-11763
▁woods	-11764
▁yeast	-11765
acities	-11766
aghetti	-11767
eliness	-11768
holders	-11769
million	-11770
ocratic	-11771
▁Colomb	-11772
▁Commun	-11773
▁Empire	-11774
▁Kepler	-11775
▁Native	-11776
▁Others	-11777
▁cathed	-11778
▁dancer	-11779
▁empire	-11780
▁fights	-11781
▁guitar	-11782
▁insult	-11783
▁interd	-11784
▁ladder	-11785
▁pilots	-11786
▁reader	-11787
▁resort	-11788
▁routes	-11789
▁salary	-11790
▁slowed	-11791
▁submar	-11792
▁tricky	-11793
▁viscer	-11794
▁washed	-11795
ceptable	-11796
ilibrium	-11797
velength	-11798
▁300,000	-11799
▁Country	-11800
▁Nairobi	-11801
▁Natural	-11802
▁anatomy	-11803
▁confirm	-11804
▁deficit	-11805
▁descend	-11806
▁editors	-11807
▁expense	-11808
▁gallons	-11809
▁honesty	-11810
▁mixture	-11811
▁persons	-11812
▁phrases	-11813
▁premise	-11814
▁quietly	-11815
▁shadows	-11816
▁silicon	-11817
▁tickets	-11818
▁wonders	-11819
▁Carnegie	-11820
▁Michigan	-11821
▁baseline	-11822
▁commands	-11823
▁doubling	-11824
▁enabling	-11825
▁endeavor	-11826
▁envelope	-11827
▁exploded	-11828
▁interpre	-11829
▁lectures	-11830
▁magician	-11831
▁mattered	-11832
▁missions	-11833
▁mycelium	-11834
▁noticing	-11835
▁plankton	-11836
▁purchase	-11837
▁pursuing	-11838
▁referred	-11839
▁register	-11840
▁sneakers	-11841
▁surgical	-11842
▁symbolic	-11843
▁thorough	-11844
controlled	-11845
generation	-11846
▁ambulance	-11847
▁demograph	-11848
▁filmmaker	-11849
▁fireflies	-11850
▁graduates	-11851
▁ingenuity	-11852
▁inherited	-11853
▁instances	-11854
▁intersect	-11855
▁promising	-11856
▁qualified	-11857
▁respected	-11858
▁worldview	-11859
▁Scientists	-11860
▁disappears	-11861
▁frightened	-11862
▁parameters	-11863
▁prevalence	-11864
▁propaganda	-11865
▁reasonably	-11866
▁reflective	-11867
▁circulation	-11868
▁citizenship	-11869
▁conferences	-11870
▁documenting	-11871
▁efficiently	-11872
▁existential	-11873
▁Michelangelo	-11874
▁disconnected	-11875
▁urbanization	-11876
▁configuration	-11877
▁consideration	-11878
▁contributions	-11879
▁gravitational	-11880
▁improvisation	-11881
▁independently	-11882
▁personalities	-11883
-2	-11884
HA	-11885
ECD	-11886
bes	-11887
gue	-11888
isa	-11889
iva	-11890
lem	-11891
run	-11892
vet	-11893
weg	-11894
▁38	-11895
▁44	-11896
▁52	-11897
▁Lo	-11898
▁Mu	-11899
▁ST	-11900
▁ic	-11901
adow	-11902
asha	-11903
blow	-11904
eddy	-11905
eman	-11906
intu	-11907
rose	-11908
umen	-11909
zone	-11910
▁ALS	-11911
▁Ash	-11912
▁Bot	-11913
▁DAR	-11914
▁Die	-11915
▁Hot	-11916
▁Kar	-11917
▁Lee	-11918
▁Lew	-11919
▁McC	-11920
▁Rog	-11921
▁jan	-11922
▁lex	-11923
achel	-11924
actic	-11925
amous	-11926
erers	-11927
essim	-11928
icism	-11929
illas	-11930
story	-11931
thals	-11932
ucked	-11933
vance	-11934
▁2005	-11935
▁Bert	-11936
▁Dave	-11937
▁Fire	-11938
▁Jean	-11939
▁Milo	-11940
▁OECD	-11941
▁Work	-11942
▁bion	-11943
▁budd	-11944
▁conj	-11945
▁font	-11946
▁lips	-11947
▁oven	-11948
▁seam	-11949
▁slum	-11950
▁tips	-11951
▁twin	-11952
handed	-11953
iments	-11954
odynam	-11955
school	-11956
screen	-11957
▁Fried	-11958
▁Milky	-11959
▁Start	-11960
▁Using	-11961
▁Venez	-11962
▁alleg	-11963
▁divid	-11964
▁draws	-11965
▁firms	-11966
▁hobby	-11967
▁octop	-11968
▁piles	-11969
▁pumps	-11970
▁recur	-11971
▁swing	-11972
▁trait	-11973
conomic	-11974
develop	-11975
umental	-11976
▁Dallas	-11977
▁Norweg	-11978
▁Unlike	-11979
▁Yellow	-11980
▁arrows	-11981
▁bypass	-11982
▁cement	-11983
▁ethics	-11984
▁fierce	-11985
▁fixing	-11986
▁freeze	-11987
▁harass	-11988
▁hypoth	-11989
▁improb	-11990
▁irrele	-11991
▁prejud	-11992
▁slaves	-11993
▁tomato	-11994
▁truths	-11995
▁underp	-11996
▁Hundred	-11997
▁Usually	-11998
▁amateur	-11999
▁chaotic	-12000
▁council	-12001
▁cracked	-12002
▁crashes	-12003
▁devoted	-12004
▁easiest	-12005
▁fossils	-12006
▁markers	-12007
▁newborn	-12008
▁reveals	-12009
▁secular	-12010
▁subsequ	-12011
▁sulfide	-12012
▁tracked	-12013
▁upright	-12014
▁viewing	-12015
▁Venezuel	-12016
▁acoustic	-12017
▁aluminum	-12018
▁applause	-12019
▁chapters	-12020
▁confined	-12021
▁degraded	-12022
▁diagnose	-12023
▁embodied	-12024
▁equipped	-12025
▁juvenile	-12026
▁memorial	-12027
▁patience	-12028
▁primates	-12029
▁Architect	-12030
▁Jefferson	-12031
▁Secretary	-12032
▁accepting	-12033
▁affection	-12034
▁assembled	-12035
▁attacking	-12036
▁biosphere	-12037
▁breakdown	-12038
▁civilians	-12039
▁container	-12040
▁fragments	-12041
▁implanted	-12042
▁injustice	-12043
▁kilometer	-12044
▁pervasive	-12045
▁processed	-12046
▁recovered	-12047
▁routinely	-12048
▁spaghetti	-12049
▁summarize	-12050
▁attributes	-12051
▁brainstorm	-12052
▁grassroots	-12053
▁playground	-12054
▁quantities	-12055
▁calculating	-12056
▁equilibrium	-12057
▁expectation	-12058
▁microscopic	-12059
▁psychiatric	-12060
▁stimulation	-12061
▁transferred	-12062
▁Neanderthals	-12063
▁illustration	-12064
▁statistically	-12065
▁entrepreneurial	-12066
EA	-12067
ER	-12068
IA	-12069
dad	-12070
ffe	-12071
fts	-12072
ria	-12073
sea	-12074
una	-12075
▁3,	-12076
▁43	-12077
▁Cy	-12078
▁Wr	-12079
Cola	-12080
acks	-12081
anch	-12082
anol	-12083
asma	-12084
iner	-12085
mart	-12086
neum	-12087
obic	-12088
otal	-12089
oven	-12090
rays	-12091
rove	-12092
uite	-12093
▁50,	-12094
▁Ide	-12095
▁Jay	-12096
▁Mot	-12097
▁Muh	-12098
▁Oft	-12099
▁Reg	-12100
▁SMS	-12101
▁Tai	-12102
▁Ter	-12103
▁cav	-12104
▁hug	-12105
▁zoo	-12106
asant	-12107
borne	-12108
erate	-12109
ibati	-12110
illes	-12111
iotic	-12112
izona	-12113
rator	-12114
rovir	-12115
width	-12116
▁Coca	-12117
▁Expl	-12118
▁Jama	-12119
▁Jenn	-12120
▁Main	-12121
▁Pers	-12122
▁Phys	-12123
▁Soon	-12124
▁TEDx	-12125
▁Tele	-12126
▁adul	-12127
▁appl	-12128
▁debr	-12129
▁fame	-12130
▁gaze	-12131
▁heck	-12132
▁hect	-12133
▁mund	-12134
▁puff	-12135
▁reun	-12136
▁slam	-12137
▁sums	-12138
▁yard	-12139
ieties	-12140
irable	-12141
ocracy	-12142
ogenic	-12143
redict	-12144
rhythm	-12145
tering	-12146
ugging	-12147
▁2010.	-12148
▁Death	-12149
▁Paulo	-12150
▁Royal	-12151
▁Simon	-12152
▁arter	-12153
▁bribe	-12154
▁desce	-12155
▁empir	-12156
▁fungi	-12157
▁glory	-12158
▁insur	-12159
▁lakes	-12160
▁myths	-12161
▁remem	-12162
▁resid	-12163
▁shred	-12164
▁snaps	-12165
Because	-12166
iscover	-12167
itorium	-12168
rospect	-12169
sterdam	-12170
▁Doctor	-12171
▁Golden	-12172
▁Invest	-12173
▁Kansas	-12174
▁benign	-12175
▁bounce	-12176
▁enters	-12177
▁entity	-12178
▁facult	-12179
▁finite	-12180
▁firmly	-12181
▁heroic	-12182
▁hooked	-12183
▁laying	-12184
▁marked	-12185
▁pessim	-12186
▁pollut	-12187
▁reserv	-12188
▁scroll	-12189
▁smiles	-12190
▁spouse	-12191
▁stigma	-12192
▁undert	-12193
oriented	-12194
othermal	-12195
▁Arizona	-12196
▁barbers	-12197
▁divorce	-12198
▁equator	-12199
▁frontal	-12200
▁joining	-12201
▁morally	-12202
▁notions	-12203
▁ratings	-12204
▁reviews	-12205
▁sailing	-12206
▁symptom	-12207
▁torture	-12208
▁victory	-12209
▁volumes	-12210
▁wounded	-12211
▁Kiribati	-12212
▁Movement	-12213
▁Portugal	-12214
▁activism	-12215
▁backpack	-12216
▁broccoli	-12217
▁civilian	-12218
▁commonly	-12219
▁contents	-12220
▁declared	-12221
▁embraced	-12222
▁executed	-12223
▁horrific	-12224
▁imprison	-12225
▁indirect	-12226
▁modified	-12227
▁nonsense	-12228
▁operator	-12229
▁optimize	-12230
▁passport	-12231
▁responds	-12232
▁sections	-12233
▁shepherd	-12234
▁societal	-12235
▁velocity	-12236
▁aggregate	-12237
▁arbitrary	-12238
▁cigarette	-12239
▁exclusive	-12240
▁executive	-12241
▁galleries	-12242
▁illnesses	-12243
▁launching	-12244
▁pediatric	-12245
▁pregnancy	-12246
▁preserved	-12247
▁releasing	-12248
▁scenarios	-12249
▁unpredict	-12250
▁voluntary	-12251
▁Pittsburgh	-12252
▁assessment	-12253
▁disgusting	-12254
▁explicitly	-12255
▁innovators	-12256
▁intriguing	-12257
▁passengers	-12258
▁randomness	-12259
▁recognizes	-12260
▁specialist	-12261
▁unintended	-12262
▁wavelength	-12263
▁accelerated	-12264
▁celebrating	-12265
▁conclusions	-12266
▁financially	-12267
▁identifying	-12268
▁illustrates	-12269
▁initiatives	-12270
▁stereotypes	-12271
▁willingness	-12272
▁manipulation	-12273
▁quantitative	-12274
▁unacceptable	-12275
▁contradiction	-12276
▁electromagnetic	-12277
BT	-12278
FO	-12279
HC	-12280
ao	-12281
wa	-12282
600	-12283
800	-12284
een	-12285
fig	-12286
har	-12287
odd	-12288
sis	-12289
sur	-12290
utt	-12291
▁'8	-12292
▁98	-12293
▁DM	-12294
▁Ec	-12295
▁Ku	-12296
▁Vi	-12297
▁ol	-12298
acre	-12299
amil	-12300
arat	-12301
aron	-12302
aven	-12303
axis	-12304
bird	-12305
bone	-12306
bral	-12307
cium	-12308
dest	-12309
otto	-12310
uten	-12311
wall	-12312
wear	-12313
▁12.	-12314
▁16,	-12315
▁18,	-12316
▁180	-12317
▁450	-12318
▁Bor	-12319
▁Emb	-12320
▁Ham	-12321
▁Les	-12322
▁McG	-12323
▁Pur	-12324
▁Rel	-12325
▁Scr	-12326
▁Win	-12327
▁ape	-12328
▁gor	-12329
▁hij	-12330
▁lou	-12331
▁obe	-12332
▁thy	-12333
▁unb	-12334
▁vig	-12335
ammad	-12336
apses	-12337
berty	-12338
fight	-12339
integ	-12340
loved	-12341
oping	-12342
uddin	-12343
ulent	-12344
▁Alan	-12345
▁Ardu	-12346
▁Fast	-12347
▁Hold	-12348
▁Jobs	-12349
▁Lama	-12350
▁Line	-12351
▁Luck	-12352
▁Serv	-12353
▁Sher	-12354
▁Wars	-12355
▁anom	-12356
▁bore	-12357
▁buzz	-12358
▁cops	-12359
▁dome	-12360
▁dual	-12361
▁extr	-12362
▁lump	-12363
▁skip	-12364
apagos	-12365
enment	-12366
inator	-12367
irling	-12368
lahoma	-12369
obiles	-12370
opardy	-12371
ortune	-12372
ranean	-12373
▁Chuck	-12374
▁Danny	-12375
▁Large	-12376
▁Leone	-12377
▁Roose	-12378
▁backs	-12379
▁choir	-12380
▁crank	-12381
▁deple	-12382
▁folds	-12383
▁gifts	-12384
▁goats	-12385
▁halls	-12386
▁hatch	-12387
▁inert	-12388
▁kilos	-12389
▁pneum	-12390
▁races	-12391
▁repet	-12392
▁rides	-12393
▁riots	-12394
▁sadly	-12395
▁scope	-12396
▁tuned	-12397
▁wrink	-12398
anguage	-12399
inators	-12400
thetics	-12401
ultural	-12402
▁Buddha	-12403
▁Cities	-12404
▁Either	-12405
▁Kosovo	-12406
▁Nathan	-12407
▁Taiwan	-12408
▁angels	-12409
▁biased	-12410
▁cinema	-12411
▁depths	-12412
▁heroin	-12413
▁learns	-12414
▁lenses	-12415
▁powder	-12416
▁shares	-12417
▁shield	-12418
▁syring	-12419
▁thirds	-12420
▁thrust	-12421
▁towers	-12422
▁unimag	-12423
▁urgent	-12424
▁wolves	-12425
▁Alright	-12426
▁Denmark	-12427
▁Justice	-12428
▁Liberia	-12429
▁Looking	-12430
▁Philipp	-12431
▁Snowden	-12432
▁abandon	-12433
▁anxious	-12434
▁bananas	-12435
▁categor	-12436
▁copying	-12437
▁examine	-12438
▁grammar	-12439
▁impulse	-12440
▁justify	-12441
▁linking	-12442
▁motorcy	-12443
▁mundane	-12444
▁needing	-12445
▁needles	-12446
▁nucleus	-12447
▁primate	-12448
▁romance	-12449
▁seafood	-12450
▁shaping	-12451
▁squared	-12452
▁strains	-12453
▁vitamin	-12454
▁worship	-12455
nutrition	-12456
▁Buddhist	-12457
▁Recently	-12458
▁adaptive	-12459
▁avoiding	-12460
▁colorful	-12461
▁composed	-12462
▁duration	-12463
▁glaciers	-12464
▁insisted	-12465
▁planting	-12466
▁producer	-12467
▁rainfall	-12468
▁releases	-12469
▁sacrific	-12470
▁seawater	-12471
▁secondly	-12472
▁workshop	-12473
▁Galapagos	-12474
▁Roosevelt	-12475
▁Tasmanian	-12476
▁automatic	-12477
▁bombsight	-12478
▁certainty	-12479
▁confusion	-12480
▁cybercrim	-12481
▁exercises	-12482
▁gratitude	-12483
▁injection	-12484
▁institute	-12485
▁practiced	-12486
▁satisfied	-12487
▁submitted	-12488
▁Parliament	-12489
▁Republican	-12490
▁acceptable	-12491
▁anesthesia	-12492
▁antibiotic	-12493
▁coordinate	-12494
▁courageous	-12495
▁geographic	-12496
▁adolescence	-12497
▁battlefield	-12498
▁commodities	-12499
▁countryside	-12500
▁eradication	-12501
▁introducing	-12502
▁meaningless	-12503
▁measurement	-12504
▁rainforests	-12505
▁requirement	-12506
▁threatening	-12507
▁wonderfully	-12508
▁biologically	-12509
▁consistently	-12510
▁presidential	-12511
▁tremendously	-12512
▁unemployment	-12513
▁breakthroughs	-12514
▁developmental	-12515
▁organizational	-12516
To	-12517
ju	-12518
Pro	-12519
boy	-12520
nie	-12521
oft	-12522
rer	-12523
whe	-12524
zer	-12525
▁86	-12526
▁CC	-12527
▁Ig	-12528
▁Od	-12529
▁PR	-12530
▁WK	-12531
assy	-12532
core	-12533
eled	-12534
esty	-12535
etta	-12536
fits	-12537
owan	-12538
risk	-12539
soon	-12540
spec	-12541
them	-12542
uled	-12543
urbs	-12544
▁1.3	-12545
▁18-	-12546
▁185	-12547
▁187	-12548
▁Bah	-12549
▁Cat	-12550
▁Fil	-12551
▁Hon	-12552
▁Kib	-12553
▁Pet	-12554
▁PhD	-12555
▁Rub	-12556
▁Sel	-12557
▁bol	-12558
▁bos	-12559
▁fet	-12560
▁los	-12561
▁rum	-12562
▁soy	-12563
▁wig	-12564
akota	-12565
bands	-12566
crast	-12567
cture	-12568
ffiti	-12569
gebra	-12570
idity	-12571
igned	-12572
ilage	-12573
ochem	-12574
opoly	-12575
otics	-12576
tends	-12577
ugged	-12578
▁Cars	-12579
▁Edin	-12580
▁Harr	-12581
▁Jill	-12582
▁LGBT	-12583
▁Lady	-12584
▁Real	-12585
▁Slow	-12586
▁cafe	-12587
▁gait	-12588
▁inqu	-12589
▁jury	-12590
▁lane	-12591
▁menu	-12592
▁nick	-12593
▁owns	-12594
▁taxi	-12595
achers	-12596
bercul	-12597
forced	-12598
iately	-12599
ocaust	-12600
resses	-12601
▁1998,	-12602
▁2000.	-12603
▁2008.	-12604
▁7,000	-12605
▁Dalai	-12606
▁Diego	-12607
▁Keith	-12608
▁Skype	-12609
▁absor	-12610
▁bonus	-12611
▁compr	-12612
▁crust	-12613
▁drift	-12614
▁files	-12615
▁fleet	-12616
▁guilt	-12617
▁incub	-12618
▁parag	-12619
▁poses	-12620
▁ridge	-12621
▁savan	-12622
▁spike	-12623
▁steer	-12624
▁tenth	-12625
▁toast	-12626
▁traff	-12627
▁tread	-12628
▁unity	-12629
▁vapor	-12630
▁votes	-12631
atively	-12632
genesis	-12633
usively	-12634
version	-12635
▁Copern	-12636
▁Garden	-12637
▁Johnny	-12638
▁Julian	-12639
▁Wouldn	-12640
▁bloody	-12641
▁bucket	-12642
▁copper	-12643
▁crocod	-12644
▁debris	-12645
▁differ	-12646
▁elders	-12647
▁exclud	-12648
▁helmet	-12649
▁inputs	-12650
▁lasted	-12651
▁poorly	-12652
▁poured	-12653
▁prayer	-12654
▁psycho	-12655
▁retina	-12656
▁slogan	-12657
▁sought	-12658
▁sticky	-12659
▁taller	-12660
▁tastes	-12661
▁tender	-12662
▁tennis	-12663
▁toxins	-12664
▁update	-12665
▁violin	-12666
▁wished	-12667
▁writes	-12668
appiness	-12669
building	-12670
communic	-12671
elligent	-12672
specific	-12673
vascular	-12674
▁400,000	-12675
▁Company	-12676
▁Francis	-12677
▁Freedom	-12678
▁Machine	-12679
▁Namibia	-12680
▁calcium	-12681
▁cleaned	-12682
▁compact	-12683
▁compens	-12684
▁contest	-12685
▁crushed	-12686
▁crystal	-12687
▁deserts	-12688
▁dragged	-12689
▁exhaust	-12690
▁gaining	-12691
▁intimid	-12692
▁jewelry	-12693
▁knocked	-12694
▁masters	-12695
▁outdoor	-12696
▁puberty	-12697
▁reduces	-12698
▁regrets	-12699
▁rhythms	-12700
▁scanned	-12701
▁shipped	-12702
▁spheres	-12703
▁submers	-12704
▁wasting	-12705
▁whisper	-12706
condition	-12707
▁Brothers	-12708
▁Muhammad	-12709
▁Oklahoma	-12710
▁advertis	-12711
▁altruism	-12712
▁approval	-12713
▁assigned	-12714
▁daylight	-12715
▁delicate	-12716
▁flourish	-12717
▁impaired	-12718
▁inviting	-12719
▁midnight	-12720
▁mustache	-12721
▁observer	-12722
▁obtained	-12723
▁operated	-12724
▁presents	-12725
▁prevents	-12726
▁redefine	-12727
▁sketches	-12728
▁suburban	-12729
▁superher	-12730
▁superior	-12731
▁temporal	-12732
▁threaten	-12733
▁volcanic	-12734
▁weekends	-12735
berculosis	-12736
▁Amsterdam	-12737
▁Democrats	-12738
▁Edinburgh	-12739
▁afterward	-12740
▁assistant	-12741
▁attempted	-12742
▁cartilage	-12743
▁confirmed	-12744
▁corridors	-12745
▁epidemics	-12746
▁followers	-12747
▁imperfect	-12748
▁marvelous	-12749
▁prevented	-12750
▁sequenced	-12751
▁simulated	-12752
▁Commission	-12753
▁auditorium	-12754
▁comparable	-12755
▁compressed	-12756
▁connectome	-12757
▁conscience	-12758
▁dependence	-12759
▁distribute	-12760
▁expressing	-12761
▁fingertips	-12762
▁guaranteed	-12763
▁hypotheses	-12764
▁imperative	-12765
▁infinitely	-12766
▁meditation	-12767
▁Information	-12768
▁backgrounds	-12769
▁coincidence	-12770
▁complaining	-12771
▁corporation	-12772
▁operational	-12773
▁permanently	-12774
▁specialists	-12775
▁storyteller	-12776
▁developments	-12777
▁encyclopedia	-12778
▁malnutrition	-12779
▁refrigerator	-12780
▁stratosphere	-12781
▁comprehensive	-12782
▁manufacturers	-12783
▁photographers	-12784
▁undergraduate	-12785
▁environmentally	-12786
▁transformations	-12787
Hi	-12788
ARS	-12789
asa	-12790
bec	-12791
bet	-12792
dle	-12793
flu	-12794
hed	-12795
nas	-12796
pit	-12797
pot	-12798
sex	-12799
tic	-12800
▁34	-12801
▁6.	-12802
▁AD	-12803
▁PI	-12804
▁SA	-12805
▁Si	-12806
▁TB	-12807
amie	-12808
ause	-12809
cuse	-12810
imed	-12811
mble	-12812
olis	-12813
onal	-12814
plan	-12815
zler	-12816
▁14,	-12817
▁360	-12818
▁40-	-12819
▁Bud	-12820
▁Cla	-12821
▁Dam	-12822
▁Dev	-12823
▁Dig	-12824
▁Jen	-12825
▁Kle	-12826
▁Mem	-12827
▁Ooh	-12828
▁Ple	-12829
▁Syd	-12830
▁Tah	-12831
▁Too	-12832
▁fis	-12833
▁gym	-12834
▁mun	-12835
▁pee	-12836
Great	-12837
actly	-12838
adequ	-12839
alore	-12840
atics	-12841
ensed	-12842
etary	-12843
geria	-12844
iages	-12845
igate	-12846
ilson	-12847
lical	-12848
meter	-12849
phing	-12850
theon	-12851
▁Beck	-12852
▁Cart	-12853
▁Chan	-12854
▁Fall	-12855
▁Gall	-12856
▁Lots	-12857
▁Stat	-12858
▁Vill	-12859
▁Yale	-12860
▁argu	-12861
▁cort	-12862
▁crab	-12863
▁cues	-12864
▁deci	-12865
▁encl	-12866
▁gosh	-12867
▁hump	-12868
▁iPad	-12869
▁larv	-12870
▁mang	-12871
▁symb	-12872
▁unne	-12873
astery	-12874
atical	-12875
atrina	-12876
design	-12877
govern	-12878
igrade	-12879
lethal	-12880
ostics	-12881
▁1990,	-12882
▁Emily	-12883
▁Going	-12884
▁Intel	-12885
▁Lewis	-12886
▁Music	-12887
▁Often	-12888
▁Radio	-12889
▁Stand	-12890
▁blade	-12891
▁chalk	-12892
▁clich	-12893
▁crawl	-12894
▁dealt	-12895
▁excer	-12896
▁hairs	-12897
▁lasts	-12898
▁moons	-12899
▁noble	-12900
▁petro	-12901
▁pools	-12902
▁radar	-12903
▁recip	-12904
▁rolls	-12905
▁royal	-12906
▁shuff	-12907
▁spawn	-12908
▁stiff	-12909
▁towel	-12910
growing	-12911
ilizing	-12912
iratory	-12913
▁Desert	-12914
▁Mathem	-12915
▁Nicole	-12916
▁Person	-12917
▁Philip	-12918
▁Turing	-12919
▁crises	-12920
▁defeat	-12921
▁expose	-12922
▁hollow	-12923
▁intend	-12924
▁legend	-12925
▁listed	-12926
▁reluct	-12927
▁rented	-12928
▁rooted	-12929
▁stocks	-12930
▁titles	-12931
▁vastly	-12932
▁waking	-12933
friendly	-12934
ictional	-12935
lessness	-12936
▁250,000	-12937
▁Arduino	-12938
▁Finland	-12939
▁Luckily	-12940
▁Teszler	-12941
▁bankers	-12942
▁captain	-12943
▁complim	-12944
▁crowded	-12945
▁ethanol	-12946
▁funeral	-12947
▁hallway	-12948
▁heights	-12949
▁holiday	-12950
▁humming	-12951
▁inadequ	-12952
▁leopard	-12953
▁lesbian	-12954
▁mammoth	-12955
▁mentors	-12956
▁octopus	-12957
▁partial	-12958
▁posters	-12959
▁posture	-12960
▁prevail	-12961
▁replied	-12962
▁suburbs	-12963
▁summary	-12964
▁weighed	-12965
intuitive	-12966
resistant	-12967
▁Cambodia	-12968
▁Hundreds	-12969
▁Medicine	-12970
▁Williams	-12971
▁abnormal	-12972
▁balanced	-12973
▁calendar	-12974
▁cerebral	-12975
▁certific	-12976
▁contacts	-12977
▁emergent	-12978
▁evaluate	-12979
▁glorious	-12980
▁happiest	-12981
▁miracles	-12982
▁orbiting	-12983
▁overlook	-12984
▁quantity	-12985
▁resolved	-12986
▁stumbled	-12987
▁synapses	-12988
▁unnecess	-12989
▁unstable	-12990
performing	-12991
resolution	-12992
▁Bangalore	-12993
▁campaigns	-12994
▁decentral	-12995
▁declining	-12996
▁delighted	-12997
▁educators	-12998
▁eradicate	-12999
▁exhausted	-13000
▁imaginary	-13001
▁improvise	-13002
▁marriages	-13003
▁paralysis	-13004
▁parasites	-13005
▁synthesis	-13006
▁visionary	-13007
▁Democratic	-13008
▁Ultimately	-13009
▁attraction	-13010
▁beginnings	-13011
▁censorship	-13012
▁cigarettes	-13013
▁influences	-13014
▁irrelevant	-13015
▁loneliness	-13016
▁multiverse	-13017
▁statements	-13018
▁vegetation	-13019
▁aspirations	-13020
▁competitors	-13021
▁instability	-13022
▁maintaining	-13023
▁preferences	-13024
▁conditioning	-13025
▁restrictions	-13026
▁similarities	-13027
▁surroundings	-13028
▁tuberculosis	-13029
▁mathematically	-13030
hh	-13031
awa	-13032
bly	-13033
cup	-13034
jan	-13035
kel	-13036
obi	-13037
omp	-13038
ugs	-13039
uns	-13040
▁CN	-13041
▁SB	-13042
▁du	-13043
arks	-13044
arms	-13045
aved	-13046
ctar	-13047
etts	-13048
greg	-13049
hall	-13050
iary	-13051
nies	-13052
ousy	-13053
rine	-13054
ruce	-13055
rust	-13056
stan	-13057
tebr	-13058
text	-13059
uels	-13060
verb	-13061
weed	-13062
yota	-13063
▁125	-13064
▁13.	-13065
▁Ach	-13066
▁Est	-13067
▁Fal	-13068
▁Ill	-13069
▁Isa	-13070
▁Kim	-13071
▁LHC	-13072
▁Max	-13073
▁Oak	-13074
▁Pra	-13075
▁bot	-13076
▁eco	-13077
▁jur	-13078
▁sap	-13079
▁wax	-13080
abama	-13081
achus	-13082
aires	-13083
ashes	-13084
backs	-13085
frame	-13086
gered	-13087
ieces	-13088
imony	-13089
ocamp	-13090
osion	-13091
otech	-13092
owing	-13093
shine	-13094
shirt	-13095
stick	-13096
style	-13097
third	-13098
ymmet	-13099
▁100,	-13100
▁2006	-13101
▁Alph	-13102
▁Cher	-13103
▁Down	-13104
▁Pass	-13105
▁Side	-13106
▁UCLA	-13107
▁bulk	-13108
▁heel	-13109
▁keen	-13110
▁moms	-13111
▁rode	-13112
▁stir	-13113
▁swap	-13114
▁wets	-13115
▁wipe	-13116
abytes	-13117
acious	-13118
asting	-13119
carbon	-13120
earing	-13121
enders	-13122
etical	-13123
ignant	-13124
lights	-13125
uation	-13126
worthy	-13127
▁2050,	-13128
▁Doesn	-13129
▁Jerry	-13130
▁Libya	-13131
▁Matth	-13132
▁Rover	-13133
▁Short	-13134
▁Techn	-13135
▁arose	-13136
▁arrog	-13137
▁bands	-13138
▁beast	-13139
▁cried	-13140
▁dwell	-13141
▁gangs	-13142
▁grief	-13143
▁guest	-13144
▁lined	-13145
▁livel	-13146
▁oblig	-13147
▁parap	-13148
▁rooft	-13149
▁sanct	-13150
▁secre	-13151
▁skies	-13152
▁spine	-13153
▁verge	-13154
▁wells	-13155
agement	-13156
appropr	-13157
centric	-13158
▁Bosnia	-13159
▁Forest	-13160
▁Sydney	-13161
▁Wonder	-13162
▁agrees	-13163
▁archae	-13164
▁avatar	-13165
▁balcon	-13166
▁banana	-13167
▁coding	-13168
▁condom	-13169
▁cookie	-13170
▁costly	-13171
▁denied	-13172
▁divine	-13173
▁feared	-13174
▁hotter	-13175
▁larvae	-13176
▁levers	-13177
▁louder	-13178
▁miscon	-13179
▁mosque	-13180
▁nectar	-13181
▁nuclei	-13182
▁obsess	-13183
▁orgasm	-13184
▁pixels	-13185
▁potato	-13186
▁singer	-13187
▁sulfur	-13188
▁tablet	-13189
▁thesis	-13190
▁throat	-13191
▁treaty	-13192
▁united	-13193
▁verbal	-13194
assembly	-13195
ceptible	-13196
▁Alabama	-13197
▁Babbage	-13198
▁Babylon	-13199
▁Natasha	-13200
▁algebra	-13201
▁basking	-13202
▁beaches	-13203
▁beloved	-13204
▁biochem	-13205
▁defines	-13206
▁excuses	-13207
▁exhilar	-13208
▁forcing	-13209
▁founder	-13210
▁laundry	-13211
▁legitim	-13212
▁literal	-13213
▁mastery	-13214
▁millise	-13215
▁mineral	-13216
▁rockets	-13217
▁shuttle	-13218
▁singers	-13219
▁slowing	-13220
▁unequal	-13221
▁withdra	-13222
achusetts	-13223
▁Building	-13224
▁Ministry	-13225
▁TEDsters	-13226
▁abortion	-13227
▁annoying	-13228
▁coherent	-13229
▁entitled	-13230
▁extremes	-13231
▁graffiti	-13232
▁matching	-13233
▁mobilize	-13234
▁occupied	-13235
▁photosyn	-13236
▁receiver	-13237
▁sessions	-13238
▁shouting	-13239
▁sweeping	-13240
▁symphony	-13241
▁thriving	-13242
▁veterans	-13243
▁Certainly	-13244
▁bandwidth	-13245
▁continuum	-13246
▁developer	-13247
▁distorted	-13248
▁employers	-13249
▁geometric	-13250
▁instincts	-13251
▁limestone	-13252
▁mythology	-13253
▁pathogens	-13254
▁resonance	-13255
▁schooling	-13256
▁sovereign	-13257
▁waterfall	-13258
▁advantages	-13259
▁astronauts	-13260
▁capitalist	-13261
▁conception	-13262
▁fulfilling	-13263
▁incomplete	-13264
▁prefrontal	-13265
▁registered	-13266
▁standpoint	-13267
▁temptation	-13268
▁unemployed	-13269
▁abstraction	-13270
▁catastrophe	-13271
▁dragonflies	-13272
▁integrating	-13273
▁methodology	-13274
▁preventable	-13275
▁publication	-13276
▁exploitation	-13277
▁incidentally	-13278
▁determination	-13279
▁presentations	-13280
▁traditionally	-13281
▁underestimate	-13282
Ar	-13283
Cl	-13284
Pe	-13285
Re	-13286
alg	-13287
cam	-13288
cav	-13289
dog	-13290
ika	-13291
non	-13292
ols	-13293
oub	-13294
rie	-13295
sen	-13296
▁47	-13297
▁53	-13298
▁BC	-13299
▁EC	-13300
▁Ju	-13301
▁MG	-13302
▁MW	-13303
▁SO	-13304
▁Sk	-13305
▁Sn	-13306
▁YR	-13307
Your	-13308
alin	-13309
arer	-13310
asso	-13311
code	-13312
egas	-13313
icut	-13314
inas	-13315
itic	-13316
itis	-13317
know	-13318
▁14-	-13319
▁16-	-13320
▁Bat	-13321
▁Cru	-13322
▁End	-13323
▁Ess	-13324
▁Got	-13325
▁IMF	-13326
▁Rus	-13327
▁dug	-13328
▁gru	-13329
▁quo	-13330
▁reh	-13331
▁woo	-13332
These	-13333
acent	-13334
erend	-13335
forms	-13336
great	-13337
ihood	-13338
imore	-13339
kings	-13340
leans	-13341
metic	-13342
owned	-13343
▁100-	-13344
▁2007	-13345
▁Dian	-13346
▁Doaa	-13347
▁Germ	-13348
▁Marg	-13349
▁Nich	-13350
▁Patr	-13351
▁Pink	-13352
▁aged	-13353
▁axes	-13354
▁buck	-13355
▁exit	-13356
▁gran	-13357
▁grim	-13358
▁guid	-13359
▁hind	-13360
▁hood	-13361
▁kite	-13362
▁lazy	-13363
▁lith	-13364
▁medi	-13365
▁moth	-13366
▁nail	-13367
▁plum	-13368
▁plun	-13369
▁pond	-13370
▁prag	-13371
▁rear	-13372
▁rept	-13373
▁scra	-13374
▁sque	-13375
▁tire	-13376
alling	-13377
atemal	-13378
atized	-13379
funded	-13380
houses	-13381
igible	-13382
izable	-13383
ospher	-13384
ourced	-13385
puters	-13386
putnik	-13387
reatic	-13388
strong	-13389
▁Allen	-13390
▁Costa	-13391
▁Cross	-13392
▁Field	-13393
▁Index	-13394
▁Labor	-13395
▁Maria	-13396
▁Roger	-13397
▁Sever	-13398
▁Solar	-13399
▁Tower	-13400
▁arous	-13401
▁blend	-13402
▁boson	-13403
▁bumps	-13404
▁doses	-13405
▁eager	-13406
▁elbow	-13407
▁loops	-13408
▁ozone	-13409
▁peaks	-13410
▁ruins	-13411
▁sands	-13412
▁suppl	-13413
▁swamp	-13414
▁templ	-13415
▁urine	-13416
▁wreck	-13417
balance	-13418
ivation	-13419
keeping	-13420
ometers	-13421
writing	-13422
▁Engine	-13423
▁Guinea	-13424
▁Venice	-13425
▁Wilson	-13426
▁bionic	-13427
▁coined	-13428
▁defect	-13429
▁digits	-13430
▁drinks	-13431
▁erotic	-13432
▁forbid	-13433
▁impose	-13434
▁incons	-13435
▁indoor	-13436
▁intest	-13437
▁loaded	-13438
▁makeup	-13439
▁melody	-13440
▁misery	-13441
▁quotes	-13442
▁remitt	-13443
▁solemn	-13444
▁statue	-13445
▁strand	-13446
▁strang	-13447
▁theirs	-13448
▁voyage	-13449
▁Believe	-13450
▁Exactly	-13451
▁Katrina	-13452
▁Mediter	-13453
▁Orleans	-13454
▁Somehow	-13455
▁Station	-13456
▁Tunisia	-13457
▁abusive	-13458
▁accused	-13459
▁broadly	-13460
▁cleaner	-13461
▁compass	-13462
▁curator	-13463
▁diamond	-13464
▁editing	-13465
▁enzymes	-13466
▁hunters	-13467
▁manages	-13468
▁monsoon	-13469
▁novelty	-13470
▁optimal	-13471
▁refined	-13472
▁reperto	-13473
▁satisfy	-13474
▁seasons	-13475
▁tropics	-13476
▁watches	-13477
▁Computer	-13478
▁Guatemal	-13479
▁Russians	-13480
▁Scotland	-13481
▁Scottish	-13482
▁addicted	-13483
▁adjacent	-13484
▁arriving	-13485
▁bicycles	-13486
▁constitu	-13487
▁contexts	-13488
▁crashing	-13489
▁crawling	-13490
▁employee	-13491
▁fighters	-13492
▁grounded	-13493
▁guidance	-13494
▁highways	-13495
▁implicit	-13496
▁meantime	-13497
▁migrants	-13498
▁minimize	-13499
▁policing	-13500
▁portable	-13501
▁pristine	-13502
▁protects	-13503
▁reacting	-13504
▁reactors	-13505
▁reporter	-13506
▁rotating	-13507
▁searches	-13508
▁smartest	-13509
▁underway	-13510
▁Companies	-13511
▁Norwegian	-13512
▁Palestine	-13513
▁Venezuela	-13514
▁automated	-13515
▁conductor	-13516
▁digitally	-13517
▁exquisite	-13518
▁fictional	-13519
▁firsthand	-13520
▁hippocamp	-13521
▁histories	-13522
▁northeast	-13523
▁nurturing	-13524
▁partially	-13525
▁prejudice	-13526
▁relevance	-13527
▁selective	-13528
▁streaming	-13529
▁stressful	-13530
▁triangles	-13531
▁varieties	-13532
▁Especially	-13533
▁Throughout	-13534
▁analytical	-13535
▁contagious	-13536
▁culturally	-13537
▁disruption	-13538
▁encryption	-13539
▁globalized	-13540
▁indication	-13541
▁livelihood	-13542
▁perceptual	-13543
▁pesticides	-13544
▁reflecting	-13545
▁restricted	-13546
▁suspicious	-13547
▁vaccinated	-13548
▁worthwhile	-13549
▁Connecticut	-13550
▁accompanied	-13551
▁anticipated	-13552
▁constrained	-13553
▁continually	-13554
▁departments	-13555
▁exceptional	-13556
▁friendships	-13557
▁inefficient	-13558
▁negotiating	-13559
▁negotiation	-13560
▁progressive	-13561
▁prototyping	-13562
▁scholarship	-13563
▁combinations	-13564
▁demographics	-13565
▁requirements	-13566
▁Massachusetts	-13567
▁Mediterranean	-13568
▁appropriately	-13569
▁differentiate	-13570
▁incarceration	-13571
▁nanotechnology	-13572
Am	-13573
DF	-13574
On	-13575
yg	-13576
aba	-13577
abs	-13578
aic	-13579
awi	-13580
enz	-13581
hel	-13582
iza	-13583
ods	-13584
raz	-13585
uci	-13586
▁4:	-13587
▁54	-13588
▁74	-13589
▁82	-13590
▁FO	-13591
▁IT	-13592
acon	-13593
addy	-13594
airy	-13595
arin	-13596
bons	-13597
eard	-13598
kers	-13599
kill	-13600
ocke	-13601
plex	-13602
ques	-13603
riad	-13604
shah	-13605
type	-13606
uate	-13607
uest	-13608
with	-13609
▁99.	-13610
▁Abu	-13611
▁Bad	-13612
▁Cup	-13613
▁EDI	-13614
▁Fox	-13615
▁Hur	-13616
▁Len	-13617
▁Pix	-13618
▁Sex	-13619
▁cue	-13620
▁dum	-13621
▁heh	-13622
▁piv	-13623
,000.	-13624
cular	-13625
herom	-13626
wheel	-13627
wired	-13628
▁1800	-13629
▁200-	-13630
▁Balt	-13631
▁Best	-13632
▁Cass	-13633
▁Hard	-13634
▁Much	-13635
▁Orch	-13636
▁Poll	-13637
▁Rena	-13638
▁SARS	-13639
▁Test	-13640
▁Virt	-13641
▁Wild	-13642
▁amph	-13643
▁auto	-13644
▁boil	-13645
▁dash	-13646
▁echo	-13647
▁epic	-13648
▁hats	-13649
▁lamb	-13650
▁lobe	-13651
▁lure	-13652
▁mega	-13653
▁pity	-13654
▁quot	-13655
▁rage	-13656
▁rhet	-13657
▁skys	-13658
▁unin	-13659
▁warn	-13660
▁weed	-13661
ateral	-13662
azeera	-13663
belief	-13664
cripts	-13665
esteem	-13666
health	-13667
oulder	-13668
rative	-13669
rorism	-13670
uclear	-13671
urches	-13672
▁2002,	-13673
▁Alpha	-13674
▁Beeth	-13675
▁Bruce	-13676
▁Build	-13677
▁DARPA	-13678
▁Irish	-13679
▁Kelly	-13680
▁Kyoto	-13681
▁Ushah	-13682
▁amput	-13683
▁appet	-13684
▁blows	-13685
▁cheer	-13686
▁chunk	-13687
▁cubic	-13688
▁epile	-13689
▁flown	-13690
▁geeks	-13691
▁hello	-13692
▁icons	-13693
▁leaks	-13694
▁nickn	-13695
▁orang	-13696
▁posts	-13697
▁scare	-13698
▁teddy	-13699
▁volat	-13700
assador	-13701
fashion	-13702
massive	-13703
ocative	-13704
product	-13705
tension	-13706
▁Agency	-13707
▁Barack	-13708
▁Cooper	-13709
▁Eighty	-13710
▁Incred	-13711
▁Lester	-13712
▁Listen	-13713
▁Marcus	-13714
▁Ninety	-13715
▁antide	-13716
▁backup	-13717
▁bitter	-13718
▁cardio	-13719
▁county	-13720
▁dining	-13721
▁elites	-13722
▁enzyme	-13723
▁floods	-13724
▁gallon	-13725
▁hammer	-13726
▁heated	-13727
▁ideals	-13728
▁labels	-13729
▁openly	-13730
▁petals	-13731
▁poetic	-13732
▁polite	-13733
▁priest	-13734
▁racism	-13735
▁rubble	-13736
▁serial	-13737
▁thumbs	-13738
▁timber	-13739
▁valued	-13740
cellular	-13741
conflict	-13742
ospheric	-13743
positive	-13744
radition	-13745
▁Austria	-13746
▁Hawking	-13747
▁Millenn	-13748
▁Network	-13749
▁Perfect	-13750
▁Siberia	-13751
▁aquatic	-13752
▁biotech	-13753
▁catalog	-13754
▁charter	-13755
▁crosses	-13756
▁customs	-13757
▁dangers	-13758
▁epiphan	-13759
▁escaped	-13760
▁excerpt	-13761
▁faculty	-13762
▁favelas	-13763
▁inspect	-13764
▁margins	-13765
▁modules	-13766
▁monthly	-13767
▁nurture	-13768
▁painter	-13769
▁relaxed	-13770
▁retired	-13771
▁signing	-13772
▁thirdly	-13773
▁unified	-13774
▁unthink	-13775
▁vicious	-13776
▁volcano	-13777
Americans	-13778
▁Franklin	-13779
▁ancestry	-13780
▁aviation	-13781
▁biofuels	-13782
▁bleeding	-13783
▁blogging	-13784
▁climbers	-13785
▁flooding	-13786
▁founding	-13787
▁husbands	-13788
▁interrog	-13789
▁invasive	-13790
▁lifelong	-13791
▁murdered	-13792
▁potatoes	-13793
▁quarters	-13794
▁receives	-13795
▁requests	-13796
▁sensible	-13797
▁shortcut	-13798
▁tortured	-13799
▁visceral	-13800
▁Baltimore	-13801
▁Beethoven	-13802
▁Hopefully	-13803
▁attending	-13804
▁cathedral	-13805
▁cellphone	-13806
▁charities	-13807
▁combining	-13808
▁contracts	-13809
▁criticism	-13810
▁directors	-13811
▁explorers	-13812
▁honeybees	-13813
▁intrinsic	-13814
▁meanwhile	-13815
▁mentality	-13816
▁mysteries	-13817
▁packaging	-13818
▁predatory	-13819
▁preferred	-13820
▁reconnect	-13821
▁remembers	-13822
▁shrinking	-13823
▁supercond	-13824
▁Government	-13825
▁accidental	-13826
▁criticized	-13827
▁depressing	-13828
▁executives	-13829
▁expressive	-13830
▁foreground	-13831
▁harvesting	-13832
▁intangible	-13833
▁limitation	-13834
▁pancreatic	-13835
▁pollutants	-13836
▁prioritize	-13837
▁programmer	-13838
▁repertoire	-13839
▁superpower	-13840
▁translates	-13841
▁Renaissance	-13842
▁antidepress	-13843
▁appreciated	-13844
▁arrangement	-13845
▁fundraising	-13846
▁ideological	-13847
▁neighboring	-13848
▁spontaneous	-13849
▁acceleration	-13850
▁hypothetical	-13851
▁interconnect	-13852
▁manufacturer	-13853
▁neurogenesis	-13854
▁preservation	-13855
▁biotechnology	-13856
▁investigating	-13857
▁unpredictable	-13858
▁experimentation	-13859
AC	-13860
Je	-13861
Me	-13862
SE	-13863
400	-13864
Cor	-13865
PTC	-13866
acc	-13867
aho	-13868
arn	-13869
cko	-13870
ois	-13871
pol	-13872
rin	-13873
rip	-13874
ulu	-13875
▁5.	-13876
▁64	-13877
▁7,	-13878
▁Aw	-13879
▁BR	-13880
▁Fa	-13881
▁Uk	-13882
▁Ur	-13883
▁zo	-13884
abad	-13885
fers	-13886
fill	-13887
ikes	-13888
imic	-13889
ingo	-13890
isha	-13891
nals	-13892
obia	-13893
ocks	-13894
onto	-13895
opsy	-13896
pres	-13897
rett	-13898
rics	-13899
stop	-13900
ymph	-13901
▁11.	-13902
▁13,	-13903
▁17,	-13904
▁25,	-13905
▁Ath	-13906
▁BMW	-13907
▁Fem	-13908
▁Gam	-13909
▁Kam	-13910
▁Map	-13911
▁Nev	-13912
▁Non	-13913
▁Ott	-13914
▁Pic	-13915
▁Rec	-13916
▁Seb	-13917
▁Son	-13918
▁Tay	-13919
▁Vis	-13920
▁agn	-13921
▁bru	-13922
▁fer	-13923
▁geo	-13924
▁huh	-13925
▁lem	-13926
▁pup	-13927
▁ray	-13928
green	-13929
gress	-13930
ibles	-13931
olith	-13932
otive	-13933
ouver	-13934
pical	-13935
ranny	-13936
ustin	-13937
▁Dean	-13938
▁Deep	-13939
▁Emma	-13940
▁Full	-13941
▁Gord	-13942
▁Kick	-13943
▁MoMA	-13944
▁Read	-13945
▁Shir	-13946
▁Uber	-13947
▁fade	-13948
▁feas	-13949
▁lied	-13950
▁ramp	-13951
▁rows	-13952
▁tect	-13953
▁tink	-13954
▁worn	-13955
Listen	-13956
anting	-13957
ellers	-13958
energy	-13959
imated	-13960
ivated	-13961
linear	-13962
▁Along	-13963
▁Forty	-13964
▁Iraqi	-13965
▁Night	-13966
▁Pixar	-13967
▁Susan	-13968
▁Vegas	-13969
▁annoy	-13970
▁attor	-13971
▁booth	-13972
▁essay	-13973
▁exams	-13974
▁fairy	-13975
▁handy	-13976
▁merch	-13977
▁milit	-13978
▁paran	-13979
▁poets	-13980
▁poles	-13981
▁pries	-13982
▁relie	-13983
▁ruled	-13984
▁scuba	-13985
▁souls	-13986
▁stole	-13987
▁tails	-13988
amation	-13989
quarium	-13990
ulously	-13991
▁Better	-13992
▁Corpor	-13993
▁Easter	-13994
▁Evergl	-13995
▁Inside	-13996
▁League	-13997
▁Modern	-13998
▁Poland	-13999
▁Samuel	-14000
▁Simple	-14001
▁aerial	-14002
▁arises	-14003
▁behead	-14004
▁brakes	-14005
▁camels	-14006
▁closet	-14007
▁compat	-14008
▁condem	-14009
▁hotels	-14010
▁joyful	-14011
▁lastly	-14012
▁noises	-14013
▁parked	-14014
▁pherom	-14015
▁poorer	-14016
▁proves	-14017
▁radius	-14018
▁rushed	-14019
▁suburb	-14020
▁triple	-14021
▁tweets	-14022
▁weekly	-14023
▁wiring	-14024
▁wounds	-14025
aterials	-14026
attering	-14027
iologist	-14028
novation	-14029
osterone	-14030
▁500,000	-14031
▁Already	-14032
▁Germans	-14033
▁Jazeera	-14034
▁Several	-14035
▁Toronto	-14036
▁addicts	-14037
▁barrels	-14038
▁battles	-14039
▁bluefin	-14040
▁cabinet	-14041
▁erectus	-14042
▁erosion	-14043
▁evident	-14044
▁filming	-14045
▁focuses	-14046
▁indoors	-14047
▁invaded	-14048
▁kidneys	-14049
▁lasting	-14050
▁miracul	-14051
▁municip	-14052
▁payment	-14053
▁placebo	-14054
▁proving	-14055
▁rightly	-14056
▁spirits	-14057
▁surplus	-14058
▁tipping	-14059
▁unaware	-14060
▁upwards	-14061
▁worries	-14062
ependence	-14063
organized	-14064
roportion	-14065
▁Lawrence	-14066
▁Learning	-14067
▁Margaret	-14068
▁Students	-14069
▁Ushahidi	-14070
▁arteries	-14071
▁borrowed	-14072
▁catalyst	-14073
▁composer	-14074
▁conceive	-14075
▁creators	-14076
▁currents	-14077
▁deterior	-14078
▁develops	-14079
▁distress	-14080
▁donation	-14081
▁dragging	-14082
▁drowning	-14083
▁employed	-14084
▁employer	-14085
▁estrogen	-14086
▁improves	-14087
▁insecure	-14088
▁journals	-14089
▁maximize	-14090
▁meanings	-14091
▁medieval	-14092
▁paradise	-14093
▁realizes	-14094
▁reminder	-14095
▁rewarded	-14096
▁scalable	-14097
▁schedule	-14098
▁settings	-14099
▁severely	-14100
▁solitary	-14101
▁steering	-14102
▁strictly	-14103
▁superint	-14104
▁switches	-14105
▁terminal	-14106
▁Guatemala	-14107
▁Interview	-14108
▁Mountains	-14109
▁Otherwise	-14110
▁academics	-14111
▁adulthood	-14112
▁ambiguity	-14113
▁appearing	-14114
▁attribute	-14115
▁cognition	-14116
▁confusing	-14117
▁discourse	-14118
▁educating	-14119
▁hamburger	-14120
▁intricate	-14121
▁intrigued	-14122
▁inventing	-14123
▁inventors	-14124
▁kilograms	-14125
▁metaphors	-14126
▁ministers	-14127
▁paragraph	-14128
▁personnel	-14129
▁pneumonia	-14130
▁populated	-14131
▁promotion	-14132
▁providers	-14133
▁reinforce	-14134
▁reporters	-14135
▁slaughter	-14136
▁stabilize	-14137
▁struggles	-14138
▁surprises	-14139
▁trillions	-14140
▁vibrating	-14141
▁viewpoint	-14142
▁Millennium	-14143
▁animations	-14144
▁appliances	-14145
▁articulate	-14146
▁centimeter	-14147
▁excellence	-14148
▁homosexual	-14149
▁improbable	-14150
▁outrageous	-14151
▁perfection	-14152
▁questioned	-14153
▁responsive	-14154
▁satisfying	-14155
▁simplistic	-14156
▁unfinished	-14157
▁Governments	-14158
▁adolescents	-14159
▁distinctive	-14160
▁exclusively	-14161
▁hippocampus	-14162
▁lightweight	-14163
▁respiratory	-14164
▁accidentally	-14165
▁acknowledged	-14166
▁astronomical	-14167
▁difficulties	-14168
▁interviewing	-14169
▁metropolitan	-14170
▁negotiations	-14171
▁neurological	-14172
▁corresponding	-14173
▁manifestation	-14174
▁cardiovascular	-14175
▁cybercriminals	-14176
▁industrialized	-14177
▁reconstruction	-14178
▁internationally	-14179
▁representatives	-14180
-'	-14181
99	-14182
HO	-14183
IP	-14184
dy	-14185
ni	-14186
vo	-14187
ISD	-14188
May	-14189
any	-14190
but	-14191
eid	-14192
fur	-14193
ogy	-14194
▁1:	-14195
▁68	-14196
▁96	-14197
▁AR	-14198
▁CS	-14199
▁FG	-14200
▁NP	-14201
▁Ow	-14202
▁RO	-14203
▁TM	-14204
▁TR	-14205
▁Ut	-14206
▁hi	-14207
▁ze	-14208
Mart	-14209
cile	-14210
ells	-14211
enza	-14212
gher	-14213
good	-14214
hill	-14215
hole	-14216
home	-14217
ieth	-14218
ilst	-14219
ippi	-14220
itra	-14221
lene	-14222
oura	-14223
peer	-14224
tent	-14225
tics	-14226
vens	-14227
ylan	-14228
ylum	-14229
▁110	-14230
▁188	-14231
▁2.5	-14232
▁Bul	-14233
▁Cou	-14234
▁Dor	-14235
▁Haz	-14236
▁Hem	-14237
▁Hit	-14238
▁Hop	-14239
▁NBA	-14240
▁Pap	-14241
▁Sol	-14242
▁Sty	-14243
▁Use	-14244
▁cem	-14245
▁dub	-14246
▁haz	-14247
▁lag	-14248
▁nud	-14249
▁ove	-14250
▁rab	-14251
▁ren	-14252
Hello	-14253
agasc	-14254
ahren	-14255
azine	-14256
built	-14257
otent	-14258
ravel	-14259
regon	-14260
utors	-14261
white	-14262
▁Beat	-14263
▁Capt	-14264
▁Case	-14265
▁Club	-14266
▁Dead	-14267
▁Ella	-14268
▁Goli	-14269
▁Help	-14270
▁Kind	-14271
▁Live	-14272
▁Need	-14273
▁Nine	-14274
▁Ohio	-14275
▁Pear	-14276
▁Peps	-14277
▁Pier	-14278
▁RISD	-14279
▁Rose	-14280
▁Rule	-14281
▁Tenn	-14282
▁Text	-14283
▁Vanc	-14284
▁Whoa	-14285
▁anch	-14286
▁bron	-14287
▁cane	-14288
▁cass	-14289
▁cher	-14290
▁clap	-14291
▁coma	-14292
▁curs	-14293
▁deer	-14294
▁deny	-14295
▁doct	-14296
▁dodo	-14297
▁envy	-14298
▁eyeb	-14299
▁flop	-14300
▁goss	-14301
▁grip	-14302
▁inex	-14303
▁peel	-14304
▁pets	-14305
▁quiz	-14306
▁reli	-14307
▁riot	-14308
▁seiz	-14309
▁sync	-14310
▁tilt	-14311
▁todd	-14312
▁unve	-14313
▁writ	-14314
asking	-14315
change	-14316
charge	-14317
consum	-14318
erness	-14319
giving	-14320
imicry	-14321
irming	-14322
itutes	-14323
people	-14324
ulates	-14325
ulsive	-14326
verbal	-14327
weeney	-14328
▁Among	-14329
▁Dylan	-14330
▁Freud	-14331
▁Given	-14332
▁Idaho	-14333
▁Julia	-14334
▁Psych	-14335
▁Sadly	-14336
▁Truth	-14337
▁Vinci	-14338
▁amino	-14339
▁armor	-14340
▁beats	-14341
▁centr	-14342
▁chord	-14343
▁deleg	-14344
▁dried	-14345
▁fatty	-14346
▁flick	-14347
▁grabs	-14348
▁hears	-14349
▁holog	-14350
▁incon	-14351
▁indef	-14352
▁innoc	-14353
▁jeans	-14354
▁juris	-14355
▁kings	-14356
▁lover	-14357
▁lymph	-14358
▁neutr	-14359
▁niece	-14360
▁overd	-14361
▁overt	-14362
▁polls	-14363
▁reads	-14364
▁reply	-14365
▁reuse	-14366
▁setup	-14367
▁slipp	-14368
▁stagn	-14369
▁tales	-14370
▁teens	-14371
▁trunk	-14372
agascar	-14373
artheid	-14374
chester	-14375
▁Avenue	-14376
▁Behind	-14377
▁Darfur	-14378
▁Kenyan	-14379
▁Marine	-14380
▁Oregon	-14381
▁Prince	-14382
▁Taylor	-14383
▁abused	-14384
▁backed	-14385
▁bookst	-14386
▁bricks	-14387
▁burial	-14388
▁census	-14389
▁clicks	-14390
▁collar	-14391
▁cooked	-14392
▁crafts	-14393
▁creepy	-14394
▁dissem	-14395
▁hiring	-14396
▁humane	-14397
▁joints	-14398
▁novels	-14399
▁pirate	-14400
▁popped	-14401
▁puppet	-14402
▁ripped	-14403
▁shells	-14404
▁stated	-14405
▁throws	-14406
▁ultras	-14407
▁wander	-14408
▁yields	-14409
educated	-14410
ithmetic	-14411
violence	-14412
▁Between	-14413
▁Command	-14414
▁Goliath	-14415
▁Justine	-14416
▁Program	-14417
▁Wolfram	-14418
▁athlete	-14419
▁bombing	-14420
▁claimed	-14421
▁convent	-14422
▁devised	-14423
▁disagre	-14424
▁drowned	-14425
▁fishery	-14426
▁flipped	-14427
▁fractal	-14428
▁heavens	-14429
▁magnets	-14430
▁mandate	-14431
▁mustard	-14432
▁overlap	-14433
▁pension	-14434
▁ranging	-14435
▁recycle	-14436
▁rehears	-14437
▁ringing	-14438
▁sapiens	-14439
▁strokes	-14440
▁textile	-14441
▁tourist	-14442
▁veterin	-14443
elligence	-14444
fashioned	-14445
generated	-14446
ographing	-14447
▁Colombia	-14448
▁Colorado	-14449
▁Language	-14450
▁Moreover	-14451
▁absorbed	-14452
▁adequate	-14453
▁airports	-14454
▁amateurs	-14455
▁backward	-14456
▁belonged	-14457
▁blessing	-14458
▁congress	-14459
▁crystall	-14460
▁depended	-14461
▁drilling	-14462
▁elevated	-14463
▁emission	-14464
▁fairness	-14465
▁festival	-14466
▁frequent	-14467
▁governor	-14468
▁guessing	-14469
▁ignorant	-14470
▁juggling	-14471
▁literary	-14472
▁migraine	-14473
▁periodic	-14474
▁recreate	-14475
▁rendered	-14476
▁resemble	-14477
▁respects	-14478
▁secretly	-14479
▁shortage	-14480
▁stimulus	-14481
▁sympathy	-14482
▁timeline	-14483
industrial	-14484
organizing	-14485
▁Darwinian	-14486
▁Democracy	-14487
▁Europeans	-14488
▁Himalayas	-14489
▁Vancouver	-14490
▁checklist	-14491
▁committee	-14492
▁cultivate	-14493
▁databases	-14494
▁donations	-14495
▁enjoyable	-14496
▁inconsist	-14497
▁intermedi	-14498
▁offensive	-14499
▁preschool	-14500
▁recruited	-14501
▁rectangle	-14502
▁repeating	-14503
▁revealing	-14504
▁swallowed	-14505
▁triggered	-14506
▁workshops	-14507
▁Compassion	-14508
▁Depression	-14509
▁Madagascar	-14510
▁antibodies	-14511
▁aspiration	-14512
▁attachment	-14513
▁capacities	-14514
▁caregivers	-14515
▁confession	-14516
▁conspiracy	-14517
▁devastated	-14518
▁eliminated	-14519
▁eradicated	-14520
▁humanities	-14521
▁inadequate	-14522
▁indicators	-14523
▁liberation	-14524
▁obligation	-14525
▁protesters	-14526
▁rebuilding	-14527
▁settlement	-14528
▁synthesize	-14529
▁undercover	-14530
▁Interviewer	-14531
▁automobiles	-14532
▁centimeters	-14533
▁convenience	-14534
▁counterpart	-14535
▁implication	-14536
▁incremental	-14537
▁reinventing	-14538
▁smartphones	-14539
▁suggestions	-14540
▁achievements	-14541
▁constructive	-14542
▁contaminated	-14543
▁psychiatrist	-14544
▁resurrection	-14545
▁testosterone	-14546
▁conservatives	-14547
▁decentralized	-14548
▁disproportion	-14549
▁intrinsically	-14550
▁unsustainable	-14551
▁neuroscientists	-14552
12	-14553
An	-14554
EG	-14555
NG	-14556
zo	-14557
cor	-14558
eer	-14559
gus	-14560
ili	-14561
lit	-14562
obo	-14563
rir	-14564
roc	-14565
▁AO	-14566
▁AS	-14567
▁BL	-14568
▁HG	-14569
▁KA	-14570
▁PH	-14571
▁VC	-14572
▁uh	-14573
Give	-14574
coal	-14575
eram	-14576
heit	-14577
hire	-14578
hran	-14579
iami	-14580
iley	-14581
iper	-14582
lean	-14583
mann	-14584
phal	-14585
prot	-14586
race	-14587
rais	-14588
rans	-14589
real	-14590
rost	-14591
star	-14592
tion	-14593
uced	-14594
worm	-14595
▁15.	-14596
▁189	-14597
▁Adm	-14598
▁Ark	-14599
▁BBC	-14600
▁CNN	-14601
▁Cub	-14602
▁Equ	-14603
▁Fur	-14604
▁Heb	-14605
▁Hud	-14606
▁Imp	-14607
▁MBA	-14608
▁Rab	-14609
▁Ric	-14610
▁Run	-14611
▁Sho	-14612
▁Wel	-14613
▁inh	-14614
▁luc	-14615
▁por	-14616
▁tid	-14617
▁ups	-14618
5,000	-14619
ambia	-14620
aunch	-14621
books	-14622
bucks	-14623
cards	-14624
essee	-14625
icill	-14626
icken	-14627
igers	-14628
inked	-14629
ocate	-14630
oplan	-14631
pable	-14632
stood	-14633
[...]
