<unk>	0
<s>	0
</s>	0
es	-0
▁d	-1
en	-2
▁l	-3
▁p	-4
on	-5
ou	-6
▁c	-7
qu	-8
ai	-9
▁s	-10
▁a	-11
re	-12
▁de	-13
an	-14
er	-15
▁qu	-16
ent	-17
▁m	-18
▁v	-19
▁n	-20
et	-21
un	-22
ous	-23
ti	-24
▁t	-25
le	-26
is	-27
ar	-28
in	-29
▁un	-30
▁f	-31
eu	-32
▁la	-33
▁que	-34
il	-35
▁et	-36
est	-37
it	-38
om	-39
our	-40
ons	-41
or	-42
▁le	-43
▁j	-44
▁les	-45
▁à	-46
te	-47
▁en	-48
ment	-49
as	-50
ais	-51
el	-52
▁r	-53
us	-54
▁des	-55
ait	-56
ont	-57
ro	-58
ant	-59
▁b	-60
au	-61
oi	-62
me	-63
ans	-64
ve	-65
ce	-66
▁é	-67
ur	-68
▁E	-69
▁pour	-70
▁g	-71
▁pas	-72
▁nous	-73
▁com	-74
▁par	-75
▁une	-76
ri	-77
▁vous	-78
tre	-79
▁qui	-80
os	-81
▁ch	-82
▁C	-83
ci	-84
tion	-85
▁au	-86
al	-87
ch	-88
que	-89
▁ce	-90
▁dans	-91
▁pl	-92
▁tr	-93
eur	-94
▁est	-95
▁je	-96
res	-97
de	-98
ens	-99
ne	-100
▁Et	-101
▁il	-102
és	-103
mp	-104
ag	-105
ol	-106
at	-107
ie	-108
▁L	-109
▁pro	-110
▁av	-111
▁dé	-112
▁re	-113
▁M	-114
▁J	-115
▁plus	-116
▁du	-117
té	-118
▁in	-119
les	-120
ers	-121
av	-122
ain	-123
ouv	-124
▁sur	-125
▁ne	-126
li	-127
elle	-128
▁I	-129
▁se	-130
pp	-131
end	-132
out	-133
▁si	-134
se	-135
si	-136
aire	-137
ation	-138
▁e	-139
onn	-140
and	-141
▁ré	-142
ré	-143
▁i	-144
▁di	-145
ab	-146
▁ave	-147
▁h	-148
▁peu	-149
ac	-150
ir	-151
ée	-152
▁Il	-153
ère	-154
▁N	-155
ès	-156
▁D	-157
onc	-158
uis	-159
▁A	-160
oir	-161
ien	-162
▁sont	-163
▁mon	-164
ff	-165
am	-166
ati	-167
▁P	-168
▁o	-169
▁avec	-170
ette	-171
▁fait	-172
▁y	-173
▁ét	-174
ui	-175
mes	-176
ét	-177
▁an	-178
▁-	-179
ité	-180
di	-181
▁pr	-182
▁tout	-183
▁ces	-184
▁S	-185
▁Je	-186
▁ex	-187
▁vo	-188
ér	-189
aient	-190
▁?	-191
▁comme	-192
▁:	-193
▁chos	-194
▁mais	-195
eux	-196
▁ou	-197
ça	-198
être	-199
ort	-200
▁ça	-201
▁mo	-202
▁cette	-203
pr	-204
▁V	-205
▁quel	-206
ure	-207
ez	-208
ées	-209
▁faire	-210
ques	-211
ul	-212
ap	-213
▁gr	-214
▁--	-215
eurs	-216
ale	-217
tr	-218
▁on	-219
▁ont	-220
eau	-221
▁con	-222
ang	-223
ors	-224
▁avons	-225
▁Mais	-226
mi	-227
▁Nous	-228
▁al	-229
oup	-230
ess	-231
ter	-232
▁me	-233
age	-234
tes	-235
▁cel	-236
ois	-237
▁1	-238
une	-239
▁dev	-240
▁O	-241
ême	-242
▁app	-243
og	-244
vez	-245
▁très	-246
▁te	-247
ite	-248
▁peut	-249
ail	-250
oin	-251
▁pens	-252
▁T	-253
▁ils	-254
▁ent	-255
ence	-256
ct	-257
ux	-258
ay	-259
ni	-260
▁comm	-261
▁"	-262
rai	-263
▁bien	-264
▁comp	-265
▁vi	-266
ler	-267
lé	-268
▁monde	-269
▁ar	-270
▁li	-271
éri	-272
▁gens	-273
ique	-274
mb	-275
▁B	-276
able	-277
aux	-278
▁no	-279
▁pers	-280
ue	-281
ille	-282
ème	-283
▁cons	-284
▁trav	-285
ants	-286
▁vrai	-287
ard	-288
ert	-289
tres	-290
▁dis	-291
enc	-292
ot	-293
ten	-294
▁su	-295
onne	-296
uti	-297
che	-298
▁dit	-299
ut	-300
lis	-301
▁chose	-302
rer	-303
▁être	-304
ance	-305
ussi	-306
▁leur	-307
um	-308
▁même	-309
ils	-310
endre	-311
▁pouv	-312
ord	-313
elles	-314
▁notre	-315
▁cela	-316
du	-317
ic	-318
▁«	-319
ion	-320
én	-321
▁beau	-322
▁aux	-323
▁so	-324
▁suis	-325
▁Ce	-326
▁parti	-327
ours	-328
▁ma	-329
▁quand	-330
éc	-331
coup	-332
▁où	-333
ist	-334
▁diff	-335
▁imp	-336
▁»	-337
▁était	-338
▁sa	-339
▁tous	-340
▁été	-341
st	-342
▁La	-343
orm	-344
ace	-345
id	-346
▁dire	-347
vent	-348
▁deux	-349
00	-350
▁2	-351
▁aussi	-352
▁Vous	-353
ond	-354
app	-355
▁vraiment	-356
▁En	-357
utilis	-358
ine	-359
▁beaucoup	-360
ins	-361
▁Q	-362
ig	-363
orte	-364
▁donc	-365
▁Les	-366
co	-367
▁parce	-368
▁Le	-369
▁travail	-370
esp	-371
▁jus	-372
était	-373
▁tou	-374
▁mil	-375
▁vie	-376
▁Donc	-377
mps	-378
▁prob	-379
lement	-380
rois	-381
▁ser	-382
ations	-383
▁cont	-384
▁choses	-385
▁cré	-386
▁ans	-387
▁seu	-388
▁car	-389
▁son	-390
▁donn	-391
▁per	-392
ad	-393
▁pre	-394
ainten	-395
ommes	-396
oc	-397
olog	-398
▁éc	-399
▁mar	-400
▁nos	-401
pe	-402
▁pos	-403
▁fa	-404
▁elle	-405
▁vou	-406
▁là	-407
▁R	-408
aintenant	-409
▁personn	-410
▁voir	-411
fi	-412
omb	-413
▁Ils	-414
▁déc	-415
▁quelque	-416
aut	-417
▁as	-418
ions	-419
▁moi	-420
ents	-421
▁pet	-422
▁On	-423
ser	-424
▁premi	-425
▁votre	-426
ouve	-427
anc	-428
oire	-429
▁U	-430
ments	-431
ge	-432
▁ai	-433
enti	-434
▁pré	-435
▁pou	-436
tions	-437
▁ac	-438
▁puis	-439
▁utilis	-440
▁grand	-441
op	-442
▁ph	-443
▁exp	-444
▁enf	-445
ouver	-446
▁mes	-447
▁Al	-448
ante	-449
em	-450
▁at	-451
▁Qu	-452
▁rés	-453
▁temps	-454
▁sy	-455
ains	-456
jet	-457
par	-458
▁milli	-459
lè	-460
▁fois	-461
▁mont	-462
▁chang	-463
im	-464
▁reg	-465
▁différ	-466
ex	-467
tique	-468
▁avait	-469
aine	-470
cher	-471
its	-472
▁entre	-473
▁ici	-474
▁voy	-475
▁ann	-476
▁G	-477
ob	-478
▁mé	-479
▁fin	-480
▁pay	-481
ble	-482
▁ob	-483
▁sav	-484
▁pouvez	-485
vers	-486
▁comment	-487
▁for	-488
▁ter	-489
▁prop	-490
oici	-491
alis	-492
core	-493
▁cha	-494
ande	-495
rait	-496
▁am	-497
vi	-498
alement	-499
tement	-500
mple	-501
▁Si	-502
cu	-503
▁man	-504
▁pu	-505
▁sommes	-506
▁faç	-507
▁im	-508
▁personnes	-509
aires	-510
ver	-511
endant	-512
ts	-513
▁Alors	-514
▁♫	-515
vre	-516
ères	-517
▁leurs	-518
form	-519
▁El	-520
▁arri	-521
▁encore	-522
▁dem	-523
▁commenc	-524
▁pense	-525
▁jour	-526
▁fais	-527
▁env	-528
▁rép	-529
aines	-530
oy	-531
▁autre	-532
▁mal	-533
▁dont	-534
ong	-535
près	-536
▁pays	-537
▁id	-538
▁compr	-539
erci	-540
semb	-541
ement	-542
▁ess	-543
▁part	-544
lu	-545
▁avoir	-546
enir	-547
ction	-548
▁cert	-549
entre	-550
sez	-551
ourd	-552
▁fem	-553
ellement	-554
quoi	-555
▁bes	-556
▁besoin	-557
▁jam	-558
▁vais	-559
▁façon	-560
▁der	-561
ner	-562
▁F	-563
▁ques	-564
▁va	-565
▁avez	-566
▁tech	-567
nent	-568
sé	-569
▁import	-570
hui	-571
ris	-572
▁ca	-573
▁lui	-574
▁alors	-575
ats	-576
olu	-577
▁Par	-578
."	-579
erre	-580
▁toutes	-581
▁juste	-582
▁maintenant	-583
tru	-584
dé	-585
▁sans	-586
▁H	-587
jourd	-588
bli	-589
omme	-590
ph	-591
▁3	-592
ra	-593
sion	-594
▁cap	-595
▁soci	-596
▁co	-597
▁non	-598
ésent	-599
▁hum	-600
▁gén	-601
▁trans	-602
ult	-603
erve	-604
▁Pour	-605
ill	-606
▁aut	-607
ière	-608
alité	-609
ves	-610
▁cor	-611
▁poin	-612
▁quelques	-613
▁eu	-614
tin	-615
ages	-616
▁Ch	-617
▁jamais	-618
▁syst	-619
▁années	-620
▁trois	-621
met	-622
lons	-623
istoire	-624
imp	-625
▁col	-626
▁enfants	-627
iss	-628
▁dép	-629
▁conn	-630
lez	-631
tu	-632
urs	-633
opp	-634
ég	-635
ier	-636
nolog	-637
▁veux	-638
autres	-639
ombre	-640
lème	-641
▁bas	-642
▁problème	-643
▁eff	-644
▁mom	-645
ici	-646
▁pouvons	-647
▁inté	-648
▁vis	-649
▁moins	-650
ures	-651
▁pol	-652
▁derni	-653
▁cl	-654
jours	-655
ces	-656
illes	-657
▁vers	-658
▁fr	-659
▁inter	-660
▁exe	-661
▁inc	-662
▁toujours	-663
ros	-664
▁sou	-665
uire	-666
▁bi	-667
▁ses	-668
▁technolog	-669
aiss	-670
▁rest	-671
rit	-672
▁seulement	-673
▁chaque	-674
▁peuvent	-675
▁parler	-676
gr	-677
iste	-678
tis	-679
▁rec	-680
▁commun	-681
▁dév	-682
cti	-683
▁petit	-684
ues	-685
mer	-686
▁met	-687
ables	-688
▁nouv	-689
▁Voici	-690
▁pendant	-691
ing	-692
ôt	-693
▁Elle	-694
êtes	-695
ise	-696
rop	-697
ature	-698
els	-699
▁tu	-700
000	-701
tent	-702
gn	-703
▁soit	-704
cep	-705
▁moment	-706
▁sû	-707
▁produ	-708
ches	-709
eure	-710
▁regard	-711
▁personne	-712
▁après	-713
▁or	-714
lent	-715
elopp	-716
▁nombre	-717
▁Merci	-718
▁partie	-719
onom	-720
▁demand	-721
▁étu	-722
▁savez	-723
min	-724
▁prof	-725
vé	-726
quer	-727
iez	-728
ars	-729
ales	-730
▁autres	-731
▁cas	-732
▁long	-733
▁elles	-734
▁sci	-735
vous	-736
arde	-737
▁br	-738
puis	-739
▁quoi	-740
▁étaient	-741
der	-742
su	-743
▁crois	-744
étais	-745
▁5	-746
▁différent	-747
▁question	-748
▁pi	-749
roy	-750
▁conc	-751
qui	-752
ateur	-753
▁première	-754
▁essay	-755
▁nouve	-756
▁bon	-757
▁avant	-758
gent	-759
▁aujourd	-760
▁ab	-761
▁cet	-762
ies	-763
▁exemple	-764
▁développ	-765
autre	-766
▁ni	-767
▁meille	-768
oit	-769
▁système	-770
per	-771
ché	-772
antes	-773
▁commencé	-774
ités	-775
▁plan	-776
hé	-777
▁voyez	-778
ène	-779
ences	-780
ordin	-781
▁publi	-782
▁voit	-783
▁toute	-784
▁st	-785
▁lors	-786
▁sens	-787
acc	-788
dre	-789
▁cour	-790
▁envir	-791
▁rais	-792
▁appel	-793
élé	-794
all	-795
▁sûr	-796
▁Un	-797
des	-798
▁cerve	-799
▁W	-800
ête	-801
roit	-802
▁point	-803
▁fonc	-804
rais	-805
▁jou	-806
▁min	-807
▁esp	-808
▁4	-809
iques	-810
atique	-811
fin	-812
one	-813
▁cent	-814
▁ti	-815
▁veu	-816
▁manière	-817
▁trouv	-818
adi	-819
Ça	-820
rent	-821
▁simp	-822
▁pri	-823
agin	-824
ib	-825
▁Au	-826
▁souv	-827
▁K	-828
▁Ça	-829
gan	-830
▁tant	-831
▁déb	-832
semble	-833
tiques	-834
ress	-835
▁pourquoi	-836
▁Cel	-837
avais	-838
use	-839
▁ad	-840
fs	-841
itu	-842
▁pris	-843
▁êtes	-844
▁contr	-845
▁travers	-846
oll	-847
▁grande	-848
▁phot	-849
▁aur	-850
▁sous	-851
▁20	-852
▁jusqu	-853
▁sp	-854
▁depuis	-855
▁év	-856
▁trouver	-857
▁bou	-858
▁sol	-859
▁rien	-860
nes	-861
▁sui	-862
..	-863
▁possi	-864
▁acc	-865
olution	-866
auv	-867
▁Quand	-868
suite	-869
▁femmes	-870
▁faut	-871
ide	-872
▁Une	-873
▁fonction	-874
je	-875
▁voul	-876
▁19	-877
▁poli	-878
téri	-879
▁sais	-880
▁cerveau	-881
▁gen	-882
▁mat	-883
▁quelqu	-884
enu	-885
▁vu	-886
▁sec	-887
aph	-888
▁conf	-889
ilà	-890
▁font	-891
▁données	-892
▁dés	-893
▁pourrait	-894
ign	-895
exp	-896
▁fam	-897
ass	-898
ateurs	-899
▁passe	-900
▁Dans	-901
▁assez	-902
mis	-903
été	-904
▁moy	-905
are	-906
▁mi	-907
▁projet	-908
▁Cela	-909
▁10	-910
▁Maintenant	-911
▁fond	-912
part	-913
▁cher	-914
▁ins	-915
▁mus	-916
▁réf	-917
▁millions	-918
▁fil	-919
▁nature	-920
▁technologie	-921
ric	-922
▁sorte	-923
▁pouvoir	-924
▁rapp	-925
▁prendre	-926
▁présent	-927
▁créer	-928
▁médi	-929
▁rem	-930
▁important	-931
cip	-932
ites	-933
▁plu	-934
endu	-935
ablement	-936
▁devons	-937
aî	-938
ieu	-939
▁permet	-940
▁comb	-941
▁éle	-942
nement	-943
▁eux	-944
tel	-945
▁fer	-946
air	-947
▁vos	-948
ivers	-949
▁ty	-950
rique	-951
...	-952
act	-953
▁end	-954
▁emp	-955
▁genre	-956
ète	-957
gie	-958
▁dém	-959
asse	-960
oute	-961
ps	-962
▁ri	-963
▁nouveau	-964
▁comprendre	-965
cle	-966
▁lu	-967
▁rev	-968
▁ass	-969
▁idée	-970
▁pres	-971
jà	-972
aille	-973
rez	-974
▁dess	-975
▁peux	-976
▁cô	-977
ole	-978
éré	-979
▁premier	-980
▁sig	-981
ition	-982
omm	-983
tri	-984
▁déjà	-985
▁group	-986
ann	-987
ouvert	-988
▁all	-989
▁génér	-990
rê	-991
▁télé	-992
▁passé	-993
▁pass	-994
▁fut	-995
▁mod	-996
▁sé	-997
ines	-998
▁étudi	-999
▁donner	-1000
utôt	-1001
▁extr	-1002
▁sc	-1003
▁mis	-1004
▁chez	-1005
▁In	-1006
▁gros	-1007
vis	-1008
nif	-1009
▁Parce	-1010
ilité	-1011
▁intéress	-1012
▁doll	-1013
▁proc	-1014
▁Tout	-1015
▁De	-1016
▁dur	-1017
ganis	-1018
▁regarde	-1019
▁rég	-1020
▁recher	-1021
oix	-1022
ager	-1023
▁000	-1024
▁ceux	-1025
▁savoir	-1026
▁particu	-1027
uit	-1028
▁plutôt	-1029
▁ress	-1030
▁réalis	-1031
▁train	-1032
▁simplement	-1033
▁repr	-1034
▁ég	-1035
uer	-1036
▁cou	-1037
▁tour	-1038
ième	-1039
▁bonne	-1040
▁contin	-1041
▁progr	-1042
▁plupart	-1043
▁res	-1044
▁problè	-1045
uc	-1046
▁auc	-1047
▁contre	-1048
▁trop	-1049
▁coup	-1050
▁problèmes	-1051
lig	-1052
▁semb	-1053
nis	-1054
▁bl	-1055
ets	-1056
▁histoire	-1057
▁ceci	-1058
nous	-1059
qué	-1060
omp	-1061
▁jours	-1062
ense	-1063
ange	-1064
▁vol	-1065
▁montrer	-1066
▁mois	-1067
▁expéri	-1068
▁!	-1069
▁mettre	-1070
▁économ	-1071
▁aller	-1072
▁environ	-1073
▁parf	-1074
▁moyen	-1075
lex	-1076
▁appr	-1077
anté	-1078
▁z	-1079
ore	-1080
▁mort	-1081
▁mieux	-1082
▁gouver	-1083
▁dollars	-1084
▁ép	-1085
▁soi	-1086
▁voici	-1087
essus	-1088
▁puiss	-1089
▁changer	-1090
ôle	-1091
dent	-1092
▁corps	-1093
▁raison	-1094
agn	-1095
▁ain	-1096
omment	-1097
év	-1098
iti	-1099
quelle	-1100
enez	-1101
▁Ne	-1102
▁aff	-1103
▁rel	-1104
▁É	-1105
▁ensuite	-1106
▁inf	-1107
▁att	-1108
▁modè	-1109
▁serait	-1110
▁ainsi	-1111
▁laquelle	-1112
▁anim	-1113
▁nouvelle	-1114
ancer	-1115
▁port	-1116
anti	-1117
▁lais	-1118
ari	-1119
▁6	-1120
tein	-1121
▁doit	-1122
▁resp	-1123
▁public	-1124
raient	-1125
att	-1126
▁cli	-1127
▁petite	-1128
▁seul	-1129
mment	-1130
▁déci	-1131
▁avaient	-1132
▁passer	-1133
là	-1134
▁veut	-1135
▁lieu	-1136
ate	-1137
▁trouve	-1138
▁lib	-1139
▁gé	-1140
▁rap	-1141
▁prin	-1142
agit	-1143
▁milliard	-1144
cul	-1145
▁nive	-1146
orti	-1147
▁indi	-1148
▁dro	-1149
duire	-1150
▁inform	-1151
▁ple	-1152
▁répons	-1153
histoire	-1154
▁penser	-1155
Unis	-1156
▁incroy	-1157
▁es	-1158
▁ag	-1159
▁rep	-1160
ger	-1161
▁vont	-1162
▁cours	-1163
mière	-1164
onnement	-1165
ones	-1166
même	-1167
vant	-1168
th	-1169
cation	-1170
▁k	-1171
▁cellu	-1172
rir	-1173
▁côté	-1174
atre	-1175
▁sujet	-1176
▁Vo	-1177
▁constr	-1178
gne	-1179
▁femme	-1180
▁certains	-1181
ctu	-1182
▁simple	-1183
ances	-1184
éric	-1185
▁compte	-1186
rions	-1187
▁santé	-1188
▁ville	-1189
▁utiliser	-1190
mé	-1191
iles	-1192
▁gl	-1193
▁sau	-1194
▁gu	-1195
▁représent	-1196
▁près	-1197
▁particuli	-1198
▁éch	-1199
▁propos	-1200
orme	-1201
avoir	-1202
▁constru	-1203
êmes	-1204
▁mot	-1205
▁entrepr	-1206
aite	-1207
quel	-1208
encont	-1209
▁signif	-1210
▁cin	-1211
▁sem	-1212
ulture	-1213
ente	-1214
▁sal	-1215
oires	-1216
▁dou	-1217
ép	-1218
▁lorsque	-1219
cture	-1220
▁Comment	-1221
titu	-1222
▁200	-1223
▁propre	-1224
env	-1225
lus	-1226
raph	-1227
▁mag	-1228
▁possible	-1229
ses	-1230
▁place	-1231
▁seule	-1232
▁hommes	-1233
▁scienti	-1234
icile	-1235
▁haut	-1236
net	-1237
▁forme	-1238
▁chi	-1239
▁rencont	-1240
▁7	-1241
vité	-1242
▁sour	-1243
▁program	-1244
▁rac	-1245
▁celui	-1246
▁ordin	-1247
▁sera	-1248
▁ven	-1249
ru	-1250
argent	-1251
▁Cette	-1252
▁différentes	-1253
éli	-1254
térieur	-1255
ient	-1256
éner	-1257
oque	-1258
▁souvent	-1259
▁nour	-1260
▁mét	-1261
bles	-1262
▁Ces	-1263
▁ret	-1264
▁main	-1265
▁mondi	-1266
▁8	-1267
idée	-1268
▁ensemble	-1269
vement	-1270
▁ci	-1271
▁rend	-1272
▁tard	-1273
▁journ	-1274
▁pop	-1275
avons	-1276
onde	-1277
rière	-1278
▁allons	-1279
▁connaiss	-1280
ysi	-1281
èce	-1282
▁réalité	-1283
▁autour	-1284
frique	-1285
▁;	-1286
ograph	-1287
▁rou	-1288
▁difficile	-1289
▁déf	-1290
énergie	-1291
auvais	-1292
▁trouvé	-1293
▁préc	-1294
▁rapide	-1295
▁op	-1296
ression	-1297
▁form	-1298
▁résult	-1299
▁quatre	-1300
".	-1301
▁Pourquoi	-1302
ud	-1303
▁médic	-1304
til	-1305
▁maison	-1306
gé	-1307
unes	-1308
art	-1309
▁mauvais	-1310
az	-1311
▁dom	-1312
▁niveau	-1313
be	-1314
eures	-1315
▁rob	-1316
▁oc	-1317
▁popul	-1318
▁celle	-1319
▁donne	-1320
iter	-1321
▁société	-1322
moi	-1323
▁nom	-1324
▁mati	-1325
iennent	-1326
euse	-1327
uses	-1328
▁groupe	-1329
▁heure	-1330
riez	-1331
ras	-1332
▁famille	-1333
▁organis	-1334
▁imagin	-1335
tant	-1336
▁planète	-1337
if	-1338
▁sorti	-1339
▁faisons	-1340
▁physi	-1341
▁siè	-1342
ah	-1343
▁obten	-1344
ètres	-1345
▁reste	-1346
▁changement	-1347
ément	-1348
▁9	-1349
cteur	-1350
▁parle	-1351
ran	-1352
▁minu	-1353
importe	-1354
▁Des	-1355
▁Mon	-1356
▁mor	-1357
▁réc	-1358
ieurs	-1359
▁cause	-1360
ose	-1361
▁lang	-1362
▁savons	-1363
gment	-1364
léch	-1365
▁cal	-1366
oles	-1367
▁travailler	-1368
▁mesure	-1369
▁milliards	-1370
▁complè	-1371
▁également	-1372
ennent	-1373
▁disp	-1374
▁appris	-1375
▁lumière	-1376
éci	-1377
▁faites	-1378
▁supp	-1379
▁type	-1380
▁presque	-1381
▁thé	-1382
▁sort	-1383
agne	-1384
▁vidé	-1385
▁concep	-1386
ov	-1387
▁marché	-1388
▁mach	-1389
▁commence	-1390
anger	-1391
▁nouvelles	-1392
▁début	-1393
▁Ét	-1394
▁appar	-1395
▁voulez	-1396
érique	-1397
▁partir	-1398
▁tellement	-1399
appelle	-1400
▁Elles	-1401
▁fab	-1402
acité	-1403
▁pati	-1404
▁réponse	-1405
▁demandé	-1406
▁faci	-1407
▁spéci	-1408
▁conne	-1409
▁doi	-1410
▁commencer	-1411
▁plusieurs	-1412
▁én	-1413
tionn	-1414
▁Re	-1415
orer	-1416
▁produit	-1417
▁allez	-1418
▁Ou	-1419
ront	-1420
prit	-1421
▁hist	-1422
▁change	-1423
▁homme	-1424
érer	-1425
▁men	-1426
▁donné	-1427
▁test	-1428
▁différents	-1429
inform	-1430
▁petits	-1431
▁idées	-1432
▁construire	-1433
▁tomb	-1434
▁équi	-1435
▁consid	-1436
▁Voilà	-1437
▁coû	-1438
▁photo	-1439
▁réseau	-1440
chet	-1441
action	-1442
fiques	-1443
▁15	-1444
▁cri	-1445
▁pouvait	-1446
▁super	-1447
enf	-1448
▁100	-1449
▁sent	-1450
ises	-1451
▁hab	-1452
èmes	-1453
▁remar	-1454
▁États	-1455
▁réfléch	-1456
oie	-1457
▁vue	-1458
auté	-1459
▁signifie	-1460
▁questions	-1461
▁Eh	-1462
▁four	-1463
▁regarder	-1464
ire	-1465
pt	-1466
avant	-1467
rée	-1468
▁Bien	-1469
0,	-1470
univers	-1471
dec	-1472
▁probablement	-1473
âce	-1474
▁sub	-1475
▁film	-1476
riture	-1477
▁cellules	-1478
▁viv	-1479
accord	-1480
▁cinq	-1481
▁princip	-1482
▁humain	-1483
od	-1484
ém	-1485
▁année	-1486
▁enfant	-1487
In	-1488
écu	-1489
▁ligne	-1490
▁demande	-1491
▁retour	-1492
▁vient	-1493
▁bâ	-1494
▁livre	-1495
▁culture	-1496
ED	-1497
▁dernière	-1498
fique	-1499
▁mère	-1500
▁séri	-1501
▁guerre	-1502
▁fl	-1503
▁humains	-1504
▁jeu	-1505
▁heures	-1506
int	-1507
▁loin	-1508
▁inst	-1509
aque	-1510
leur	-1511
▁mouve	-1512
▁prés	-1513
▁processus	-1514
rib	-1515
▁face	-1516
▁science	-1517
lant	-1518
▁pe	-1519
▁recherche	-1520
▁rendre	-1521
dus	-1522
▁communauté	-1523
uss	-1524
▁log	-1525
▁chois	-1526
▁médec	-1527
▁voiture	-1528
oci	-1529
▁modèle	-1530
▁Bon	-1531
▁New	-1532
▁retr	-1533
▁tête	-1534
▁30	-1535
▁devez	-1536
▁complex	-1537
▁gouvernement	-1538
▁situ	-1539
▁expli	-1540
▁ris	-1541
▁viol	-1542
ament	-1543
▁voilà	-1544
▁transform	-1545
▁truc	-1546
▁endroit	-1547
ienne	-1548
▁abs	-1549
▁che	-1550
▁cro	-1551
▁jeunes	-1552
▁proch	-1553
▁complètement	-1554
▁développement	-1555
▁base	-1556
espace	-1557
sions	-1558
▁chac	-1559
tention	-1560
▁50	-1561
ible	-1562
▁mots	-1563
bre	-1564
▁comporte	-1565
enons	-1566
▁Que	-1567
▁élé	-1568
temps	-1569
ologie	-1570
▁partout	-1571
▁yeux	-1572
▁politique	-1573
inter	-1574
▁disent	-1575
rés	-1576
urité	-1577
▁ver	-1578
él	-1579
▁dét	-1580
▁pous	-1581
pect	-1582
▁vér	-1583
sionn	-1584
▁vivre	-1585
▁regardez	-1586
▁naturel	-1587
abord	-1588
isme	-1589
▁lit	-1590
▁dépl	-1591
▁terr	-1592
▁meilleur	-1593
▁intel	-1594
▁Est	-1595
▁arrive	-1596
cev	-1597
man	-1598
▁po	-1599
▁voud	-1600
▁obser	-1601
équ	-1602
èces	-1603
▁lég	-1604
▁grâce	-1605
çu	-1606
▁stru	-1607
atis	-1608
▁quelle	-1609
▁voulais	-1610
istes	-1611
▁exac	-1612
▁acti	-1613
▁».	-1614
fier	-1615
èg	-1616
▁proté	-1617
▁expérience	-1618
ade	-1619
▁attein	-1620
▁Comme	-1621
▁Am	-1622
▁sex	-1623
▁TED	-1624
ath	-1625
▁animaux	-1626
▁entendu	-1627
vres	-1628
▁exc	-1629
▁Oui	-1630
▁An	-1631
▁peur	-1632
▁devenir	-1633
dustri	-1634
▁musique	-1635
▁vale	-1636
ox	-1637
▁néc	-1638
éd	-1639
▁décidé	-1640
▁certaines	-1641
▁prend	-1642
▁mic	-1643
▁Terre	-1644
▁matéri	-1645
pes	-1646
arge	-1647
▁loc	-1648
▁augment	-1649
aces	-1650
çons	-1651
▁robot	-1652
▁créé	-1653
▁trait	-1654
▁reconn	-1655
abilité	-1656
▁minutes	-1657
▁père	-1658
ec	-1659
rons	-1660
atiques	-1661
▁vir	-1662
▁amis	-1663
▁avions	-1664
▁essayer	-1665
▁montre	-1666
▁aider	-1667
▁pensé	-1668
▁lim	-1669
aître	-1670
▁nécess	-1671
eff	-1672
▁téléph	-1673
issent	-1674
▁dernières	-1675
▁terre	-1676
emp	-1677
▁expl	-1678
intérieur	-1679
tit	-1680
▁bat	-1681
",	-1682
▁malad	-1683
▁certaine	-1684
face	-1685
matique	-1686
▁appelé	-1687
▁racont	-1688
heure	-1689
▁croy	-1690
▁vois	-1691
▁intéressant	-1692
▁disc	-1693
▁image	-1694
▁int	-1695
école	-1696
▁lequel	-1697
▁profond	-1698
▁choix	-1699
▁grands	-1700
▁répond	-1701
iquement	-1702
▁th	-1703
avez	-1704
▁neu	-1705
▁bout	-1706
▁sait	-1707
▁aucune	-1708
êt	-1709
▁afin	-1710
ode	-1711
▁séc	-1712
lais	-1713
▁écrit	-1714
▁milliers	-1715
ds	-1716
▁siècle	-1717
▁bâti	-1718
ducation	-1719
▁découvert	-1720
iner	-1721
▁capacité	-1722
▁objet	-1723
èrement	-1724
▁design	-1725
▁dernier	-1726
éro	-1727
▁Quel	-1728
▁arriver	-1729
▁lab	-1730
▁Ceci	-1731
rire	-1732
duis	-1733
ouvrir	-1734
auche	-1735
▁consci	-1736
▁exactement	-1737
elon	-1738
inté	-1739
ettes	-1740
▁serv	-1741
▁nourriture	-1742
gu	-1743
▁tot	-1744
▁futur	-1745
▁marche	-1746
▁vidéo	-1747
▁parfois	-1748
▁incroyable	-1749
▁off	-1750
roits	-1751
sement	-1752
▁voulons	-1753
érence	-1754
▁cancer	-1755
ich	-1756
utions	-1757
▁aurait	-1758
▁grandes	-1759
ach	-1760
aly	-1761
enne	-1762
▁Puis	-1763
ern	-1764
▁gar	-1765
▁remp	-1766
▁num	-1767
envir	-1768
▁actu	-1769
▁outil	-1770
▁améric	-1771
erv	-1772
▁réellement	-1773
cident	-1774
▁jouer	-1775
nov	-1776
ork	-1777
▁envoy	-1778
▁suc	-1779
▁colle	-1780
▁cr	-1781
▁radi	-1782
▁rapidement	-1783
aimer	-1784
onnes	-1785
acti	-1786
▁histoires	-1787
atif	-1788
lait	-1789
atri	-1790
ital	-1791
▁dois	-1792
ow	-1793
ternet	-1794
▁univers	-1795
ulti	-1796
▁croiss	-1797
▁ressemble	-1798
▁Non	-1799
▁aucun	-1800
▁devant	-1801
▁rapport	-1802
ocr	-1803
ative	-1804
▁cherch	-1805
▁semble	-1806
▁empl	-1807
▁ressemb	-1808
▁population	-1809
▁apprendre	-1810
▁taille	-1811
▁villes	-1812
sy	-1813
aud	-1814
cup	-1815
hum	-1816
▁diri	-1817
▁règ	-1818
▁ref	-1819
▁importante	-1820
insi	-1821
▁demander	-1822
ax	-1823
▁sign	-1824
yc	-1825
▁six	-1826
▁fille	-1827
▁second	-1828
▁%	-1829
bes	-1830
inc	-1831
▁physique	-1832
▁longtemps	-1833
ton	-1834
▁Dieu	-1835
▁tend	-1836
▁ense	-1837
▁Ainsi	-1838
▁meilleure	-1839
▁centre	-1840
▁dû	-1841
ident	-1842
cteurs	-1843
▁théor	-1844
▁travaille	-1845
arri	-1846
ges	-1847
▁défin	-1848
▁voyons	-1849
▁ém	-1850
aime	-1851
▁compris	-1852
▁parents	-1853
dez	-1854
▁Peu	-1855
▁rê	-1856
▁»,	-1857
▁oui	-1858
▁prix	-1859
▁différence	-1860
▁veulent	-1861
duit	-1862
▁pap	-1863
▁pot	-1864
▁deven	-1865
arr	-1866
iens	-1867
▁petites	-1868
âge	-1869
▁cam	-1870
étu	-1871
▁Chine	-1872
avait	-1873
▁chance	-1874
▁respons	-1875
▁sécurité	-1876
tée	-1877
▁achet	-1878
▁sim	-1879
orter	-1880
éb	-1881
▁devrait	-1882
aît	-1883
▁entier	-1884
ènes	-1885
▁droit	-1886
vec	-1887
airement	-1888
éan	-1889
ctions	-1890
▁pensez	-1891
iers	-1892
▁maj	-1893
ication	-1894
erveille	-1895
▁scientifiques	-1896
▁préf	-1897
▁facile	-1898
aitement	-1899
éch	-1900
gré	-1901
▁fai	-1902
▁ren	-1903
▁arrê	-1904
▁quanti	-1905
tér	-1906
▁porte	-1907
▁souff	-1908
▁dessus	-1909
yp	-1910
▁trou	-1911
▁milieu	-1912
hab	-1913
▁march	-1914
▁devenu	-1915
▁systèmes	-1916
▁nuit	-1917
▁puisse	-1918
outer	-1919
▁maladie	-1920
▁changé	-1921
▁gauche	-1922
▁arriv	-1923
▁images	-1924
▁chacun	-1925
▁conv	-1926
▁suiv	-1927
tim	-1928
▁vite	-1929
▁No	-1930
tié	-1931
amment	-1932
▁arrivé	-1933
▁énorme	-1934
ener	-1935
jecti	-1936
▁lesqu	-1937
▁plein	-1938
▁mouvement	-1939
▁prom	-1940
▁suite	-1941
ération	-1942
▁deuxième	-1943
▁Pas	-1944
▁ment	-1945
▁dr	-1946
▁ali	-1947
aimerais	-1948
▁humaine	-1949
▁informations	-1950
▁tra	-1951
▁norm	-1952
▁18	-1953
▁imm	-1954
▁vies	-1955
▁table	-1956
usement	-1957
▁effic	-1958
▁doivent	-1959
information	-1960
oth	-1961
▁produits	-1962
▁péri	-1963
▁senti	-1964
œur	-1965
aide	-1966
▁étr	-1967
▁mari	-1968
▁combien	-1969
▁contrôle	-1970
▁force	-1971
▁salle	-1972
▁devient	-1973
▁appro	-1974
▁but	-1975
▁mess	-1976
▁parlé	-1977
▁continu	-1978
ak	-1979
oiss	-1980
▁étudiants	-1981
▁desc	-1982
esprit	-1983
▁venir	-1984
▁transp	-1985
▁croissance	-1986
▁réussi	-1987
▁selon	-1988
▁utilisé	-1989
aci	-1990
années	-1991
▁dispar	-1992
lic	-1993
chite	-1994
▁technologies	-1995
▁Car	-1996
ension	-1997
▁surpr	-1998
▁équipe	-1999
▁solution	-2000
yn	-2001
éle	-2002
▁rév	-2003
▁merveille	-2004
▁arti	-2005
arti	-2006
▁décis	-2007
▁cir	-2008
▁mer	-2009
▁compos	-2010
▁surface	-2011
▁temp	-2012
ome	-2013
oins	-2014
rant	-2015
▁feu	-2016
▁psy	-2017
èrent	-2018
▁nouveaux	-2019
▁ju	-2020
▁appelle	-2021
▁cit	-2022
▁effet	-2023
▁jeune	-2024
▁situation	-2025
Afrique	-2026
▁capable	-2027
▁concent	-2028
▁endroits	-2029
ile	-2030
▁existe	-2031
▁fonctionne	-2032
né	-2033
▁chem	-2034
▁fort	-2035
▁pouvais	-2036
▁particulier	-2037
aissez	-2038
▁12	-2039
▁Cert	-2040
▁memb	-2041
cevoir	-2042
▁voudrais	-2043
ron	-2044
▁suff	-2045
▁invent	-2046
▁ressour	-2047
▁noir	-2048
étés	-2049
▁machine	-2050
▁comportement	-2051
▁w	-2052
han	-2053
ibles	-2054
▁mondiale	-2055
▁chiff	-2056
oudre	-2057
acer	-2058
mêmes	-2059
ossi	-2060
année	-2061
ret	-2062
▁fabri	-2063
aie	-2064
▁ban	-2065
let	-2066
▁psych	-2067
▁entreprises	-2068
▁nation	-2069
br	-2070
▁environnement	-2071
▁centaines	-2072
orat	-2073
anci	-2074
éducation	-2075
▁moitié	-2076
▁programme	-2077
?"	-2078
▁OK	-2079
▁droite	-2080
œu	-2081
dia	-2082
assi	-2083
▁pau	-2084
▁structure	-2085
pl	-2086
▁Gr	-2087
▁semaines	-2088
ok	-2089
▁partager	-2090
êtres	-2091
▁précis	-2092
▁ait	-2093
▁laisser	-2094
aff	-2095
▁?"	-2096
▁kil	-2097
▁char	-2098
▁voix	-2099
▁camp	-2100
▁réun	-2101
▁poiss	-2102
▁techni	-2103
▁résultats	-2104
lir	-2105
▁ay	-2106
▁40	-2107
▁géné	-2108
▁carte	-2109
▁micro	-2110
▁élect	-2111
val	-2112
▁éner	-2113
▁25	-2114
▁pét	-2115
enant	-2116
▁soient	-2117
bas	-2118
▁béb	-2119
▁démocr	-2120
▁possib	-2121
▁termes	-2122
▁semaine	-2123
▁pourraient	-2124
▁aj	-2125
liqu	-2126
▁prov	-2127
▁vari	-2128
utiliser	-2129
▁résoudre	-2130
reg	-2131
▁terme	-2132
▁coll	-2133
▁moti	-2134
Am	-2135
ori	-2136
oris	-2137
▁bal	-2138
▁extra	-2139
▁autant	-2140
▁photos	-2141
▁Tu	-2142
adies	-2143
▁bure	-2144
▁pie	-2145
▁parc	-2146
onomie	-2147
▁vision	-2148
▁propres	-2149
▁derrière	-2150
▁finalement	-2151
oph	-2152
▁raisons	-2153
ect	-2154
▁matin	-2155
▁livres	-2156
▁pauvre	-2157
▁opp	-2158
▁condi	-2159
▁calcul	-2160
▁allé	-2161
▁contrô	-2162
▁heureux	-2163
▁fondament	-2164
nation	-2165
homme	-2166
▁maladies	-2167
ug	-2168
lin	-2169
atég	-2170
▁mêmes	-2171
hi	-2172
amb	-2173
▁eng	-2174
▁sortir	-2175
▁étions	-2176
Uni	-2177
tout	-2178
▁patients	-2179
▁certain	-2180
▁nombreux	-2181
aller	-2182
▁sang	-2183
expéri	-2184
itaire	-2185
▁essenti	-2186
▁assis	-2187
ber	-2188
ices	-2189
tient	-2190
▁inves	-2191
versité	-2192
▁construit	-2193
▁ordinateur	-2194
DN	-2195
▁filles	-2196
▁mètres	-2197
oh	-2198
ule	-2199
▁carb	-2200
▁pièce	-2201
ailleurs	-2202
▁conséqu	-2203
▁points	-2204
reux	-2205
▁bén	-2206
▁site	-2207
anche	-2208
▁confi	-2209
▁disait	-2210
▁Mar	-2211
gues	-2212
▁voyage	-2213
époque	-2214
▁sortes	-2215
▁Aujourd	-2216
▁consomm	-2217
▁classe	-2218
orité	-2219
▁appare	-2220
▁lorsqu	-2221
▁différente	-2222
▁mol	-2223
▁lire	-2224
▁artis	-2225
▁tradi	-2226
▁seconde	-2227
▁pourrions	-2228
urer	-2229
▁Reg	-2230
amour	-2231
▁premiers	-2232
▁const	-2233
ilis	-2234
▁ble	-2235
▁rent	-2236
assemb	-2237
ctement	-2238
▁troisième	-2239
▁nombreuses	-2240
▁CA	-2241
▁pan	-2242
nements	-2243
▁valeur	-2244
▁scientifique	-2245
onte	-2246
▁Peut	-2247
ell	-2248
▁gard	-2249
▁Afrique	-2250
▁résultat	-2251
ends	-2252
illage	-2253
▁commen	-2254
▁produire	-2255
▁économique	-2256
astique	-2257
▁extrême	-2258
trib	-2259
▁ami	-2260
▁Lors	-2261
rou	-2262
uro	-2263
▁emb	-2264
▁morce	-2265
▁pensent	-2266
▁ressources	-2267
xte	-2268
eb	-2269
▁mathé	-2270
▁entière	-2271
▁Ma	-2272
èse	-2273
▁montré	-2274
▁relig	-2275
▁essayé	-2276
phère	-2277
▁améli	-2278
essay	-2279
iller	-2280
▁cris	-2281
▁conte	-2282
▁pensons	-2283
▁rester	-2284
▁Ensuite	-2285
▁bar	-2286
▁Après	-2287
▁ressent	-2288
▁théorie	-2289
évolution	-2290
ancé	-2291
ortun	-2292
▁bo	-2293
▁enc	-2294
▁quit	-2295
▁parmi	-2296
▁prot	-2297
▁succ	-2298
onner	-2299
▁extraordin	-2300
inf	-2301
▁émo	-2302
▁servi	-2303
▁él	-2304
▁obtenir	-2305
▁profess	-2306
urg	-2307
▁fi	-2308
oration	-2309
▁taux	-2310
yth	-2311
cole	-2312
vidu	-2313
▁littér	-2314
▁Go	-2315
▁réalisé	-2316
▁développer	-2317
▁Pr	-2318
cte	-2319
▁défi	-2320
espère	-2321
▁déter	-2322
▁ang	-2323
▁sac	-2324
▁diffic	-2325
rêt	-2326
▁réel	-2327
▁groupes	-2328
▁journée	-2329
▁vit	-2330
ciens	-2331
▁pétro	-2332
▁domaine	-2333
▁St	-2334
itesse	-2335
▁relation	-2336
ock	-2337
▁travaillé	-2338
urb	-2339
▁fou	-2340
▁faisant	-2341
▁qualité	-2342
quent	-2343
▁fourn	-2344
▁verre	-2345
▁faisait	-2346
▁viennent	-2347
cles	-2348
▁tri	-2349
▁visu	-2350
▁celles	-2351
asc	-2352
▁Ar	-2353
▁Im	-2354
▁nég	-2355
▁cœur	-2356
▁sole	-2357
▁scène	-2358
▁chercher	-2359
▁hau	-2360
▁raconter	-2361
dessus	-2362
▁mains	-2363
urope	-2364
▁gars	-2365
▁ram	-2366
▁vitesse	-2367
▁mour	-2368
▁chemin	-2369
▁devrions	-2370
▁téléphone	-2371
arm	-2372
pendant	-2373
▁soleil	-2374
▁Internet	-2375
▁quantité	-2376
istre	-2377
▁souh	-2378
▁réfléchir	-2379
nie	-2380
nies	-2381
▁risque	-2382
▁voitures	-2383
vée	-2384
équi	-2385
▁anti	-2386
▁marcher	-2387
▁coût	-2388
▁déch	-2389
▁outils	-2390
ologique	-2391
▁aliment	-2392
▁voulait	-2393
miner	-2394
▁Plus	-2395
▁fils	-2396
arer	-2397
▁potenti	-2398
▁conscience	-2399
▁modèles	-2400
▁pourriez	-2401
ape	-2402
ili	-2403
▁can	-2404
▁syn	-2405
▁tent	-2406
▁règles	-2407
▁continuer	-2408
leurs	-2409
▁papier	-2410
▁Avec	-2411
▁large	-2412
▁riches	-2413
▁langage	-2414
▁méc	-2415
iné	-2416
▁exist	-2417
▁espèces	-2418
▁cer	-2419
ack	-2420
eaux	-2421
▁effe	-2422
▁etc	-2423
▁confiance	-2424
environnement	-2425
çon	-2426
ondu	-2427
▁neur	-2428
▁preu	-2429
auvres	-2430
▁rendu	-2431
▁bureau	-2432
▁propri	-2433
▁pauvres	-2434
0.	-2435
ôp	-2436
▁champ	-2437
▁collè	-2438
▁durant	-2439
▁bâtiment	-2440
raî	-2441
▁cy	-2442
atie	-2443
onie	-2444
ormes	-2445
▁Etats	-2446
▁tendance	-2447
éni	-2448
▁glob	-2449
▁succès	-2450
pir	-2451
cter	-2452
ctive	-2453
▁demi	-2454
ith	-2455
ettez	-2456
▁Notre	-2457
▁utilisant	-2458
▁laborat	-2459
▁matière	-2460
êts	-2461
▁Tr	-2462
▁chau	-2463
▁perdu	-2464
▁région	-2465
▁poi	-2466
▁aura	-2467
▁rôle	-2468
▁surtout	-2469
fici	-2470
oyer	-2471
▁fini	-2472
demment	-2473
▁bonnes	-2474
▁savent	-2475
▁traitement	-2476
mm	-2477
tiss	-2478
▁étant	-2479
▁allait	-2480
▁vivent	-2481
▁attention	-2482
▁décl	-2483
▁zone	-2484
▁meilleurs	-2485
bres	-2486
▁Ici	-2487
▁bons	-2488
▁jeux	-2489
▁époque	-2490
novation	-2491
ast	-2492
▁Sh	-2493
▁utilise	-2494
▁conférence	-2495
▁recherches	-2496
▁révolution	-2497
▁.	-2498
appel	-2499
▁convain	-2500
▁ordinateurs	-2501
aise	-2502
ètre	-2503
▁seront	-2504
▁pouvaient	-2505
dit	-2506
▁Imagin	-2507
▁dépens	-2508
▁ouvert	-2509
expl	-2510
ulaire	-2511
▁zones	-2512
Je	-2513
▁géni	-2514
▁poser	-2515
▁prise	-2516
cemment	-2517
▁Sud	-2518
▁mam	-2519
imagin	-2520
▁moder	-2521
▁absolu	-2522
▁gag	-2523
▁gal	-2524
ardez	-2525
▁bras	-2526
▁accep	-2527
▁objets	-2528
économie	-2529
▁bac	-2530
aments	-2531
osition	-2532
uy	-2533
▁us	-2534
dustrie	-2535
ates	-2536
▁projets	-2537
▁découver	-2538
ède	-2539
▁11	-2540
▁stu	-2541
inois	-2542
▁détail	-2543
▁moyenne	-2544
▁génération	-2545
▁politiques	-2546
▁nu	-2547
▁rue	-2548
▁formes	-2549
ote	-2550
éti	-2551
vient	-2552
▁Goog	-2553
▁multi	-2554
▁rouge	-2555
agé	-2556
▁vérité	-2557
▁â	-2558
liquer	-2559
▁pratique	-2560
▁communaut	-2561
cien	-2562
orts	-2563
▁mécan	-2564
▁peine	-2565
▁Qui	-2566
▁source	-2567
▁extrêmement	-2568
import	-2569
▁types	-2570
▁concept	-2571
▁rencontré	-2572
▁por	-2573
▁fant	-2574
▁crée	-2575
▁déte	-2576
étaient	-2577
▁tel	-2578
mettre	-2579
▁trucs	-2580
▁message	-2581
enus	-2582
tons	-2583
lions	-2584
ographie	-2585
ètes	-2586
▁199	-2587
▁crise	-2588
organis	-2589
▁Certains	-2590
▁pourtant	-2591
ctr	-2592
▁général	-2593
uri	-2594
▁virus	-2595
▁sociaux	-2596
▁individu	-2597
où	-2598
▁cuis	-2599
▁surv	-2600
agné	-2601
fric	-2602
état	-2603
▁béné	-2604
▁faite	-2605
▁Google	-2606
▁capables	-2607
▁changements	-2608
▁str	-2609
ossible	-2610
▁rappel	-2611
▁sociétés	-2612
cent	-2613
▁dépend	-2614
ctivement	-2615
impression	-2616
gue	-2617
▁Oh	-2618
▁jet	-2619
▁Nord	-2620
▁kilom	-2621
▁espèce	-2622
▁représente	-2623
dire	-2624
euses	-2625
resse	-2626
▁mani	-2627
▁sept	-2628
▁dirige	-2629
▁efficace	-2630
▁Mal	-2631
▁reçu	-2632
expérience	-2633
rement	-2634
▁climatique	-2635
▁tâ	-2636
▁habit	-2637
▁Chaque	-2638
▁visage	-2639
▁période	-2640
ik	-2641
▁,	-2642
con	-2643
ligent	-2644
pi	-2645
▁60	-2646
▁Beau	-2647
titude	-2648
▁chans	-2649
▁objecti	-2650
▁découvrir	-2651
fois	-2652
istan	-2653
▁méth	-2654
▁instant	-2655
▁pétrole	-2656
he	-2657
▁vert	-2658
▁état	-2659
▁rassemb	-2660
▁prochaine	-2661
▁médicaments	-2662
ADN	-2663
aissance	-2664
matiques	-2665
▁internation	-2666
osé	-2667
▁enseign	-2668
▁Pendant	-2669
▁mauvaise	-2670
dam	-2671
anité	-2672
▁blanc	-2673
▁exemp	-2674
▁série	-2675
▁Imaginez	-2676
heur	-2677
▁uti	-2678
▁venu	-2679
allait	-2680
▁manger	-2681
▁symp	-2682
▁voie	-2683
▁suivre	-2684
la	-2685
tir	-2686
gène	-2687
▁associ	-2688
videmment	-2689
▁doute	-2690
▁imaginer	-2691
▁utilisent	-2692
▁tas	-2693
▁moyens	-2694
▁quarti	-2695
ash	-2696
▁Même	-2697
▁simil	-2698
▁créati	-2699
▁expériences	-2700
▁évolu	-2701
▁particip	-2702
▁201	-2703
▁prév	-2704
▁contrib	-2705
▁réaliser	-2706
▁conception	-2707
▁né	-2708
océan	-2709
▁droits	-2710
▁espace	-2711
▁Beaucoup	-2712
rie	-2713
mens	-2714
▁parties	-2715
éra	-2716
ctes	-2717
▁civ	-2718
▁citoy	-2719
▁couleur	-2720
▁plais	-2721
▁somme	-2722
▁compar	-2723
▁permis	-2724
▁relations	-2725
▁vas	-2726
▁collab	-2727
▁distrib	-2728
tic	-2729
▁chimi	-2730
yst	-2731
Inde	-2732
▁loi	-2733
avère	-2734
lle	-2735
assion	-2736
▁études	-2737
▁entreprise	-2738
▁phén	-2739
▁enreg	-2740
▁bactéri	-2741
▁absolument	-2742
▁80	-2743
acté	-2744
▁toi	-2745
▁croire	-2746
▁molécu	-2747
▁suffis	-2748
▁transf	-2749
après	-2750
▁vérit	-2751
▁savais	-2752
▁convers	-2753
▁million	-2754
▁éléments	-2755
▁récemment	-2756
▁Deux	-2757
▁pire	-2758
▁positi	-2759
▁social	-2760
▁permettre	-2761
▁expliquer	-2762
▁Jus	-2763
▁mém	-2764
▁pensais	-2765
▁totalement	-2766
▁Su	-2767
erté	-2768
▁lut	-2769
▁mur	-2770
▁fasc	-2771
▁Lorsque	-2772
eil	-2773
▁Inde	-2774
▁enfin	-2775
▁spect	-2776
▁étude	-2777
▁profes	-2778
▁appelée	-2779
▁conditions	-2780
lam	-2781
▁fac	-2782
▁identi	-2783
▁unique	-2784
Amérique	-2785
▁revenir	-2786
▁répondu	-2787
▁complexe	-2788
▁violence	-2789
▁production	-2790
▁uniquement	-2791
réh	-2792
hors	-2793
ides	-2794
ionn	-2795
▁vent	-2796
▁phénom	-2797
▁volont	-2798
▁Sur	-2799
▁capt	-2800
avenir	-2801
▁liste	-2802
▁disant	-2803
▁carbone	-2804
▁compassion	-2805
▁lesquelles	-2806
▁voi	-2807
▁confl	-2808
alisation	-2809
mid	-2810
▁let	-2811
▁meur	-2812
▁transformer	-2813
iment	-2814
rimer	-2815
▁gaz	-2816
▁finir	-2817
▁réuss	-2818
▁patient	-2819
▁chiffres	-2820
appr	-2821
dans	-2822
▁sexu	-2823
▁graph	-2824
orig	-2825
itude	-2826
▁analy	-2827
▁frapp	-2828
▁vieux	-2829
▁robots	-2830
▁répondre	-2831
▁fro	-2832
▁vraie	-2833
▁dispon	-2834
▁direction	-2835
▁orig	-2836
ctures	-2837
▁produis	-2838
élè	-2839
▁Mes	-2840
▁gri	-2841
▁soir	-2842
▁is	-2843
ustr	-2844
▁dès	-2845
paravant	-2846
▁financi	-2847
▁terrain	-2848
réci	-2849
▁inv	-2850
ption	-2851
élect	-2852
▁lead	-2853
▁sein	-2854
▁telle	-2855
▁langue	-2856
▁logici	-2857
gt	-2858
uler	-2859
▁fav	-2860
▁survi	-2861
▁terri	-2862
▁médias	-2863
alent	-2864
ordre	-2865
▁repro	-2866
▁intelligent	-2867
▁fact	-2868
▁Chris	-2869
▁écrire	-2870
▁deviennent	-2871
▁dist	-2872
▁connu	-2873
▁village	-2874
▁suivante	-2875
▁atteindre	-2876
af	-2877
amp	-2878
oser	-2879
espoir	-2880
▁impossible	-2881
▁communautés	-2882
cule	-2883
▁reç	-2884
ricité	-2885
▁glace	-2886
▁devait	-2887
▁longue	-2888
▁remarqu	-2889
▁pauvreté	-2890
ys	-2891
eng	-2892
▁pai	-2893
▁tôt	-2894
▁uns	-2895
▁modi	-2896
itaires	-2897
▁façons	-2898
▁do	-2899
▁huit	-2900
▁route	-2901
▁concer	-2902
▁bonheur	-2903
▁regardé	-2904
▁belle	-2905
▁Regardez	-2906
▁exemples	-2907
▁laboratoire	-2908
mos	-2909
riv	-2910
lique	-2911
▁laiss	-2912
▁plantes	-2913
▁position	-2914
▁développé	-2915
▁sentiment	-2916
▁16	-2917
agir	-2918
▁mél	-2919
▁atta	-2920
issage	-2921
▁police	-2922
▁stratég	-2923
zar	-2924
tien	-2925
▁décen	-2926
▁liberté	-2927
oré	-2928
▁cop	-2929
▁bord	-2930
▁exam	-2931
▁dimin	-2932
duction	-2933
▁Ok	-2934
▁étonn	-2935
▁création	-2936
ohn	-2937
vid	-2938
mbre	-2939
▁instru	-2940
▁démocratie	-2941
▁peup	-2942
▁gènes	-2943
▁service	-2944
rentissage	-2945
ram	-2946
dien	-2947
mble	-2948
▁dehors	-2949
▁familles	-2950
▁céré	-2951
▁grav	-2952
▁dessin	-2953
▁littéralement	-2954
liqué	-2955
▁coin	-2956
▁dites	-2957
entrepr	-2958
▁sociale	-2959
▁traiter	-2960
alités	-2961
▁solaire	-2962
▁fus	-2963
▁premières	-2964
▁construction	-2965
▁Fr	-2966
uclé	-2967
▁séqu	-2968
▁vend	-2969
▁accès	-2970
▁gagner	-2971
▁incroyablement	-2972
ma	-2973
▁forêt	-2974
▁influ	-2975
▁merci	-2976
▁soins	-2977
▁choisir	-2978
▁sup	-2979
aisse	-2980
▁clair	-2981
▁rempl	-2982
mat	-2983
onti	-2984
▁centr	-2985
▁forte	-2986
▁école	-2987
industrie	-2988
▁directement	-2989
anim	-2990
▁nav	-2991
▁code	-2992
▁parten	-2993
oss	-2994
▁cru	-2995
▁adul	-2996
▁aide	-2997
actions	-2998
▁esprit	-2999
▁écoles	-3000
▁fallait	-3001
innovation	-3002
cal	-3003
▁lois	-3004
ilités	-3005
avaient	-3006
▁médecine	-3007
ordinateur	-3008
▁utilisons	-3009
▁erre	-3010
vision	-3011
▁haute	-3012
▁tempér	-3013
▁échelle	-3014
heureusement	-3015
fié	-3016
géni	-3017
enfants	-3018
▁prenez	-3019
▁sauver	-3020
▁kilomètres	-3021
▁importantes	-3022
lée	-3023
▁14	-3024
erie	-3025
▁tap	-3026
▁écl	-3027
oiles	-3028
▁peau	-3029
▁extraordinaire	-3030
ub	-3031
mar	-3032
oxy	-3033
▁aim	-3034
▁John	-3035
▁phil	-3036
ositi	-3037
▁immé	-3038
▁bizar	-3039
▁dange	-3040
▁accomp	-3041
▁sentir	-3042
▁services	-3043
iser	-3044
▁cad	-3045
▁bate	-3046
▁cellule	-3047
▁membres	-3048
▁réduire	-3049
▁version	-3050
▁auparavant	-3051
▁possibilité	-3052
▁travaillent	-3053
▁doc	-3054
▁mob	-3055
▁clin	-3056
▁payer	-3057
▁chinois	-3058
▁importe	-3059
▁partage	-3060
▁réseaux	-3061
▁forc	-3062
▁prog	-3063
▁autom	-3064
▁organ	-3065
▁prennent	-3066
ulle	-3067
▁500	-3068
▁élè	-3069
▁matériaux	-3070
rim	-3071
▁emm	-3072
▁sug	-3073
issez	-3074
érons	-3075
▁dipl	-3076
▁nuclé	-3077
▁aspect	-3078
▁manque	-3079
▁morceau	-3080
▁machines	-3081
▁traditionn	-3082
del	-3083
ett	-3084
▁vivons	-3085
▁simples	-3086
▁contexte	-3087
▁protéger	-3088
oti	-3089
esti	-3090
lier	-3091
enseig	-3092
▁employ	-3093
▁acheter	-3094
▁dix	-3095
▁dég	-3096
▁grat	-3097
▁combin	-3098
▁prison	-3099
▁œu	-3100
apon	-3101
▁Cal	-3102
issant	-3103
ulation	-3104
▁ingéni	-3105
▁vivant	-3106
▁commencent	-3107
▁gouvernements	-3108
oû	-3109
▁17	-3110
resp	-3111
▁mou	-3112
▁stup	-3113
▁approche	-3114
▁Là	-3115
aujourd	-3116
▁pensée	-3117
▁suivant	-3118
▁pourrais	-3119
bo	-3120
ades	-3121
image	-3122
▁lent	-3123
atives	-3124
atures	-3125
actéris	-3126
▁entend	-3127
humanité	-3128
▁communi	-3129
▁secondes	-3130
▁nécessaire	-3131
chi	-3132
▁cat	-3133
▁Pers	-3134
▁Tous	-3135
▁faits	-3136
▁attend	-3137
▁commerci	-3138
tez	-3139
alie	-3140
delà	-3141
user	-3142
▁bus	-3143
ôpital	-3144
ception	-3145
échelle	-3146
▁arrière	-3147
▁caractéris	-3148
SA	-3149
ia	-3150
▁pê	-3151
land	-3152
▁ton	-3153
enait	-3154
ution	-3155
aliste	-3156
▁galax	-3157
▁mourir	-3158
▁puissance	-3159
▁solutions	-3160
▁effectivement	-3161
cas	-3162
allu	-3163
tées	-3164
▁...	-3165
▁boî	-3166
vidus	-3167
tenir	-3168
▁fronti	-3169
▁habitu	-3170
éh	-3171
oud	-3172
▁caf	-3173
▁requ	-3174
▁vacc	-3175
vention	-3176
chitecture	-3177
université	-3178
▁certainement	-3179
ené	-3180
▁Pro	-3181
▁bre	-3182
▁web	-3183
ormais	-3184
▁disons	-3185
▁instit	-3186
lication	-3187
▁professionn	-3188
▁paix	-3189
éricains	-3190
▁industri	-3191
▁Laissez	-3192
▁courant	-3193
▁étudier	-3194
▁som	-3195
indre	-3196
▁mode	-3197
▁vécu	-3198
▁panne	-3199
▁compét	-3200
▁opportun	-3201
arg	-3202
édi	-3203
inst	-3204
▁hor	-3205
▁pros	-3206
▁masse	-3207
▁combat	-3208
tissement	-3209
▁concerne	-3210
apprentissage	-3211
▁13	-3212
ynam	-3213
▁sil	-3214
▁chev	-3215
▁perd	-3216
▁ayant	-3217
▁proche	-3218
ensemble	-3219
électricité	-3220
▁pal	-3221
▁équ	-3222
▁priv	-3223
▁morts	-3224
▁encour	-3225
alog	-3226
▁capit	-3227
▁faible	-3228
▁continue	-3229
▁intéressante	-3230
▁éti	-3231
▁docu	-3232
▁souris	-3233
▁merveilleux	-3234
lem	-3235
▁bébé	-3236
▁sauv	-3237
▁justi	-3238
▁électr	-3239
▁progrès	-3240
▁fré	-3241
chant	-3242
▁nord	-3243
▁page	-3244
▁chant	-3245
▁neurones	-3246
▁professeur	-3247
▁atti	-3248
▁révé	-3249
▁sout	-3250
aurais	-3251
▁compagn	-3252
▁génétique	-3253
▁km	-3254
▁pil	-3255
▁chir	-3256
▁pied	-3257
▁émis	-3258
équipe	-3259
▁convainc	-3260
▁ray	-3261
▁reti	-3262
▁animal	-3263
▁grandi	-3264
▁publique	-3265
▁Is	-3266
éros	-3267
▁Ang	-3268
▁viens	-3269
▁terror	-3270
▁concern	-3271
veill	-3272
▁aime	-3273
▁chaî	-3274
▁émer	-3275
▁tourn	-3276
▁statis	-3277
▁corresp	-3278
▁ouv	-3279
▁ciel	-3280
aliser	-3281
▁étrang	-3282
▁collègues	-3283
▁90	-3284
onné	-3285
▁lis	-3286
▁sus	-3287
chent	-3288
▁corre	-3289
ligence	-3290
▁cartes	-3291
cs	-3292
aison	-3293
allais	-3294
▁génial	-3295
fg	-3296
log	-3297
uel	-3298
▁Ca	-3299
este	-3300
▁devoir	-3301
▁chanson	-3302
▁correspond	-3303
aw	-3304
ey	-3305
rées	-3306
▁oubli	-3307
▁retrouv	-3308
▁connaissance	-3309
▁faux	-3310
▁tirer	-3311
▁revenu	-3312
▁poisson	-3313
itation	-3314
▁tomber	-3315
lot	-3316
▁Ge	-3317
▁hy	-3318
sent	-3319
appro	-3320
▁Mars	-3321
▁bles	-3322
▁compréh	-3323
▁réponses	-3324
▁souvenir	-3325
▁trouvent	-3326
▁fabriquer	-3327
▁potentiel	-3328
pend	-3329
▁mous	-3330
▁sommet	-3331
Al	-3332
ane	-3333
lés	-3334
ibre	-3335
▁poids	-3336
▁vendre	-3337
▁anglais	-3338
ama	-3339
erm	-3340
roph	-3341
éhic	-3342
▁brill	-3343
▁entrer	-3344
▁garder	-3345
▁discours	-3346
importance	-3347
▁concevoir	-3348
erts	-3349
▁prêt	-3350
▁inqui	-3351
▁libre	-3352
▁valeurs	-3353
tés	-3354
ague	-3355
▁honn	-3356
▁rêve	-3357
▁sépar	-3358
▁tourner	-3359
ologiques	-3360
odes	-3361
▁ois	-3362
▁mang	-3363
▁court	-3364
▁arbres	-3365
▁effets	-3366
▁fascin	-3367
▁laissez	-3368
▁souhait	-3369
▁biologie	-3370
▁majorité	-3371
▁construis	-3372
▁décisions	-3373
▁198	-3374
▁rej	-3375
▁empê	-3376
▁débat	-3377
▁magnif	-3378
▁citoyens	-3379
▁entendre	-3380
▁to	-3381
acle	-3382
gnes	-3383
illi	-3384
▁gam	-3385
▁pat	-3386
améli	-3387
▁célè	-3388
uré	-3389
▁Se	-3390
indi	-3391
▁voulu	-3392
▁véhic	-3393
▁termin	-3394
▁Amérique	-3395
▁communication	-3396
▁lien	-3397
origine	-3398
▁numéro	-3399
▁pièces	-3400
▁revenus	-3401
▁portable	-3402
▁devraient	-3403
io	-3404
arc	-3405
▁symb	-3406
ombien	-3407
zaines	-3408
▁pousser	-3409
▁carrière	-3410
▁sexe	-3411
riques	-3412
endroit	-3413
▁classi	-3414
▁connex	-3415
▁destin	-3416
▁pouvions	-3417
▁trib	-3418
▁lancé	-3419
▁victi	-3420
▁voler	-3421
▁restau	-3422
▁leaders	-3423
▁désormais	-3424
rig	-3425
▁êtres	-3426
▁décision	-3427
▁fonctionner	-3428
fic	-3429
ime	-3430
▁Ste	-3431
▁sud	-3432
issons	-3433
antique	-3434
▁enseig	-3435
ry	-3436
ute	-3437
▁mâ	-3438
cipe	-3439
cope	-3440
▁val	-3441
atifs	-3442
▁poss	-3443
lément	-3444
▁conduit	-3445
▁campagne	-3446
▁puissent	-3447
▁économie	-3448
▁faisaient	-3449
alisme	-3450
attend	-3451
▁atteint	-3452
▁médecin	-3453
▁technique	-3454
▁facilement	-3455
▁permettent	-3456
dis	-3457
olé	-3458
▁21	-3459
trap	-3460
ésie	-3461
▁ign	-3462
▁édu	-3463
▁aband	-3464
▁parfait	-3465
ame	-3466
émie	-3467
▁aimer	-3468
▁contrôler	-3469
▁voulaient	-3470
Ar	-3471
laient	-3472
▁auxqu	-3473
aissent	-3474
▁imaginez	-3475
▁importants	-3476
▁essentiellement	-3477
abe	-3478
anz	-3479
ège	-3480
fghan	-3481
ister	-3482
▁mise	-3483
▁tuer	-3484
▁illus	-3485
▁Quelle	-3486
diatement	-3487
▁poissons	-3488
▁personnel	-3489
▁programmes	-3490
yl	-3491
▁bio	-3492
▁démont	-3493
eusement	-3494
▁mondial	-3495
▁présenter	-3496
sie	-3497
œil	-3498
ubli	-3499
▁indé	-3500
▁phras	-3501
▁adap	-3502
▁cens	-3503
▁prote	-3504
▁tenir	-3505
▁lesquels	-3506
éans	-3507
▁chef	-3508
▁manif	-3509
▁formid	-3510
ony	-3511
▁Th	-3512
▁lancer	-3513
▁actuellement	-3514
▁mathématiques	-3515
aj	-3516
▁24	-3517
qués	-3518
▁beauté	-3519
▁océans	-3520
▁supéri	-3521
▁devenue	-3522
▁perform	-3523
▁numérique	-3524
▁évidemment	-3525
▁entièrement	-3526
An	-3527
agent	-3528
▁amus	-3529
▁essayons	-3530
▁créativité	-3531
▁consommation	-3532
▁urb	-3533
urant	-3534
▁films	-3535
istance	-3536
▁forces	-3537
▁moderne	-3538
▁parlons	-3539
▁institutions	-3540
ules	-3541
▁Très	-3542
▁hors	-3543
vation	-3544
▁condu	-3545
agement	-3546
▁traite	-3547
▁verrez	-3548
▁mémoire	-3549
▁médecins	-3550
▁quartier	-3551
asser	-3552
▁bleu	-3553
▁étab	-3554
▁démar	-3555
▁plate	-3556
▁pleine	-3557
▁Combien	-3558
▁Personne	-3559
era	-3560
ley	-3561
▁Où	-3562
aider	-3563
trait	-3564
▁ryth	-3565
essayer	-3566
▁devais	-3567
▁passent	-3568
▁clairement	-3569
▁difficiles	-3570
emb	-3571
son	-3572
aume	-3573
empl	-3574
ambre	-3575
itant	-3576
▁pose	-3577
▁soud	-3578
▁dynam	-3579
▁suivi	-3580
environ	-3581
▁perdre	-3582
▁arrêter	-3583
▁besoins	-3584
▁magnifique	-3585
▁meilleures	-3586
▁70	-3587
orté	-3588
▁tort	-3589
rastru	-3590
tinent	-3591
▁puissant	-3592
▁ressembler	-3593
arrê	-3594
èque	-3595
▁idé	-3596
lever	-3597
▁quoti	-3598
▁contact	-3599
▁regardant	-3600
▁découverte	-3601
idé	-3602
ket	-3603
gner	-3604
▁neuf	-3605
▁bateau	-3606
▁départ	-3607
▁immédiatement	-3608
▁fen	-3609
▁fix	-3610
ressi	-3611
▁véri	-3612
onique	-3613
▁bébés	-3614
▁compagnie	-3615
▁noire	-3616
▁impact	-3617
mosphère	-3618
▁durable	-3619
▁moments	-3620
▁Mo	-3621
ards	-3622
tern	-3623
mique	-3624
osoph	-3625
▁bois	-3626
▁désir	-3627
▁limites	-3628
▁mesurer	-3629
▁distance	-3630
▁améliorer	-3631
▁complexes	-3632
▁fonctionn	-3633
▁formation	-3634
▁1,	-3635
érée	-3636
▁Cor	-3637
▁étrange	-3638
▁affaires	-3639
tell	-3640
▁dos	-3641
exist	-3642
▁séle	-3643
▁récup	-3644
▁connais	-3645
▁parlent	-3646
▁photograph	-3647
tat	-3648
▁soy	-3649
onstr	-3650
▁moteur	-3651
▁secteur	-3652
▁phénomène	-3653
▁température	-3654
ué	-3655
ige	-3656
inves	-3657
▁Pens	-3658
▁nomm	-3659
▁prim	-3660
itions	-3661
▁découv	-3662
▁vidéos	-3663
activité	-3664
extérieur	-3665
▁disaient	-3666
▁mouvements	-3667
ed	-3668
▁ta	-3669
▁pén	-3670
agnos	-3671
▁bomb	-3672
▁final	-3673
▁Europe	-3674
avantage	-3675
ana	-3676
ias	-3677
▁amb	-3678
entes	-3679
▁post	-3680
▁rivi	-3681
▁sauf	-3682
issait	-3683
▁seuls	-3684
▁entraî	-3685
▁prépar	-3686
▁mission	-3687
lications	-3688
▁différences	-3689
▁conséquences	-3690
istr	-3691
ypoth	-3692
▁pieds	-3693
▁plong	-3694
▁prêts	-3695
▁stres	-3696
▁circul	-3697
▁dimens	-3698
▁interv	-3699
▁contenu	-3700
▁plaisir	-3701
▁énergie	-3702
▁compréhension	-3703
hy	-3704
vés	-3705
▁té	-3706
auff	-3707
▁cos	-3708
▁précé	-3709
▁récomp	-3710
▁servir	-3711
▁élément	-3712
▁Cependant	-3713
▁'	-3714
ére	-3715
omes	-3716
▁has	-3717
adore	-3718
estre	-3719
▁caméra	-3720
▁marchés	-3721
▁bactéries	-3722
cr	-3723
▁Ph	-3724
▁300	-3725
▁radio	-3726
▁couvert	-3727
▁envoyer	-3728
▁risques	-3729
▁évident	-3730
▁ailleurs	-3731
▁principe	-3732
▁réaction	-3733
IH	-3734
eug	-3735
onf	-3736
umer	-3737
▁sin	-3738
▁boîte	-3739
▁riche	-3740
▁choisi	-3741
▁dimensions	-3742
ifor	-3743
▁Cet	-3744
▁Face	-3745
▁peuple	-3746
ick	-3747
tra	-3748
▁Lond	-3749
érences	-3750
▁malgré	-3751
▁sérieux	-3752
▁brû	-3753
▁rét	-3754
▁adop	-3755
ingéni	-3756
▁mange	-3757
▁diagnos	-3758
▁souviens	-3759
▁contraire	-3760
▁philosoph	-3761
▁plastique	-3762
érap	-3763
mières	-3764
oyaume	-3765
ration	-3766
▁conçu	-3767
▁Toutes	-3768
▁envoyé	-3769
▁histor	-3770
▁minute	-3771
▁descend	-3772
▁internet	-3773
▁profondément	-3774
▁Voy	-3775
▁cre	-3776
étudi	-3777
enfant	-3778
▁laisse	-3779
▁répand	-3780
▁couleurs	-3781
oty	-3782
xim	-3783
ieux	-3784
occup	-3785
ombres	-3786
▁coeur	-3787
▁vieil	-3788
▁distin	-3789
▁hasard	-3790
▁monter	-3791
▁perspe	-3792
▁signal	-3793
▁étoiles	-3794
apprendre	-3795
▁connaissez	-3796
acé	-3797
off	-3798
▁Br	-3799
▁ru	-3800
hous	-3801
▁café	-3802
▁afric	-3803
▁bouger	-3804
▁preuve	-3805
▁bizarre	-3806
▁passait	-3807
▁remarqué	-3808
▁responsabilité	-3809
gor	-3810
ende	-3811
atisf	-3812
▁garçon	-3813
▁passionn	-3814
▁médicament	-3815
ater	-3816
inos	-3817
▁savait	-3818
Internet	-3819
▁faisais	-3820
▁maisons	-3821
▁constitu	-3822
▁américain	-3823
▁rencontrer	-3824
▁conversation	-3825
eue	-3826
book	-3827
occu	-3828
oure	-3829
çant	-3830
▁peint	-3831
▁virtu	-3832
▁mainten	-3833
érit	-3834
▁flot	-3835
tation	-3836
▁diplô	-3837
▁inspi	-3838
▁prenons	-3839
▁pression	-3840
▁particules	-3841
architecture	-3842
ss	-3843
rak	-3844
quée	-3845
cessi	-3846
alistes	-3847
▁lignes	-3848
▁arrivent	-3849
▁comprend	-3850
▁logiciel	-3851
▁présentation	-3852
rot	-3853
▁Gu	-3854
resser	-3855
▁cardi	-3856
▁sujets	-3857
▁rappelle	-3858
fghanistan	-3859
▁naissance	-3860
DA	-3861
bl	-3862
exc	-3863
▁Nos	-3864
objet	-3865
▁élèves	-3866
▁appréci	-3867
▁inventé	-3868
▁transport	-3869
▁techniques	-3870
enn	-3871
oli	-3872
▁Tw	-3873
erce	-3874
▁Cong	-3875
▁fran	-3876
▁sold	-3877
▁cuisine	-3878
▁concentrer	-3879
cieux	-3880
urent	-3881
▁dedans	-3882
▁fabric	-3883
tiennent	-3884
▁passion	-3885
▁tableau	-3886
▁dizaines	-3887
▁montrent	-3888
▁occident	-3889
▁religion	-3890
▁véritable	-3891
▁Pre	-3892
▁VIH	-3893
▁anc	-3894
▁conç	-3895
▁multip	-3896
habitude	-3897
▁donnent	-3898
▁organisation	-3899
chés	-3900
▁âge	-3901
ciper	-3902
ressé	-3903
▁rues	-3904
▁défis	-3905
▁tâche	-3906
▁étape	-3907
▁étudié	-3908
▁chambre	-3909
attention	-3910
▁seraient	-3911
écran	-3912
arrive	-3913
atrice	-3914
conque	-3915
▁élevé	-3916
▁Londres	-3917
▁justice	-3918
▁cerveaux	-3919
▁observer	-3920
▁molécules	-3921
▁prochaines	-3922
▁électrique	-3923
▁compétences	-3924
▁âg	-3925
uite	-3926
▁Dav	-3927
▁maî	-3928
intel	-3929
▁Pensez	-3930
▁stress	-3931
▁Califor	-3932
oût	-3933
tif	-3934
étude	-3935
▁stim	-3936
Europe	-3937
chauff	-3938
▁bâtiments	-3939
▁regardons	-3940
▁complexité	-3941
cid	-3942
▁ir	-3943
antil	-3944
▁fonds	-3945
▁Depuis	-3946
▁archite	-3947
▁détails	-3948
▁logique	-3949
▁confront	-3950
▁derniers	-3951
▁sciences	-3952
▁diversité	-3953
▁nucléaire	-3954
quant	-3955
▁2000	-3956
▁gagné	-3957
▁gérer	-3958
▁laissé	-3959
▁Facebook	-3960
▁humaines	-3961
▁individus	-3962
▁chercheurs	-3963
▁protection	-3964
▁App	-3965
▁abord	-3966
▁ident	-3967
▁lieux	-3968
▁morte	-3969
housias	-3970
▁chaîne	-3971
▁quelles	-3972
▁matériel	-3973
▁planètes	-3974
▁définition	-3975
2,	-3976
uli	-3977
ulé	-3978
érés	-3979
▁blog	-3980
▁joue	-3981
▁pensait	-3982
▁régions	-3983
▁manifest	-3984
ind	-3985
▁Dr	-3986
gnée	-3987
▁rare	-3988
▁initi	-3989
▁divers	-3990
▁article	-3991
▁douleur	-3992
▁appareil	-3993
▁discussi	-3994
▁américaine	-3995
ase	-3996
▁Sa	-3997
quis	-3998
ropé	-3999
▁Fin	-4000
▁abe	-4001
▁clé	-4002
▁lyc	-4003
outez	-4004
▁posé	-4005
▁sugg	-4006
arrêter	-4007
▁satisf	-4008
▁conserv	-4009
ilisation	-4010
▁connaissons	-4011
lt	-4012
▁mut	-4013
▁frag	-4014
▁inse	-4015
▁tests	-4016
▁course	-4017
▁former	-4018
▁célèbre	-4019
jour	-4020
ores	-4021
appar	-4022
▁jard	-4023
lation	-4024
▁armes	-4025
▁utile	-4026
▁échou	-4027
▁devenus	-4028
▁appelons	-4029
▁programm	-4030
▁graphique	-4031
▁naturelle	-4032
▁Californie	-4033
▁fonctionnent	-4034
ood	-4035
▁évé	-4036
tisme	-4037
gorith	-4038
▁radic	-4039
▁Encore	-4040
▁déclar	-4041
▁envers	-4042
▁émotions	-4043
entreprise	-4044
▁structures	-4045
▁télévision	-4046
dro	-4047
ray	-4048
▁Bl	-4049
▁197	-4050
▁côte	-4051
▁vide	-4052
▁froid	-4053
égalité	-4054
▁colère	-4055
▁cérébr	-4056
▁rythme	-4057
▁méthode	-4058
▁commençons	-4059
5,	-4060
née	-4061
ots	-4062
pré	-4063
inte	-4064
oint	-4065
▁tre	-4066
▁avis	-4067
ection	-4068
▁chien	-4069
▁connaître	-4070
▁possibilités	-4071
▁pa	-4072
chée	-4073
▁sty	-4074
▁rêves	-4075
▁entour	-4076
▁recomm	-4077
▁fournir	-4078
▁artifici	-4079
▁critique	-4080
▁travaillons	-4081
ali	-4082
uits	-4083
▁Can	-4084
▁spati	-4085
▁chauss	-4086
▁origin	-4087
▁preuves	-4088
▁émotionn	-4089
pte	-4090
grés	-4091
areil	-4092
asses	-4093
▁magas	-4094
▁voient	-4095
▁déplacer	-4096
▁rencontre	-4097
▁Américains	-4098
▁fantastique	-4099
ano	-4100
▁CO	-4101
esse	-4102
rier	-4103
▁Mich	-4104
▁pont	-4105
▁ferme	-4106
▁accord	-4107
▁argent	-4108
imaginer	-4109
▁communiquer	-4110
▁organisations	-4111
,"	-4112
sc	-4113
illé	-4114
▁Son	-4115
usion	-4116
▁bruit	-4117
▁amener	-4118
▁impres	-4119
▁porter	-4120
▁chacune	-4121
▁déchets	-4122
▁puisque	-4123
▁détermin	-4124
▁réchauff	-4125
hs	-4126
bon	-4127
tait	-4128
▁cog	-4129
▁déli	-4130
casion	-4131
▁allés	-4132
▁ouver	-4133
ultures	-4134
utilise	-4135
▁adultes	-4136
ativement	-4137
olf	-4138
adap	-4139
▁Jam	-4140
ilibre	-4141
▁sites	-4142
▁ancien	-4143
▁Parfois	-4144
▁actions	-4145
▁compéti	-4146
▁dessous	-4147
▁toucher	-4148
usse	-4149
utri	-4150
▁rom	-4151
▁quas	-4152
▁auquel	-4153
▁croyez	-4154
▁satell	-4155
▁éviter	-4156
▁garçons	-4157
▁auraient	-4158
▁sélection	-4159
utilisation	-4160
▁expériment	-4161
▁35	-4162
ington	-4163
▁Japon	-4164
▁divis	-4165
▁innov	-4166
ologues	-4167
▁jambes	-4168
▁écouter	-4169
riculture	-4170
▁chimiques	-4171
▁mauvaises	-4172
informations	-4173
8,	-4174
quet	-4175
vons	-4176
▁San	-4177
outes	-4178
ublic	-4179
▁diap	-4180
atoire	-4181
▁Avant	-4182
▁oblig	-4183
▁tiers	-4184
▁déplace	-4185
▁enseignants	-4186
▁ja	-4187
cons	-4188
agnes	-4189
résil	-4190
▁choc	-4191
▁sché	-4192
▁zéro	-4193
impact	-4194
sements	-4195
▁Brésil	-4196
▁membre	-4197
▁évolué	-4198
▁cultures	-4199
▁document	-4200
▁formidable	-4201
ee	-4202
▁os	-4203
▁scol	-4204
▁récol	-4205
▁stock	-4206
▁augmente	-4207
▁décennies	-4208
▁retourner	-4209
lég	-4210
sui	-4211
▁Ex	-4212
▁Har	-4213
▁bud	-4214
▁tis	-4215
acités	-4216
isation	-4217
éremment	-4218
▁transpar	-4219
Université	-4220
9,	-4221
enue	-4222
effet	-4223
▁étiez	-4224
▁génome	-4225
▁venait	-4226
▁précédent	-4227
iew	-4228
nel	-4229
▁hi	-4230
anni	-4231
▁scul	-4232
▁menti	-4233
▁noirs	-4234
▁perman	-4235
▁décider	-4236
▁proches	-4237
▁remarque	-4238
▁signific	-4239
▁parfaitement	-4240
▁At	-4241
▁fol	-4242
▁aveug	-4243
ruption	-4244
▁métaph	-4245
▁conduire	-4246
▁capacités	-4247
--	-4248
▁196	-4249
▁curi	-4250
▁éloi	-4251
▁fallu	-4252
mission	-4253
▁danger	-4254
▁clients	-4255
▁apporter	-4256
▁dangereux	-4257
▁connaissent	-4258
▁suffisamment	-4259
sh	-4260
elez	-4261
onge	-4262
émin	-4263
▁budg	-4264
▁faud	-4265
▁avanc	-4266
▁cadre	-4267
▁conse	-4268
▁envie	-4269
hôpital	-4270
▁espaces	-4271
▁niveaux	-4272
▁demandez	-4273
▁supplément	-4274
▁différemment	-4275
▁statistiques	-4276
%.	-4277
cté	-4278
cun	-4279
rice	-4280
▁mig	-4281
▁vél	-4282
osyst	-4283
▁aper	-4284
▁Votre	-4285
▁avion	-4286
▁discu	-4287
▁parcour	-4288
aim	-4289
éter	-4290
itter	-4291
▁détr	-4292
▁charge	-4293
▁apprend	-4294
▁devriez	-4295
▁manières	-4296
▁pourcent	-4297
▁principes	-4298
▁produisent	-4299
até	-4300
mét	-4301
âte	-4302
▁Di	-4303
▁Du	-4304
lées	-4305
▁Char	-4306
▁guer	-4307
▁stade	-4308
▁titre	-4309
titution	-4310
▁objectif	-4311
▁étudiant	-4312
▁américains	-4313
▁concernant	-4314
▁organismes	-4315
▁ressemblent	-4316
lève	-4317
sant	-4318
▁tox	-4319
▁vul	-4320
▁bale	-4321
▁coûte	-4322
▁horri	-4323
ctivité	-4324
ptembre	-4325
▁aiment	-4326
▁remont	-4327
▁domaines	-4328
▁présente	-4329
atmosphère	-4330
▁compliqué	-4331
▁similaire	-4332
ares	-4333
chec	-4334
▁amp	-4335
▁mas	-4336
cence	-4337
inosau	-4338
▁bless	-4339
▁invis	-4340
▁dirais	-4341
▁impliqu	-4342
▁oiseaux	-4343
▁respect	-4344
▁soutien	-4345
▁abeilles	-4346
▁rappeler	-4347
▁sociales	-4348
▁classique	-4349
▁téléphones	-4350
Qu	-4351
ya	-4352
ity	-4353
▁Pl	-4354
çais	-4355
▁Rob	-4356
▁gui	-4357
andes	-4358
vités	-4359
▁parv	-4360
▁David	-4361
▁dérou	-4362
▁boulot	-4363
▁poursui	-4364
▁président	-4365
▁remarquable	-4366
rain	-4367
▁tex	-4368
naire	-4369
obser	-4370
▁chale	-4371
oxygène	-4372
▁Nation	-4373
▁dirait	-4374
▁inconn	-4375
▁mariage	-4376
▁obtenez	-4377
▁actuelle	-4378
▁victimes	-4379
▁voulions	-4380
▁stratégie	-4381
▁incroyables	-4382
1,	-4383
ave	-4384
inqui	-4385
▁bibli	-4386
▁direct	-4387
▁obtenu	-4388
▁réflex	-4389
▁secret	-4390
▁tester	-4391
▁parlait	-4392
▁profonde	-4393
▁reconnaître	-4394
lage	-4395
▁chap	-4396
▁flux	-4397
ulaires	-4398
▁tonnes	-4399
▁prochain	-4400
▁échantil	-4401
▁davantage	-4402
▁convaincre	-4403
nér	-4404
ube	-4405
ford	-4406
▁400	-4407
▁Man	-4408
armée	-4409
▁pollu	-4410
▁répar	-4411
▁altern	-4412
▁normal	-4413
▁capital	-4414
▁chirurg	-4415
▁passant	-4416
▁rentrer	-4417
▁créatures	-4418
▁alimentaire	-4419
▁principalement	-4420
imm	-4421
▁div	-4422
▁lar	-4423
orent	-4424
▁bris	-4425
▁pain	-4426
avions	-4427
▁fasse	-4428
▁maths	-4429
▁pages	-4430
▁vrais	-4431
diction	-4432
▁adoles	-4433
▁Royaume	-4434
▁conclus	-4435
▁lettres	-4436
▁retrouver	-4437
▁émissions	-4438
avec	-4439
ball	-4440
imes	-4441
▁Bill	-4442
▁perte	-4443
▁courbe	-4444
▁publié	-4445
▁conflit	-4446
▁décrire	-4447
▁finance	-4448
intelligence	-4449
▁informatique	-4450
usé	-4451
enses	-4452
▁Fran	-4453
▁boute	-4454
▁stand	-4455
▁journal	-4456
▁moindre	-4457
▁attendre	-4458
▁ressentir	-4459
▁Mc	-4460
▁PI	-4461
anda	-4462
▁Bro	-4463
▁Ken	-4464
alisé	-4465
lectu	-4466
oureux	-4467
▁liens	-4468
▁lutte	-4469
▁règle	-4470
▁tombe	-4471
▁climat	-4472
▁forêts	-4473
▁grosse	-4474
▁notion	-4475
▁presse	-4476
▁dinosau	-4477
▁install	-4478
▁mettent	-4479
▁considérer	-4480
▁connaissances	-4481
Oh	-4482
▁ha	-4483
âtre	-4484
accès	-4485
chons	-4486
▁occup	-4487
▁plaît	-4488
astroph	-4489
▁rappro	-4490
▁visite	-4491
▁possède	-4492
▁vouloir	-4493
▁accident	-4494
▁montagne	-4495
▁morceaux	-4496
▁biologique	-4497
▁déterminer	-4498
▁participer	-4499
her	-4500
tine	-4501
ueil	-4502
▁cool	-4503
▁mens	-4504
▁aient	-4505
▁massi	-4506
▁quels	-4507
piration	-4508
▁Twitter	-4509
▁rivière	-4510
▁artistes	-4511
▁perspective	-4512
▁professeurs	-4513
ls	-4514
ada	-4515
▁ap	-4516
mère	-4517
▁tum	-4518
athie	-4519
encer	-4520
estru	-4521
verse	-4522
▁coop	-4523
▁murs	-4524
▁sing	-4525
▁vaut	-4526
▁venue	-4527
▁couche	-4528
▁mettez	-4529
▁richesse	-4530
▁survivre	-4531
▁impressionn	-4532
▁précisément	-4533
▁responsable	-4534
▁comportements	-4535
cri	-4536
bout	-4537
outé	-4538
▁Mex	-4539
▁red	-4540
▁typ	-4541
▁Wash	-4542
▁brev	-4543
▁drap	-4544
▁bient	-4545
▁cycle	-4546
▁débar	-4547
▁frère	-4548
▁lance	-4549
▁lycée	-4550
▁arrêté	-4551
▁micros	-4552
opportun	-4553
▁arrivés	-4554
▁employés	-4555
dr	-4556
up	-4557
ppe	-4558
▁Ob	-4559
.000	-4560
▁Ben	-4561
▁chim	-4562
▁tels	-4563
▁chaud	-4564
teindre	-4565
▁réelle	-4566
▁vulnér	-4567
▁bientôt	-4568
lissement	-4569
▁considér	-4570
▁consiste	-4571
▁intellig	-4572
▁recevoir	-4573
▁surprise	-4574
▁principal	-4575
▁câ	-4576
Vous	-4577
jeun	-4578
▁arr	-4579
endez	-4580
▁rire	-4581
▁soin	-4582
impanz	-4583
▁Trois	-4584
▁danse	-4585
▁fémin	-4586
▁navig	-4587
augment	-4588
enaient	-4589
▁Quelqu	-4590
▁phrase	-4591
▁sortie	-4592
▁vaisse	-4593
▁quitter	-4594
▁trouvez	-4595
▁algorith	-4596
▁contient	-4597
▁semblent	-4598
▁appareils	-4599
▁enthousias	-4600
▁représentent	-4601
▁lè	-4602
umin	-4603
▁écr	-4604
otion	-4605
▁civi	-4606
▁fréqu	-4607
▁écriv	-4608
▁telles	-4609
▁meurent	-4610
▁remerci	-4611
▁sommeil	-4612
▁allaient	-4613
▁chimpanz	-4614
▁Washington	-4615
▁catastroph	-4616
2.	-4617
zz	-4618
▁î	-4619
ani	-4620
▁Me	-4621
▁SI	-4622
ulté	-4623
aurait	-4624
▁crimin	-4625
▁suffit	-4626
▁tourne	-4627
ze	-4628
ami	-4629
▁toil	-4630
▁catég	-4631
▁neuro	-4632
▁jardin	-4633
▁profit	-4634
▁volonté	-4635
▁conflits	-4636
▁intellectu	-4637
Le	-4638
aul	-4639
▁Or	-4640
chez	-4641
orge	-4642
▁enn	-4643
rient	-4644
▁agir	-4645
▁éval	-4646
▁domin	-4647
▁mille	-4648
ccident	-4649
▁batter	-4650
▁battre	-4651
▁ferait	-4652
▁menace	-4653
▁partis	-4654
▁aspects	-4655
▁connect	-4656
▁devrais	-4657
▁nourrir	-4658
▁souhaite	-4659
▁traverser	-4660
▁information	-4661
▁ro	-4662
lure	-4663
tive	-4664
▁Pet	-4665
▁nerv	-4666
▁amené	-4667
▁tissu	-4668
ormément	-4669
▁insectes	-4670
▁utilisés	-4671
▁transformation	-4672
Est	-4673
mon	-4674
win	-4675
▁45	-4676
▁Col	-4677
▁fig	-4678
oquer	-4679
▁auto	-4680
▁tiss	-4681
▁acheté	-4682
▁hypoth	-4683
▁marque	-4684
▁chaleur	-4685
▁intérêt	-4686
▁galaxies	-4687
▁entrepren	-4688
atta	-4689
ctif	-4690
vier	-4691
andis	-4692
endra	-4693
▁faim	-4694
existe	-4695
érance	-4696
▁autor	-4697
▁frais	-4698
▁musée	-4699
▁sable	-4700
▁bouche	-4701
▁sculpt	-4702
▁sombre	-4703
▁Pourtant	-4704
▁commerce	-4705
▁dispositi	-4706
agriculture	-4707
▁comprennent	-4708
7,	-4709
Is	-4710
no	-4711
gts	-4712
iés	-4713
▁Cl	-4714
oile	-4715
▁And	-4716
▁stat	-4717
▁héros	-4718
▁réfug	-4719
leterre	-4720
▁attrap	-4721
▁disais	-4722
▁effray	-4723
▁venant	-4724
▁revient	-4725
▁augmenter	-4726
▁dynamique	-4727
▁efficaces	-4728
▁disponibles	-4729
ume	-4730
fiant	-4731
▁chat	-4732
▁noms	-4733
▁évid	-4734
▁affec	-4735
▁centi	-4736
▁minus	-4737
illages	-4738
▁créent	-4739
▁doigts	-4740
▁erreur	-4741
▁lettre	-4742
▁connexion	-4743
▁mortalité	-4744
▁puissante	-4745
tré	-4746
anie	-4747
▁lever	-4748
▁signi	-4749
▁debout	-4750
▁décrit	-4751
▁régime	-4752
▁chances	-4753
▁content	-4754
▁rendent	-4755
▁économiques	-4756
▁généralement	-4757
étr	-4758
teur	-4759
▁eau	-4760
▁bloc	-4761
▁labo	-4762
▁affir	-4763
▁cogni	-4764
▁mener	-4765
▁Grande	-4766
▁chauff	-4767
▁locaux	-4768
▁appeler	-4769
▁chiffre	-4770
▁passage	-4771
▁énormément	-4772
La	-4773
cer	-4774
ive	-4775
▁2,	-4776
ject	-4777
acles	-4778
▁célé	-4779
▁gent	-4780
▁soup	-4781
▁tran	-4782
identi	-4783
▁aviez	-4784
▁magie	-4785
▁quitté	-4786
▁signaux	-4787
▁changent	-4788
▁cardiaque	-4789
enseignement	-4790
organisation	-4791
▁constamment	-4792
▁distribution	-4793
ha	-4794
osité	-4795
▁Rien	-4796
valent	-4797
▁infin	-4798
▁mères	-4799
▁sangu	-4800
arriver	-4801
▁fenêtre	-4802
▁populaire	-4803
▁portables	-4804
▁frontières	-4805
▁intelligents	-4806
▁MI	-4807
oyen	-4808
▁prép	-4809
idémie	-4810
tendez	-4811
▁circu	-4812
▁possé	-4813
ibilité	-4814
▁caract	-4815
▁affaire	-4816
▁paysage	-4817
▁suppose	-4818
▁continué	-4819
▁surveill	-4820
▁sûrement	-4821
▁spécifique	-4822
▁conférences	-4823
▁découvertes	-4824
▁merveilleuse	-4825
▁150	-4826
▁côt	-4827
tiens	-4828
invent	-4829
oivent	-4830
otique	-4831
▁intro	-4832
▁leçon	-4833
▁catégor	-4834
▁devaient	-4835
▁présence	-4836
▁propriété	-4837
▁automatique	-4838
dio	-4839
▁Mus	-4840
▁arm	-4841
erson	-4842
▁Rich	-4843
ologue	-4844
▁allée	-4845
▁carré	-4846
▁offici	-4847
▁ralent	-4848
▁terres	-4849
▁prototy	-4850
▁biblioth	-4851
▁utilisée	-4852
▁générations	-4853
abb	-4854
édé	-4855
▁Comm	-4856
▁sert	-4857
▁spir	-4858
▁bande	-4859
▁venus	-4860
ritanni	-4861
▁Prenez	-4862
▁destru	-4863
▁limite	-4864
▁ajouter	-4865
▁extrait	-4866
▁fourmis	-4867
▁pouviez	-4868
▁soldats	-4869
▁explorer	-4870
▁facteurs	-4871
esses	-4872
ortex	-4873
▁volu	-4874
ailles	-4875
oindre	-4876
rasser	-4877
▁Toute	-4878
▁culti	-4879
▁manip	-4880
▁style	-4881
▁intéri	-4882
▁national	-4883
▁terminer	-4884
▁trouvons	-4885
▁Malheureusement	-4886
abs	-4887
uns	-4888
isco	-4889
oirs	-4890
roir	-4891
éder	-4892
édie	-4893
▁Dar	-4894
▁éli	-4895
▁ball	-4896
▁fera	-4897
ellent	-4898
▁pointe	-4899
▁survie	-4900
ièmement	-4901
▁cherche	-4902
▁Quelques	-4903
▁disponible	-4904
▁enregistre	-4905
▁principale	-4906
4,	-4907
lav	-4908
ilier	-4909
▁myth	-4910
▁accro	-4911
▁arbre	-4912
▁local	-4913
▁vaccin	-4914
▁arrivée	-4915
▁regardent	-4916
▁travailleurs	-4917
itée	-4918
lise	-4919
ômes	-4920
avion	-4921
étaire	-4922
▁Celui	-4923
▁Moyen	-4924
▁venez	-4925
obtenir	-4926
oniques	-4927
▁famili	-4928
▁morale	-4929
▁bénéfici	-4930
▁Certaines	-4931
▁septembre	-4932
▁apprennent	-4933
▁fabrication	-4934
▁travaillant	-4935
▁malheureusement	-4936
▁Ré	-4937
irer	-4938
ôtre	-4939
ouvez	-4940
timis	-4941
estion	-4942
▁Franc	-4943
▁sages	-4944
▁souci	-4945
▁tient	-4946
arrière	-4947
atrième	-4948
▁privil	-4949
êtements	-4950
▁parlant	-4951
▁messages	-4952
▁évolution	-4953
ta	-4954
nés	-4955
▁Vi	-4956
effic	-4957
▁joué	-4958
▁revi	-4959
▁boule	-4960
▁magaz	-4961
▁pêche	-4962
▁action	-4963
▁conver	-4964
▁négoci	-4965
▁pourra	-4966
▁avancer	-4967
▁mélange	-4968
▁sources	-4969
intéresse	-4970
▁soutenir	-4971
▁continent	-4972
▁protéines	-4973
▁dirigeants	-4974
▁perception	-4975
▁intéressantes	-4976
oca	-4977
ola	-4978
oun	-4979
rin	-4980
érir	-4981
▁Nig	-4982
▁hom	-4983
▁pir	-4984
▁rav	-4985
aisons	-4986
▁côtés	-4987
▁douce	-4988
▁durée	-4989
▁experts	-4990
▁faibles	-4991
▁surpris	-4992
▁Première	-4993
▁semblait	-4994
▁nationale	-4995
▁responsables	-4996
▁internationale	-4997
MS	-4998
oux	-4999
èses	-5000
▁Los	-5001
enais	-5002
prits	-5003
▁juge	-5004
▁quant	-5005
▁téles	-5006
occuper	-5007
▁touche	-5008
▁langues	-5009
▁matériau	-5010
▁objectifs	-5011
▁légèrement	-5012
▁nécessaires	-5013
▁opportunité	-5014
▁Sp	-5015
État	-5016
▁PIB	-5017
analy	-5018
▁réve	-5019
▁Enfin	-5020
▁Juste	-5021
▁doigt	-5022
▁drôle	-5023
▁queue	-5024
ustralie	-5025
▁croient	-5026
▁erreurs	-5027
▁publics	-5028
▁physiques	-5029
▁corruption	-5030
▁dépression	-5031
▁correctement	-5032
▁Be	-5033
▁oh	-5034
rêts	-5035
▁tué	-5036
▁renf	-5037
▁parad	-5038
▁sympt	-5039
▁degrés	-5040
▁activité	-5041
▁terrible	-5042
▁considère	-5043
▁directeur	-5044
▁pensaient	-5045
▁possibles	-5046
▁référence	-5047
▁Ah	-5048
▁NA	-5049
auto	-5050
▁ore	-5051
ester	-5052
itaux	-5053
érant	-5054
▁nett	-5055
▁surf	-5056
▁Ouais	-5057
▁cruci	-5058
▁dents	-5059
▁garde	-5060
▁music	-5061
▁nommé	-5062
▁prises	-5063
▁réduit	-5064
érations	-5065
▁centres	-5066
▁raconte	-5067
▁intéressé	-5068
da	-5069
ié	-5070
we	-5071
oriz	-5072
rets	-5073
▁Min	-5074
▁pen	-5075
▁Mont	-5076
▁jouent	-5077
▁plante	-5078
▁accessi	-5079
▁microbes	-5080
▁lentement	-5081
▁montagnes	-5082
▁toilettes	-5083
▁collaboration	-5084
3,	-5085
ks	-5086
tier	-5087
usti	-5088
érées	-5089
▁Bang	-5090
▁coûts	-5091
▁musul	-5092
▁notes	-5093
▁trous	-5094
hétique	-5095
▁essais	-5096
▁malade	-5097
intéress	-5098
▁normale	-5099
▁séquence	-5100
▁ingénieurs	-5101
arb	-5102
▁75	-5103
▁zo	-5104
apes	-5105
père	-5106
▁oeu	-5107
▁tax	-5108
acent	-5109
achet	-5110
aitre	-5111
arité	-5112
▁Cent	-5113
▁Ceux	-5114
▁gagn	-5115
▁sons	-5116
▁honte	-5117
▁soyez	-5118
assurer	-5119
intérêt	-5120
▁cheveux	-5121
▁personnelle	-5122
rob	-5123
oncé	-5124
trer	-5125
▁195	-5126
▁Bos	-5127
▁nez	-5128
ropri	-5129
▁bour	-5130
▁fier	-5131
▁Angel	-5132
▁pluie	-5133
ministr	-5134
▁devions	-5135
▁clinique	-5136
▁générale	-5137
▁infrastru	-5138
▁personnage	-5139
ila	-5140
▁Jo	-5141
Pour	-5142
ouer	-5143
çait	-5144
▁ach	-5145
▁don	-5146
▁noy	-5147
artis	-5148
dique	-5149
iness	-5150
▁Cons	-5151
▁Paul	-5152
▁basé	-5153
▁coté	-5154
nivers	-5155
érapie	-5156
étique	-5157
▁nulle	-5158
▁cercle	-5159
▁Mexique	-5160
▁confort	-5161
▁efforts	-5162
▁réunion	-5163
▁essayant	-5164
▁indépend	-5165
mif	-5166
▁Ber	-5167
▁Sans	-5168
▁bais	-5169
▁esti	-5170
▁préd	-5171
▁amour	-5172
▁diver	-5173
▁serez	-5174
▁texte	-5175
▁assemb	-5176
▁énergé	-5177
▁conseil	-5178
▁vieille	-5179
▁auxquels	-5180
écl	-5181
arch	-5182
isse	-5183
mati	-5184
▁esc	-5185
▁foi	-5186
andic	-5187
erver	-5188
▁1000	-5189
▁Leur	-5190
▁ayons	-5191
▁détru	-5192
▁états	-5193
▁biolog	-5194
▁viande	-5195
▁souches	-5196
▁molécule	-5197
▁connecter	-5198
▁demandent	-5199
▁quotidien	-5200
▁électriques	-5201
atur	-5202
isti	-5203
mail	-5204
▁foss	-5205
▁joie	-5206
ensité	-5207
▁expos	-5208
▁vaste	-5209
▁double	-5210
▁grippe	-5211
▁privée	-5212
▁mesures	-5213
ographique	-5214
▁maintenir	-5215
▁éducation	-5216
▁combinaison	-5217
▁civilisation	-5218
gés	-5219
olly	-5220
ôtel	-5221
▁gène	-5222
▁éduc	-5223
assent	-5224
andicap	-5225
▁budget	-5226
▁poésie	-5227
▁amusant	-5228
▁autoris	-5229
▁réussir	-5230
améliorer	-5231
▁compliqu	-5232
▁enregist	-5233
▁existent	-5234
▁préoccup	-5235
▁chaussures	-5236
▁conséquent	-5237
ld	-5238
aill	-5239
ouse	-5240
▁reb	-5241
▁SIDA	-5242
▁aidé	-5243
▁Grand	-5244
▁repas	-5245
▁total	-5246
▁déclen	-5247
▁essaie	-5248
▁tâches	-5249
▁charbon	-5250
▁croyons	-5251
▁collabor	-5252
ingénierie	-5253
▁comprends	-5254
▁largement	-5255
▁quatrième	-5256
▁sensation	-5257
ix	-5258
gyp	-5259
mine	-5260
œurs	-5261
▁air	-5262
▁dér	-5263
cules	-5264
forme	-5265
▁astr	-5266
▁isol	-5267
▁vélo	-5268
arrête	-5269
jeuner	-5270
▁symét	-5271
ériques	-5272
▁demain	-5273
▁désert	-5274
▁recons	-5275
▁Richard	-5276
▁essayez	-5277
▁exploit	-5278
▁obtient	-5279
▁spécial	-5280
▁National	-5281
▁détecter	-5282
expression	-5283
▁autrement	-5284
Les	-5285
rès	-5286
ieur	-5287
▁mér	-5288
cents	-5289
emple	-5290
▁mené	-5291
▁scan	-5292
agnies	-5293
alisée	-5294
instein	-5295
▁consac	-5296
▁musici	-5297
▁partag	-5298
agissait	-5299
fication	-5300
▁esprits	-5301
▁dessiner	-5302
▁handicap	-5303
▁utilisées	-5304
▁rassembler	-5305
hip	-5306
len	-5307
ires	-5308
oule	-5309
▁MIT	-5310
▁dau	-5311
▁iss	-5312
agues	-5313
ieuse	-5314
▁note	-5315
ortent	-5316
▁Kenya	-5317
▁bouge	-5318
▁ignor	-5319
▁signe	-5320
▁dollar	-5321
▁mammif	-5322
▁attenti	-5323
▁pensées	-5324
▁théâtre	-5325
▁identité	-5326
▁journaux	-5327
▁compagnies	-5328
▁propriétés	-5329
▁similaires	-5330
▁ressemblait	-5331
▁He	-5332
▁lié	-5333
▁rat	-5334
accep	-5335
▁front	-5336
▁glaci	-5337
▁banque	-5338
▁donnée	-5339
▁miroir	-5340
▁triste	-5341
▁conduis	-5342
▁emplois	-5343
▁guerres	-5344
▁mécanique	-5345
▁vêtements	-5346
▁résolution	-5347
▁particulière	-5348
Et	-5349
ka	-5350
ara	-5351
eté	-5352
enci	-5353
▁rig	-5354
▁spe	-5355
▁tal	-5356
diale	-5357
▁lanc	-5358
▁trag	-5359
effond	-5360
▁biens	-5361
▁dauph	-5362
▁intui	-5363
▁jaune	-5364
▁renouv	-5365
▁souffr	-5366
écriture	-5367
▁complet	-5368
▁magasin	-5369
▁silence	-5370
▁travaux	-5371
▁méthodes	-5372
▁réussite	-5373
▁activités	-5374
orb	-5375
▁Ke	-5376
▁iP	-5377
olue	-5378
rimé	-5379
▁Gre	-5380
oient	-5381
▁Chac	-5382
▁couv	-5383
▁eaux	-5384
▁ennuy	-5385
▁rejet	-5386
▁portée	-5387
▁respir	-5388
▁joueurs	-5389
▁décennie	-5390
▁frontière	-5391
▁compétition	-5392
▁opportunités	-5393
▁fonctionnement	-5394
6,	-5395
ft	-5396
ht	-5397
ago	-5398
lor	-5399
run	-5400
èle	-5401
aint	-5402
cune	-5403
vard	-5404
▁mir	-5405
▁tab	-5406
quées	-5407
▁agré	-5408
▁bran	-5409
▁reli	-5410
▁toit	-5411
essaie	-5412
hommes	-5413
jectif	-5414
▁colon	-5415
▁gagne	-5416
▁prati	-5417
▁blancs	-5418
▁ouvrir	-5419
▁procéd	-5420
▁anciens	-5421
▁immense	-5422
▁ramener	-5423
▁bataille	-5424
▁reconnaiss	-5425
▁dî	-5426
gies	-5427
▁Sch	-5428
illet	-5429
▁Russ	-5430
▁batt	-5431
▁enle	-5432
▁mène	-5433
onniers	-5434
▁civile	-5435
▁drogue	-5436
▁frères	-5437
▁singes	-5438
▁Congrès	-5439
▁compter	-5440
▁mentale	-5441
▁souvenez	-5442
▁cependant	-5443
▁véhicules	-5444
▁discussion	-5445
▁fondamentale	-5446
▁réchauffement	-5447
gné	-5448
oot	-5449
sté	-5450
▁Ab	-5451
▁Dé	-5452
fiée	-5453
sour	-5454
gence	-5455
▁argu	-5456
▁perm	-5457
écrire	-5458
▁illég	-5459
akistan	-5460
▁aurons	-5461
▁nouvel	-5462
▁offrir	-5463
▁passés	-5464
astiques	-5465
▁gestion	-5466
▁grandir	-5467
▁hauteur	-5468
▁mettons	-5469
▁nombres	-5470
▁préserv	-5471
▁requins	-5472
▁sembler	-5473
▁lumières	-5474
▁transforme	-5475
▁traitements	-5476
fiés	-5477
romp	-5478
obile	-5479
▁mons	-5480
▁scén	-5481
entraî	-5482
▁Jusqu	-5483
▁grimp	-5484
▁infec	-5485
▁minim	-5486
▁tremb	-5487
▁allant	-5488
▁avenir	-5489
▁parent	-5490
▁disparu	-5491
▁gratuite	-5492
▁métaphore	-5493
▁opération	-5494
▁puissions	-5495
umé	-5496
assé	-5497
▁Lib	-5498
▁Sec	-5499
▁vin	-5500
lande	-5501
ramme	-5502
▁caus	-5503
▁hier	-5504
dienne	-5505
iction	-5506
▁Times	-5507
▁amène	-5508
ticiens	-5509
▁Public	-5510
▁ration	-5511
▁schéma	-5512
▁connaît	-5513
▁galaxie	-5514
▁longues	-5515
▁sagesse	-5516
ke	-5517
grer	-5518
ueur	-5519
▁cyc	-5520
habit	-5521
thèse	-5522
ultés	-5523
étend	-5524
▁obst	-5525
alisés	-5526
ordonn	-5527
▁liqui	-5528
▁recyc	-5529
▁écran	-5530
exploit	-5531
▁champs	-5532
▁courir	-5533
▁donnez	-5534
▁essaye	-5535
▁suppos	-5536
▁tissus	-5537
▁parfaite	-5538
▁descendre	-5539
▁fonctions	-5540
▁investiss	-5541
▁remplacer	-5542
▁relativement	-5543
ky	-5544
don	-5545
isé	-5546
urr	-5547
▁ve	-5548
▁cab	-5549
agine	-5550
matis	-5551
▁réci	-5552
▁rédu	-5553
eubles	-5554
▁agric	-5555
▁subst	-5556
▁tiens	-5557
anglais	-5558
envoyer	-5559
ôpitaux	-5560
▁attent	-5561
▁artiste	-5562
▁forment	-5563
▁liquide	-5564
▁prouver	-5565
▁voisins	-5566
▁troubles	-5567
▁publicité	-5568
▁quasiment	-5569
▁normalement	-5570
▁technologique	-5571
gée	-5572
iki	-5573
acés	-5574
fait	-5575
oqué	-5576
▁Tur	-5577
▁Web	-5578
ville	-5579
▁cart	-5580
▁soph	-5581
sieurs	-5582
▁monte	-5583
▁stupé	-5584
▁passée	-5585
▁pousse	-5586
▁Angeles	-5587
▁feuille	-5588
▁réparer	-5589
▁écosyst	-5590
▁ancêtres	-5591
▁panneaux	-5592
▁cliniques	-5593
▁The	-5594
diens	-5595
ignons	-5596
études	-5597
▁biais	-5598
▁nutri	-5599
▁plans	-5600
▁verte	-5601
essence	-5602
▁aimons	-5603
▁cheval	-5604
▁tenter	-5605
▁étapes	-5606
▁positif	-5607
expliquer	-5608
▁articles	-5609
▁augmenté	-5610
▁retrouve	-5611
▁sophisti	-5612
opportunité	-5613
sp	-5614
asp	-5615
cop	-5616
ham	-5617
▁NASA	-5618
▁ridi	-5619
quette	-5620
▁maxim	-5621
▁plant	-5622
anément	-5623
▁dessins	-5624
▁globale	-5625
▁culturel	-5626
▁quantique	-5627
▁réflexion	-5628
▁identifier	-5629
▁situations	-5630
roc	-5631
vir	-5632
▁23	-5633
▁Sal	-5634
▁cul	-5635
▁via	-5636
▁Perm	-5637
▁prét	-5638
▁rang	-5639
▁trad	-5640
▁maman	-5641
▁optim	-5642
▁privé	-5643
entends	-5644
▁auront	-5645
▁rouges	-5646
▁prédire	-5647
▁visages	-5648
existence	-5649
▁Francisco	-5650
▁couverture	-5651
▁extraordinaires	-5652
com	-5653
mier	-5654
uels	-5655
vées	-5656
▁lun	-5657
lable	-5658
▁cade	-5659
▁cous	-5660
▁dure	-5661
ctives	-5662
▁crime	-5663
▁George	-5664
▁avance	-5665
▁discip	-5666
▁pierre	-5667
▁résist	-5668
▁totale	-5669
▁heureuse	-5670
▁implique	-5671
▁remettre	-5672
▁bouteille	-5673
▁chimpanzés	-5674
▁collection	-5675
▁dinosaures	-5676
▁Afghanistan	-5677
den	-5678
érie	-5679
évit	-5680
idées	-5681
œuvre	-5682
cienne	-5683
ements	-5684
▁croit	-5685
▁recul	-5686
▁systé	-5687
▁évène	-5688
▁œuvre	-5689
exemple	-5690
▁Canada	-5691
▁locale	-5692
▁parole	-5693
▁résolu	-5694
▁gouvern	-5695
▁terminé	-5696
▁interpré	-5697
▁modifier	-5698
▁médicaux	-5699
▁pourrons	-5700
équivalent	-5701
▁conclusion	-5702
amin	-5703
king	-5704
mont	-5705
uste	-5706
▁and	-5707
▁rur	-5708
▁devi	-5709
▁bleue	-5710
▁créée	-5711
▁cyber	-5712
▁poème	-5713
▁autonom	-5714
▁facteur	-5715
▁médical	-5716
▁restent	-5717
▁complète	-5718
▁hôpitaux	-5719
▁habitants	-5720
▁quartiers	-5721
▁Finalement	-5722
▁composants	-5723
▁performance	-5724
uté	-5725
ôme	-5726
ario	-5727
éral	-5728
▁ADN	-5729
fices	-5730
ituel	-5731
▁James	-5732
▁bases	-5733
▁envis	-5734
▁human	-5735
instant	-5736
▁dispos	-5737
▁emploi	-5738
▁imprim	-5739
▁prends	-5740
▁routes	-5741
▁dangere	-5742
▁ouverte	-5743
onnements	-5744
▁explique	-5745
▁retraite	-5746
▁savaient	-5747
▁véhicule	-5748
▁condition	-5749
▁fascinant	-5750
▁mécanisme	-5751
▁tradition	-5752
nez	-5753
uir	-5754
▁Te	-5755
ingt	-5756
ennes	-5757
▁plat	-5758
▁balle	-5759
▁beaux	-5760
▁troup	-5761
▁ballon	-5762
issement	-5763
▁accepté	-5764
▁gravité	-5765
▁nerveux	-5766
▁observé	-5767
▁vivants	-5768
▁déjeuner	-5769
▁horrible	-5770
▁Permettez	-5771
▁commencez	-5772
▁convaincu	-5773
▁pourcentage	-5774
▁mathématique	-5775
ly	-5776
▁Gl	-5777
▁Wh	-5778
▁lâ	-5779
anth	-5780
fice	-5781
omét	-5782
▁bét	-5783
▁nan	-5784
▁pel	-5785
cepti	-5786
icago	-5787
▁liés	-5788
animal	-5789
▁jeter	-5790
▁phase	-5791
▁poche	-5792
▁serre	-5793
chnolog	-5794
utation	-5795
▁Darwin	-5796
▁intégr	-5797
▁rempli	-5798
▁visuel	-5799
▁volume	-5800
agissent	-5801
▁Chicago	-5802
▁savions	-5803
▁Anderson	-5804
▁faudrait	-5805
▁peinture	-5806
▁renouvel	-5807
▁réfugiés	-5808
▁utilisez	-5809
▁encourage	-5810
▁forcément	-5811
▁résistance	-5812
▁sentiments	-5813
▁Deuxièmement	-5814
▁utilisateurs	-5815
Non	-5816
dés	-5817
▁Big	-5818
▁Com	-5819
▁méd	-5820
▁brut	-5821
▁date	-5822
▁doub	-5823
▁gang	-5824
▁Allez	-5825
▁maîtr	-5826
▁métal	-5827
▁chiens	-5828
▁invité	-5829
▁serais	-5830
▁tandis	-5831
approche	-5832
entendre	-5833
▁soudain	-5834
▁Pakistan	-5835
▁concepts	-5836
▁empêcher	-5837
▁fossiles	-5838
▁venaient	-5839
▁transformé	-5840
▁personnages	-5841
▁Premièrement	-5842
▁sérieusement	-5843
▁conversations	-5844
ays	-5845
fie	-5846
lie	-5847
vin	-5848
▁hu	-5849
▁py	-5850
abol	-5851
ctur	-5852
▁gig	-5853
érité	-5854
▁acte	-5855
▁amie	-5856
▁avoc	-5857
▁subs	-5858
▁sûre	-5859
enture	-5860
▁sport	-5861
▁âgées	-5862
▁baisse	-5863
▁europé	-5864
▁rendez	-5865
▁utiles	-5866
▁voisin	-5867
Pourquoi	-5868
▁moteurs	-5869
▁organes	-5870
▁énormes	-5871
▁montrant	-5872
▁enseigner	-5873
▁précision	-5874
▁symptômes	-5875
▁conséquence	-5876
▁représenter	-5877
▁surveillance	-5878
▁naturellement	-5879
rid	-5880
tie	-5881
▁22	-5882
extr	-5883
osse	-5884
▁Moi	-5885
▁bul	-5886
oncer	-5887
rants	-5888
▁perç	-5889
▁unes	-5890
dedans	-5891
▁chimie	-5892
▁parlez	-5893
occasion	-5894
▁panneau	-5895
▁citation	-5896
▁détruire	-5897
▁spectacle	-5898
▁comprenons	-5899
▁dispositif	-5900
▁terrorisme	-5901
▁partenaires	-5902
▁consommateurs	-5903
ael	-5904
gin	-5905
tte	-5906
▁BG	-5907
itre	-5908
▁Dis	-5909
▁Mil	-5910
andid	-5911
euble	-5912
tives	-5913
échec	-5914
▁grot	-5915
▁lait	-5916
▁synt	-5917
▁chefs	-5918
▁estim	-5919
▁sucre	-5920
▁vague	-5921
▁actuel	-5922
▁adulte	-5923
▁auprès	-5924
▁cortex	-5925
▁désesp	-5926
▁matern	-5927
▁rentre	-5928
appelait	-5929
▁blanche	-5930
atteindre	-5931
▁standard	-5932
▁restaurant	-5933
ice	-5934
rom	-5935
▁GP	-5936
ader	-5937
mans	-5938
mons	-5939
▁alé	-5940
▁lac	-5941
▁pun	-5942
hique	-5943
▁gout	-5944
▁modé	-5945
▁ping	-5946
▁basée	-5947
▁degré	-5948
▁excep	-5949
▁grave	-5950
▁France	-5951
▁candid	-5952
▁causes	-5953
▁furent	-5954
▁limité	-5955
▁propor	-5956
▁téléch	-5957
acifique	-5958
ainement	-5959
▁circons	-5960
▁enfance	-5961
▁spectac	-5962
▁station	-5963
▁modernes	-5964
▁souvenirs	-5965
▁instruments	-5966
▁applications	-5967
▁représentation	-5968
5.	-5969
▁bu	-5970
wood	-5971
éras	-5972
▁fau	-5973
▁pla	-5974
Homme	-5975
arrêt	-5976
enser	-5977
urgie	-5978
▁tire	-5979
entrée	-5980
essaye	-5981
▁ciném	-5982
▁moléc	-5983
▁patri	-5984
▁réser	-5985
▁tombé	-5986
▁voire	-5987
▁belles	-5988
▁créons	-5989
▁courage	-5990
▁grosses	-5991
▁excitant	-5992
▁intérêts	-5993
▁interview	-5994
▁application	-5995
▁destruction	-5996
▁populations	-5997
▁reconnaissance	-5998
line	-5999
orce	-6000
▁600	-6001
▁art	-6002
▁bid	-6003
▁gre	-6004
dames	-6005
▁biom	-6006
▁myst	-6007
▁génie	-6008
▁intit	-6009
▁moral	-6010
▁rende	-6011
▁squel	-6012
▁écout	-6013
▁Regard	-6014
▁fleurs	-6015
▁inféri	-6016
▁chimique	-6017
▁logiciels	-6018
▁puissants	-6019
▁auxquelles	-6020
▁récompense	-6021
▁surprenant	-6022
▁disparaître	-6023
▁transmettre	-6024
▁énergétique	-6025
▁personnalité	-6026
NG	-6027
iler	-6028
tifs	-6029
égét	-6030
▁pic	-6031
influ	-6032
quons	-6033
table	-6034
▁dorm	-6035
▁foie	-6036
▁goût	-6037
▁suit	-6038
▁Steve	-6039
▁aperçu	-6040
▁oublié	-6041
▁rayons	-6042
estation	-6043
▁cherché	-6044
▁honnête	-6045
▁magique	-6046
▁siècles	-6047
▁Mondiale	-6048
▁batterie	-6049
▁étonnant	-6050
efficacité	-6051
▁designers	-6052
▁leadership	-6053
▁terroristes	-6054
hés	-6055
ney	-6056
org	-6057
main	-6058
▁dig	-6059
allée	-6060
oleil	-6061
▁Park	-6062
▁lamp	-6063
auteur	-6064
iennes	-6065
▁siège	-6066
▁sympa	-6067
▁leçons	-6068
▁market	-6069
▁placer	-6070
▁talent	-6071
▁tumeur	-6072
▁élevés	-6073
▁Harvard	-6074
▁donnant	-6075
▁inspiré	-6076
▁sourire	-6077
▁voyager	-6078
équilibre	-6079
▁provient	-6080
▁diagnostic	-6081
▁instrument	-6082
▁militaires	-6083
▁fondamental	-6084
▁bibliothèque	-6085
go	-6086
chir	-6087
hist	-6088
once	-6089
▁194	-6090
▁Val	-6091
▁jol	-6092
▁orb	-6093
hydro	-6094
rosci	-6095
▁foot	-6096
▁glis	-6097
▁lune	-6098
▁atter	-6099
▁magni	-6100
▁pharm	-6101
▁végét	-6102
êtement	-6103
▁cacher	-6104
▁inspir	-6105
▁motifs	-6106
▁drogues	-6107
▁appropri	-6108
▁britanni	-6109
▁excellent	-6110
▁transition	-6111
Il	-6112
do	-6113
▁ul	-6114
berg	-6115
ctre	-6116
ouvé	-6117
riss	-6118
▁Hig	-6119
▁tes	-6120
▁sond	-6121
▁tiré	-6122
▁mètre	-6123
▁pouss	-6124
▁thème	-6125
ouvelle	-6126
▁Boston	-6127
▁Pouvez	-6128
▁accélé	-6129
▁découp	-6130
▁exposé	-6131
▁retard	-6132
▁reçoit	-6133
▁apporté	-6134
▁aurions	-6135
▁drapeau	-6136
▁définir	-6137
▁contrain	-6138
▁fabriqué	-6139
▁vérifier	-6140
▁appellent	-6141
imagination	-6142
▁historique	-6143
▁profondeur	-6144
▁augmentation	-6145
bio	-6146
ica	-6147
acts	-6148
allé	-6149
▁œil	-6150
cides	-6151
itent	-6152
titut	-6153
usses	-6154
▁Quoi	-6155
▁arts	-6156
entiel	-6157
estres	-6158
▁lende	-6159
▁prosp	-6160
▁usine	-6161
▁étend	-6162
▁mondes	-6163
▁paraly	-6164
ications	-6165
▁Bonjour	-6166
▁majeure	-6167
▁sortent	-6168
▁spectre	-6169
partement	-6170
▁business	-6171
▁ressenti	-6172
▁pollution	-6173
▁réactions	-6174
▁satellite	-6175
▁artistique	-6176
▁reproduire	-6177
▁magnifiques	-6178
▁intelligente	-6179
Ou	-6180
Ang	-6181
Oui	-6182
ush	-6183
orld	-6184
radi	-6185
éloi	-6186
ôles	-6187
▁Dan	-6188
▁Gal	-6189
▁ast	-6190
anges	-6191
chées	-6192
▁assi	-6193
▁enne	-6194
▁occu	-6195
▁pile	-6196
▁Super	-6197
▁jambe	-6198
▁poste	-6199
▁Guerre	-6200
▁Voyons	-6201
▁bouton	-6202
▁condam	-6203
▁fauteu	-6204
▁pingou	-6205
objectif	-6206
▁chanter	-6207
▁commune	-6208
▁docteur	-6209
▁interro	-6210
▁remonte	-6211
▁scanner	-6212
▁espérons	-6213
▁feuilles	-6214
▁influenc	-6215
▁magazine	-6216
▁lendemain	-6217
▁mammifères	-6218
▁journaliste	-6219
▁probabilité	-6220
investissement	-6221
▁99	-6222
▁Sy	-6223
▁gê	-6224
allè	-6225
ries	-6226
▁Wal	-6227
onnés	-6228
▁aimé	-6229
▁dieu	-6230
▁enqu	-6231
▁path	-6232
▁pure	-6233
▁surp	-6234
agerie	-6235
▁aurez	-6236
▁boite	-6237
▁chute	-6238
▁essai	-6239
▁infir	-6240
▁tromp	-6241
acheter	-6242
▁connue	-6243
▁courte	-6244
▁dialog	-6245
▁nuages	-6246
▁repous	-6247
▁vertic	-6248
▁Nations	-6249
▁effectu	-6250
▁stupide	-6251
▁Einstein	-6252
▁centrale	-6253
▁conclure	-6254
▁discuter	-6255
▁démonstr	-6256
▁publiques	-6257
▁économies	-6258
▁génétiques	-6259
▁motivation	-6260
▁permettant	-6261
▁souffrance	-6262
▁débarrasser	-6263
▁photographie	-6264
▁supplémentaires	-6265
hu	-6266
lon	-6267
▁PD	-6268
ardi	-6269
▁tém	-6270
aises	-6271
angle	-6272
gnées	-6273
▁Isra	-6274
▁inti	-6275
ulsion	-6276
▁Frank	-6277
▁ajout	-6278
▁assur	-6279
▁avais	-6280
▁bulle	-6281
▁neige	-6282
▁Russie	-6283
▁Soleil	-6284
▁global	-6285
▁inévit	-6286
▁respec	-6287
▁seules	-6288
▁étoile	-6289
▁appliqu	-6290
▁signifi	-6291
▁vaccins	-6292
▁centaine	-6293
▁investis	-6294
▁neurosci	-6295
▁avantages	-6296
▁pratiques	-6297
▁événement	-6298
▁difficulté	-6299
▁naturelles	-6300
▁physiquement	-6301
▁om	-6302
Asie	-6303
agés	-6304
ingue	-6305
▁canc	-6306
▁cell	-6307
▁diag	-6308
▁éléph	-6309
cidents	-6310
▁pareil	-6311
▁serons	-6312
▁venons	-6313
empathie	-6314
identité	-6315
▁Charles	-6316
▁Michael	-6317
▁caméras	-6318
▁pourrez	-6319
▁procédé	-6320
▁sentent	-6321
▁traject	-6322
▁présenté	-6323
▁fréquence	-6324
▁mathémati	-6325
▁biologiques	-6326
▁industrielle	-6327
▁of	-6328
Nous	-6329
isté	-6330
mité	-6331
inion	-6332
nelle	-6333
organ	-6334
outil	-6335
▁cord	-6336
▁gren	-6337
▁intr	-6338
▁ours	-6339
dition	-6340
naires	-6341
▁nuage	-6342
▁océan	-6343
▁recev	-6344
autisme	-6345
éritage	-6346
▁auriez	-6347
▁réguli	-6348
▁créatif	-6349
▁diriger	-6350
▁franche	-6351
▁préféré	-6352
▁équipes	-6353
▁longueur	-6354
▁organisé	-6355
▁préparer	-6356
▁militaire	-6357
▁quantités	-6358
▁récupérer	-6359
▁élections	-6360
▁impression	-6361
▁difficultés	-6362
▁sk	-6363
onal	-6364
oter	-6365
vait	-6366
érop	-6367
▁Dès	-6368
ander	-6369
igner	-6370
ismes	-6371
rovis	-6372
▁flex	-6373
▁fête	-6374
▁mamm	-6375
▁pron	-6376
▁sœur	-6377
▁inuti	-6378
aliment	-6379
chement	-6380
énormes	-6381
▁espoir	-6382
▁pattes	-6383
▁contemp	-6384
▁couches	-6385
▁défense	-6386
▁investir	-6387
▁pensions	-6388
▁vieilles	-6389
▁quiconque	-6390
▁importance	-6391
▁poursuivre	-6392
▁apparemment	-6393
▁circulation	-6394
ike	-6395
cend	-6396
obel	-6397
▁Ban	-6398
▁liv	-6399
▁sor	-6400
idité	-6401
treet	-6402
▁Wiki	-6403
▁banc	-6404
▁fich	-6405
ansion	-6406
ercice	-6407
▁Aussi	-6408
▁avéré	-6409
▁banli	-6410
▁favor	-6411
▁magné	-6412
▁proje	-6413
▁vingt	-6414
retagne	-6415
▁défaut	-6416
▁explos	-6417
▁stimul	-6418
▁touché	-6419
▁tourné	-6420
▁tropic	-6421
onstruire	-6422
▁protéine	-6423
▁fondation	-6424
▁prototype	-6425
▁reçoivent	-6426
▁réduction	-6427
▁partenaire	-6428
▁entrepreneurs	-6429
1.	-6430
gs	-6431
yr	-6432
lub	-6433
▁eh	-6434
aman	-6435
erte	-6436
▁Ess	-6437
▁Mad	-6438
▁dim	-6439
▁flu	-6440
▁prê	-6441
sière	-6442
ènent	-6443
▁Irak	-6444
▁Vrai	-6445
▁mets	-6446
▁saut	-6447
▁céléb	-6448
▁immun	-6449
▁incap	-6450
▁resté	-6451
endrait	-6452
▁aident	-6453
▁réserv	-6454
▁Quelque	-6455
▁graines	-6456
▁baleines	-6457
▁capteurs	-6458
▁diminuer	-6459
▁dépenser	-6460
▁probable	-6461
▁invisible	-6462
▁marketing	-6463
▁remarquer	-6464
▁trouverez	-6465
▁vaisseaux	-6466
▁algorithmes	-6467
▁psychologie	-6468
▁professionnels	-6469
ira	-6470
més	-6471
▁Ha	-6472
▁Ro	-6473
acée	-6474
crit	-6475
haut	-6476
▁ath	-6477
▁Stan	-6478
▁écri	-6479
Orient	-6480
▁fleur	-6481
▁foule	-6482
▁orient	-6483
▁vagues	-6484
▁amélior	-6485
▁calculs	-6486
▁hôpital	-6487
▁retirer	-6488
▁électro	-6489
▁amoureux	-6490
▁chansons	-6491
▁combusti	-6492
▁suscepti	-6493
▁visuelle	-6494
▁caractère	-6495
▁chirurgie	-6496
▁politiciens	-6497
▁pratiquement	-6498
▁véritablement	-6499
ium	-6500
ung	-6501
▁Av	-6502
▁Eu	-6503
▁Hé	-6504
hone	-6505
olat	-6506
▁dén	-6507
enreg	-6508
ières	-6509
▁atte	-6510
▁golf	-6511
▁inég	-6512
▁juri	-6513
▁sain	-6514
▁soie	-6515
▁vain	-6516
▁épau	-6517
emploi	-6518
entend	-6519
▁japon	-6520
▁liées	-6521
▁lourd	-6522
▁frustr	-6523
▁signes	-6524
▁solide	-6525
▁central	-6526
▁donnait	-6527
▁entrain	-6528
▁garanti	-6529
▁libérer	-6530
▁avantage	-6531
▁médicale	-6532
▁positive	-6533
▁villages	-6534
▁dimension	-6535
▁collective	-6536
▁électronique	-6537
eek	-6538
esc	-6539
gme	-6540
old	-6541
érez	-6542
▁GPS	-6543
▁ras	-6544
gypte	-6545
miers	-6546
▁Fond	-6547
▁fati	-6548
▁mout	-6549
▁pomp	-6550
reinte	-6551
▁Paris	-6552
▁Selon	-6553
▁World	-6554
▁escal	-6555
▁offre	-6556
▁passi	-6557
▁tente	-6558
ulteurs	-6559
▁attrib	-6560
▁moelle	-6561
▁polici	-6562
▁prévis	-6563
▁statut	-6564
Occident	-6565
abilités	-6566
▁parallè	-6567
▁suggère	-6568
▁surmont	-6569
▁puissiez	-6570
▁combattre	-6571
▁influence	-6572
▁exposition	-6573
▁ordinaires	-6574
▁spécifiques	-6575
adé	-6576
abes	-6577
oler	-6578
ottes	-6579
▁ayez	-6580
▁diam	-6581
▁mété	-6582
▁trau	-6583
▁vote	-6584
▁vues	-6585
▁épar	-6586
▁Allem	-6587
▁Heure	-6588
▁mâles	-6589
adapter	-6590
▁client	-6591
▁emprun	-6592
▁joueur	-6593
▁territ	-6594
ressions	-6595
▁acteurs	-6596
▁emmener	-6597
▁passons	-6598
▁salaire	-6599
▁accepter	-6600
▁circonst	-6601
▁oreilles	-6602
▁Regardons	-6603
▁carburant	-6604
▁commercial	-6605
▁travaillait	-6606
▁radicalement	-6607
▁nécessairement	-6608
▁traditionnelle	-6609
laud	-6610
midi	-6611
▁bri	-6612
▁mys	-6613
aites	-6614
èdent	-6615
▁Thom	-6616
▁coul	-6617
▁gasp	-6618
▁liée	-6619
miques	-6620
omique	-6621
▁domes	-6622
▁mesur	-6623
▁mises	-6624
▁prévu	-6625
Comment	-6626
analyse	-6627
animaux	-6628
▁chaise	-6629
▁salles	-6630
itations	-6631
▁lecture	-6632
▁raisonn	-6633
▁commande	-6634
▁présents	-6635
▁réfléchi	-6636
▁trouvait	-6637
▁événements	-6638
Bon	-6639
eth	-6640
hér	-6641
empê	-6642
▁Ser	-6643
▁fur	-6644
amine	-6645
▁fous	-6646
▁mail	-6647
espèce	-6648
ouille	-6649
écoute	-6650
▁arabe	-6651
▁décid	-6652
▁formé	-6653
▁toile	-6654
imagine	-6655
▁cinéma	-6656
▁vraies	-6657
▁générer	-6658
▁muscles	-6659
▁observe	-6660
▁réserve	-6661
infrastru	-6662
▁annivers	-6663
▁essayent	-6664
▁expliqué	-6665
▁respirer	-6666
▁retrouvé	-6667
▁connexions	-6668
▁continuent	-6669
▁capitalisme	-6670
▁économistes	-6671
by	-6672
gi	-6673
ott	-6674
▁0,	-6675
▁ok	-6676
oine	-6677
ontr	-6678
rine	-6679
éval	-6680
▁250	-6681
▁Seu	-6682
▁crâ	-6683
▁sép	-6684
▁vac	-6685
oubli	-6686
tiers	-6687
▁text	-6688
▁trom	-6689
accomp	-6690
▁Celle	-6691
▁cible	-6692
▁géant	-6693
▁oppos	-6694
▁ordre	-6695
écouter	-6696
éricain	-6697
▁cadeau	-6698
▁corail	-6699
▁pilote	-6700
▁apporte	-6701
▁concurr	-6702
▁diplôme	-6703
▁comprenez	-6704
▁profondes	-6705
▁progressi	-6706
▁microscope	-6707
▁travaillais	-6708
NU	-6709
aver	-6710
uent	-6711
▁fum	-6712
▁mun	-6713
quait	-6714
▁ence	-6715
▁puce	-6716
▁émet	-6717
abilis	-6718
esseur	-6719
oriser	-6720
▁coups	-6721
▁dossi	-6722
▁voies	-6723
▁chasse	-6724
▁claire	-6725
▁collis	-6726
▁paraît	-6727
▁trajet	-6728
▁assurer	-6729
▁portent	-6730
▁sentais	-6731
▁visible	-6732
▁français	-6733
▁partenari	-6734
Afghanistan	-6735
▁littérature	-6736
8.	-6737
En	-6738
ju	-6739
hor	-6740
▁pâ	-6741
▁Tex	-6742
▁mul	-6743
▁sté	-6744
apper	-6745
estes	-6746
intes	-6747
ouest	-6748
▁blan	-6749
▁perp	-6750
ençons	-6751
quille	-6752
▁désas	-6753
▁dîner	-6754
▁foyer	-6755
▁média	-6756
▁primi	-6757
▁surve	-6758
anthrop	-6759
engager	-6760
ueillir	-6761
▁agents	-6762
▁centim	-6763
▁intens	-6764
▁regret	-6765
▁saison	-6766
▁diction	-6767
▁pensant	-6768
▁Nouvelle	-6769
▁connecté	-6770
▁scolaire	-6771
▁bénéfices	-6772
▁considéré	-6773
▁diapositi	-6774
▁provenant	-6775
▁artificielle	-6776
ck	-6777
ala	-6778
ifs	-6779
▁Co	-6780
▁Sc	-6781
guer	-6782
▁Sci	-6783
▁not	-6784
▁roi	-6785
▁tol	-6786
aucun	-6787
éraux	-6788
▁Port	-6789
▁aéri	-6790
▁bref	-6791
▁pair	-6792
▁épin	-6793
▁Inter	-6794
▁archi	-6795
▁motif	-6796
▁plage	-6797
▁sinon	-6798
▁tapis	-6799
▁vente	-6800
érateur	-6801
▁Street	-6802
▁assise	-6803
▁contro	-6804
▁réunir	-6805
▁trafic	-6806
exprimer	-6807
internet	-6808
▁bureaux	-6809
▁locales	-6810
▁raconté	-6811
▁rapides	-6812
▁symbole	-6813
hydrogène	-6814
▁agréable	-6815
▁docteurs	-6816
▁pourront	-6817
▁profiter	-6818
▁conscient	-6819
▁multiples	-6820
▁rejoindre	-6821
▁supérieur	-6822
▁télescope	-6823
▁automatiquement	-6824
oft	-6825
ouT	-6826
▁65	-6827
anes	-6828
▁Gen	-6829
▁Rev	-6830
▁fre	-6831
▁pes	-6832
oxyde	-6833
usage	-6834
licité	-6835
▁chron	-6836
▁quali	-6837
▁rares	-6838
royable	-6839
▁Nature	-6840
▁détest	-6841
▁mobile	-6842
▁sentez	-6843
ollywood	-6844
▁Prenons	-6845
▁colonie	-6846
▁comprom	-6847
▁réalise	-6848
uellement	-6849
▁créature	-6850
▁retourné	-6851
▁transmet	-6852
▁curiosité	-6853
▁développe	-6854
inspiration	-6855
▁démonstration	-6856
▁personnellement	-6857
Eh	-6858
cé	-6859
▁27	-6860
▁PM	-6861
▁ah	-6862
anou	-6863
▁Mic	-6864
▁née	-6865
▁Voix	-6866
▁doul	-6867
▁dégr	-6868
▁traî	-6869
ouTube	-6870
ouvoir	-6871
ultime	-6872
▁Corée	-6873
▁bidon	-6874
▁expon	-6875
▁loint	-6876
▁vendu	-6877
▁étais	-6878
▁évent	-6879
enseign	-6880
▁active	-6881
▁atomes	-6882
▁observ	-6883
▁sphère	-6884
arctique	-6885
▁classes	-6886
▁curieux	-6887
▁prenant	-6888
▁aliments	-6889
▁attendez	-6890
▁collègue	-6891
▁essentiel	-6892
▁encourager	-6893
▁quelconque	-6894
exploitation	-6895
▁anniversaire	-6896
▁journalistes	-6897
gl	-6898
axe	-6899
arry	-6900
dess	-6901
rime	-6902
moins	-6903
▁Lune	-6904
▁diab	-6905
▁perf	-6906
▁plaf	-6907
▁sûrs	-6908
anvier	-6909
attent	-6910
intégr	-6911
lables	-6912
souris	-6913
▁Aucun	-6914
▁Voyez	-6915
▁censé	-6916
▁persu	-6917
appeler	-6918
titudes	-6919
érément	-6920
▁Chacun	-6921
▁antibio	-6922
▁aveugle	-6923
▁connait	-6924
▁poumons	-6925
▁suivent	-6926
opération	-6927
tarctique	-6928
▁calculer	-6929
▁rappelez	-6930
▁rarement	-6931
▁partagent	-6932
▁transports	-6933
▁gratuitement	-6934
▁transparence	-6935
▁circonstances	-6936
hib	-6937
lan	-6938
▁Bi	-6939
▁Sm	-6940
arth	-6941
bert	-6942
gées	-6943
isés	-6944
rage	-6945
tile	-6946
umes	-6947
grédi	-6948
▁City	-6949
▁guér	-6950
▁bombe	-6951
▁décès	-6952
▁entré	-6953
▁inhab	-6954
▁kilos	-6955
▁piano	-6956
▁recru	-6957
▁attach	-6958
▁coraux	-6959
▁désolé	-6960
▁fruits	-6961
▁jusque	-6962
▁mérite	-6963
▁traité	-6964
▁indique	-6965
▁ingrédi	-6966
▁évoluer	-6967
▁Vraiment	-6968
▁ancienne	-6969
▁comparer	-6970
▁ministre	-6971
▁sexuelle	-6972
▁énergies	-6973
▁documents	-6974
▁enregistré	-6975
▁imagination	-6976
▁participation	-6977
▁professionnel	-6978
▁électroniques	-6979
At	-6980
ina	-6981
▁Do	-6982
lète	-6983
médi	-6984
ouff	-6985
▁pul	-6986
▁voc	-6987
▁ère	-6988
gnent	-6989
ouill	-6990
ésité	-6991
▁Alex	-6992
▁Avez	-6993
▁Souv	-6994
▁doct	-6995
▁levé	-6996
avance	-6997
orient	-6998
▁Afric	-6999
▁appuy	-7000
▁démén	-7001
▁finit	-7002
▁placé	-7003
▁pyram	-7004
▁refro	-7005
▁écras	-7006
▁étern	-7007
scurité	-7008
▁créant	-7009
▁explor	-7010
▁requin	-7011
▁sauter	-7012
▁densité	-7013
▁fournit	-7014
▁malades	-7015
▁modélis	-7016
▁nations	-7017
▁secrets	-7018
▁souffle	-7019
▁analyser	-7020
▁intitulé	-7021
▁rapports	-7022
▁diagnosti	-7023
▁minuscule	-7024
▁accessible	-7025
▁franchement	-7026
▁Heureusement	-7027
▁heureusement	-7028
▁réfléchissez	-7029
ca	-7030
ONU	-7031
▁od	-7032
acte	-7033
comm	-7034
ince	-7035
▁Dés	-7036
▁Asie	-7037
▁arme	-7038
▁renv	-7039
▁vict	-7040
allons	-7041
taient	-7042
▁cents	-7043
▁paras	-7044
▁prête	-7045
▁sacri	-7046
▁seuil	-7047
▁épous	-7048
atoires	-7049
urgence	-7050
▁Thomas	-7051
▁confir	-7052
▁métier	-7053
Bretagne	-7054
éanmoins	-7055
▁interne	-7056
▁plafond	-7057
▁remplis	-7058
▁soigner	-7059
▁jeunesse	-7060
▁apprenons	-7061
▁financière	-7062
ministration	-7063
▁développent	-7064
▁participants	-7065
▁potentiellement	-7066
3.	-7067
avi	-7068
tig	-7069
île	-7070
▁As	-7071
arme	-7072
eria	-7073
heim	-7074
hent	-7075
▁dor	-7076
▁foc	-7077
▁pub	-7078
▁tue	-7079
uelle	-7080
▁Prés	-7081
▁hack	-7082
▁nage	-7083
▁payé	-7084
acteur	-7085
olique	-7086
▁basse	-7087
▁boire	-7088
▁envah	-7089
▁résol	-7090
atrices	-7091
chestre	-7092
étudier	-7093
▁cordes	-7094
▁courag	-7095
▁déclin	-7096
▁record	-7097
▁réagir	-7098
▁soyons	-7099
▁Chinois	-7100
▁Quelles	-7101
▁analyse	-7102
▁composé	-7103
▁concert	-7104
▁donnons	-7105
▁attaques	-7106
▁naturels	-7107
▁parcours	-7108
▁remonter	-7109
▁ridicule	-7110
enregistre	-7111
▁accomplir	-7112
▁croyances	-7113
▁extérieur	-7114
▁interagir	-7115
▁optimiste	-7116
▁tendances	-7117
▁chirurgien	-7118
▁contribuer	-7119
▁expression	-7120
▁identiques	-7121
▁stratégies	-7122
▁adolescents	-7123
▁laboratoires	-7124
▁systématique	-7125
AR	-7126
ata	-7127
ela	-7128
inv	-7129
orp	-7130
▁Ac	-7131
▁Ros	-7132
accro	-7133
zaine	-7134
▁Camb	-7135
▁pert	-7136
▁poly	-7137
▁relâ	-7138
udisme	-7139
▁Autre	-7140
▁chaos	-7141
▁marqu	-7142
▁serai	-7143
▁acquis	-7144
▁blague	-7145
▁envoie	-7146
▁fabule	-7147
▁posséd	-7148
▁procès	-7149
▁précip	-7150
▁saisir	-7151
▁tempor	-7152
▁élevée	-7153
▁comparé	-7154
▁récente	-7155
▁talents	-7156
ouverture	-7157
▁fauteuil	-7158
▁vivaient	-7159
▁interacti	-7160
▁développés	-7161
▁numériques	-7162
▁principaux	-7163
augmentation	-7164
▁trajectoire	-7165
4.	-7166
orv	-7167
▁Ed	-7168
honn	-7169
oyez	-7170
roup	-7171
vage	-7172
▁Mac	-7173
▁USA	-7174
▁féd	-7175
ablir	-7176
ience	-7177
onnez	-7178
ètent	-7179
▁dent	-7180
▁sacs	-7181
▁îles	-7182
images	-7183
uation	-7184
verser	-7185
▁allem	-7186
▁barre	-7187
▁forts	-7188
▁match	-7189
▁nôtre	-7190
▁tours	-7191
▁Robert	-7192
▁couper	-7193
▁décomp	-7194
▁jouets	-7195
▁pharmac	-7196
influence	-7197
▁apparaît	-7198
▁dauphins	-7199
▁faisions	-7200
▁malheure	-7201
▁réserves	-7202
▁demandant	-7203
▁financier	-7204
▁ingénieur	-7205
▁religieux	-7206
exploration	-7207
▁productivité	-7208
▁contrairement	-7209
uve	-7210
vel	-7211
▁3,	-7212
▁Pe	-7213
▁gâ	-7214
cide	-7215
lige	-7216
ître	-7217
▁Sam	-7218
▁gel	-7219
▁onc	-7220
▁san	-7221
teurs	-7222
unité	-7223
étape	-7224
▁quête	-7225
▁unité	-7226
artiste	-7227
tements	-7228
▁fausse	-7229
▁frappé	-7230
▁montée	-7231
issaient	-7232
▁attaque	-7233
▁mangent	-7234
▁servent	-7235
important	-7236
▁conseils	-7237
▁diverses	-7238
▁Pacifique	-7239
▁intéresse	-7240
▁équilibre	-7241
▁satellites	-7242
▁interactions	-7243
▁échantillons	-7244
▁caractéristique	-7245
Tu	-7246
▁32	-7247
▁36	-7248
▁Bu	-7249
Iran	-7250
opie	-7251
▁Rép	-7252
▁cur	-7253
▁még	-7254
Islam	-7255
agers	-7256
checs	-7257
▁affi	-7258
▁clés	-7259
▁dame	-7260
ancien	-7261
ieuses	-7262
éviter	-7263
▁Suède	-7264
▁chass	-7265
▁décol	-7266
▁gamin	-7267
▁monté	-7268
▁quart	-7269
appréci	-7270
diaques	-7271
▁diplom	-7272
▁effort	-7273
▁instin	-7274
▁portes	-7275
ventions	-7276
▁attirer	-7277
▁impliqué	-7278
▁portrait	-7279
▁réunions	-7280
Angleterre	-7281
▁demandais	-7282
▁demandait	-7283
▁musiciens	-7284
▁permettez	-7285
▁sculpture	-7286
▁sensibles	-7287
▁cardiaques	-7288
▁construite	-7289
▁opérations	-7290
▁supérieure	-7291
▁concentration	-7292
▁vieillissement	-7293
.,	-7294
dy	-7295
xi	-7296
uie	-7297
▁Ec	-7298
▁sm	-7299
arez	-7300
téro	-7301
▁PDG	-7302
▁gay	-7303
▁ner	-7304
gnité	-7305
ignon	-7306
intro	-7307
ridge	-7308
▁Ghan	-7309
▁ador	-7310
▁dédi	-7311
▁héli	-7312
▁lucr	-7313
▁mâle	-7314
▁race	-7315
onnent	-7316
rosoft	-7317
▁polio	-7318
▁refus	-7319
dessous	-7320
étaires	-7321
▁tombée	-7322
▁tribus	-7323
▁usines	-7324
entielle	-7325
traction	-7326
▁imaginé	-7327
▁métabol	-7328
▁précise	-7329
▁préfère	-7330
▁vouliez	-7331
individus	-7332
▁astronom	-7333
▁lunettes	-7334
▁ralentir	-7335
▁théories	-7336
▁transmis	-7337
▁traverse	-7338
▁catégorie	-7339
▁existence	-7340
▁organisme	-7341
▁pingouins	-7342
▁reconstru	-7343
▁Commençons	-7344
▁réputation	-7345
▁philosophie	-7346
Or	-7347
RM	-7348
▁sh	-7349
aria	-7350
ling	-7351
▁10,	-7352
▁mai	-7353
▁pur	-7354
▁ten	-7355
acées	-7356
copes	-7357
nique	-7358
▁acqu	-7359
▁aigu	-7360
▁casc	-7361
▁crev	-7362
entrer	-7363
instru	-7364
▁Essay	-7365
▁coupe	-7366
▁mérit	-7367
▁remet	-7368
▁reten	-7369
▁équip	-7370
▁Martin	-7371
▁studio	-7372
▁volant	-7373
mination	-7374
▁femelle	-7375
▁optimis	-7376
▁marchent	-7377
▁primaire	-7378
▁paludisme	-7379
▁financiers	-7380
▁nucléaires	-7381
informatique	-7382
▁architectes	-7383
▁secondaires	-7384
▁universités	-7385
▁échantillon	-7386
▁reconstruire	-7387
ôts	-7388
▁Ju	-7389
erai	-7390
ison	-7391
▁50%	-7392
▁Bar	-7393
▁SMS	-7394
▁Tom	-7395
roite	-7396
▁Adam	-7397
▁alli	-7398
▁amen	-7399
▁corp	-7400
▁delà	-7401
▁exig	-7402
▁obsé	-7403
▁quad	-7404
humour	-7405
ignent	-7406
économ	-7407
▁Grâce	-7408
▁folle	-7409
▁récep	-7410
▁sauvé	-7411
▁sœurs	-7412
▁témoi	-7413
▁vache	-7414
affaire	-7415
obésité	-7416
▁commis	-7417
▁indien	-7418
▁paradi	-7419
▁pollen	-7420
▁renfor	-7421
▁surviv	-7422
▁échoué	-7423
inventer	-7424
ventionn	-7425
épidémie	-7426
▁circuit	-7427
▁dignité	-7428
▁infanti	-7429
▁mystère	-7430
▁parking	-7431
obscurité	-7432
▁désastre	-7433
▁traduire	-7434
▁obstacles	-7435
▁souffrent	-7436
▁supporter	-7437
▁permanence	-7438
▁innovations	-7439
▁prisonniers	-7440
▁intéressants	-7441
▁international	-7442
▁infrastructures	-7443
ust	-7444
ctée	-7445
hatt	-7446
ulte	-7447
▁flè	-7448
▁mén	-7449
▁vap	-7450
alise	-7451
cevez	-7452
âteau	-7453
▁barb	-7454
▁pare	-7455
▁élab	-7456
▁élég	-7457
hattan	-7458
▁déchi	-7459
▁gamme	-7460
▁prédi	-7461
▁sacré	-7462
▁singe	-7463
▁ajouté	-7464
▁boucle	-7465
▁goutte	-7466
▁mascul	-7467
▁poussé	-7468
appareil	-7469
▁arrivez	-7470
▁associé	-7471
▁banques	-7472
▁négatif	-7473
▁révéler	-7474
▁support	-7475
▁survécu	-7476
Australie	-7477
▁argument	-7478
▁démontré	-7479
▁dépenses	-7480
▁mondiaux	-7481
▁occasion	-7482
▁Manhattan	-7483
▁Microsoft	-7484
▁connectés	-7485
▁robotique	-7486
▁apparaître	-7487
▁confrontés	-7488
▁mécanismes	-7489
▁simulation	-7490
▁principales	-7491
▁tremblement	-7492
infrastructure	-7493
!"	-7494
jug	-7495
gram	-7496
outh	-7497
▁800	-7498
▁Sil	-7499
▁cib	-7500
▁fib	-7501
▁glu	-7502
▁nid	-7503
▁tun	-7504
▁Iran	-7505
▁clav	-7506
▁irré	-7507
▁pren	-7508
▁redé	-7509
▁sois	-7510
▁sure	-7511
dépend	-7512
illons	-7513
interv	-7514
çaient	-7515
▁Congo	-7516
▁Obama	-7517
▁accue	-7518
▁cesse	-7519
▁devin	-7520
▁horiz	-7521
ondance	-7522
▁Durant	-7523
▁apport	-7524
▁carrés	-7525
▁descri	-7526
▁faveur	-7527
▁feront	-7528
▁poulet	-7529
▁psychi	-7530
▁rendue	-7531
▁revoir	-7532
▁intégré	-7533
▁oublier	-7534
▁racines	-7535
▁variété	-7536
ification	-7537
▁Stanford	-7538
▁chocolat	-7539
▁constaté	-7540
▁fenêtres	-7541
▁gigantes	-7542
▁scénario	-7543
▁émergent	-7544
engagement	-7545
▁abandonné	-7546
▁africains	-7547
▁industrie	-7548
▁ordinaire	-7549
▁pertinent	-7550
▁ressource	-7551
▁étrangers	-7552
▁intéressés	-7553
▁moustiques	-7554
▁plateforme	-7555
▁alternative	-7556
▁financement	-7557
▁construisent	-7558
▁intelligence	-7559
▁soudainement	-7560
▁intelligentes	-7561
▁programmation	-7562
▁universitaire	-7563
oo	-7564
idi	-7565
pro	-7566
▁!"	-7567
▁It	-7568
orth	-7569
▁Fre	-7570
▁Tit	-7571
▁eth	-7572
▁lux	-7573
ctifs	-7574
iteur	-7575
uisse	-7576
▁club	-7577
▁gram	-7578
▁horm	-7579
▁lève	-7580
▁édit	-7581
rières	-7582
électr	-7583
▁Higgs	-7584
▁Texas	-7585
▁accum	-7586
▁copie	-7587
▁email	-7588
▁usage	-7589
acement	-7590
osphère	-7591
édition	-7592
▁normes	-7593
▁oiseau	-7594
attendre	-7595
▁brevets	-7596
▁citoyen	-7597
▁entrent	-7598
▁faciles	-7599
▁mettant	-7600
▁mobiles	-7601
▁nourris	-7602
▁ouverts	-7603
▁parlais	-7604
▁sauvage	-7605
▁spiritu	-7606
riblement	-7607
▁attraper	-7608
▁secteurs	-7609
▁compromis	-7610
▁concentre	-7611
▁hypothèse	-7612
▁surmonter	-7613
interaction	-7614
▁Angleterre	-7615
▁innovation	-7616
▁efficacement	-7617
▁personnelles	-7618
7.	-7619
LA	-7620
PA	-7621
noc	-7622
uck	-7623
▁hé	-7624
amis	-7625
aste	-7626
vais	-7627
▁ONG	-7628
▁aid	-7629
▁hos	-7630
arbre	-7631
arger	-7632
chait	-7633
liers	-7634
ouvre	-7635
riers	-7636
érale	-7637
▁Bush	-7638
▁open	-7639
▁sand	-7640
▁ther	-7641
▁angle	-7642
▁plain	-7643
▁affect	-7644
▁brevet	-7645
▁diffus	-7646
▁lutter	-7647
▁offert	-7648
▁régler	-7649
▁simpli	-7650
▁Nigeria	-7651
▁baleine	-7652
▁entoure	-7653
▁peindre	-7654
▁phrases	-7655
▁refroid	-7656
▁spatial	-7657
▁typique	-7658
▁arrivons	-7659
▁créatifs	-7660
▁marchand	-7661
▁paraître	-7662
▁solaires	-7663
▁vacances	-7664
exposition	-7665
▁déplacent	-7666
▁messieurs	-7667
▁poussière	-7668
▁printemps	-7669
▁culturelle	-7670
▁invisibles	-7671
▁partageons	-7672
▁transporter	-7673
▁antibiotiques	-7674
▁spectaculaire	-7675
9.	-7676
cin	-7677
cor	-7678
mir	-7679
sol	-7680
arts	-7681
▁80%	-7682
▁nés	-7683
assur	-7684
▁Comp	-7685
▁bond	-7686
▁cass	-7687
▁dict	-7688
▁flui	-7689
▁gonf	-7690
▁omni	-7691
▁siff	-7692
ligner	-7693
▁chanc	-7694
▁fermé	-7695
▁hauts	-7696
▁jouet	-7697
▁étein	-7698
▁chaude	-7699
▁diront	-7700
affaires	-7701
▁proposé	-7702
▁regroup	-7703
▁retenir	-7704
▁sachant	-7705
▁secours	-7706
▁virtuel	-7707
▁établir	-7708
▁bactérie	-7709
▁conduite	-7710
▁spatiale	-7711
▁appliquer	-7712
▁fortement	-7713
▁infantile	-7714
▁écologique	-7715
▁britannique	-7716
▁coopération	-7717
▁émotionnelle	-7718
▁environnements	-7719
iv	-7720
aler	-7721
ellu	-7722
▁bel	-7723
▁cho	-7724
asion	-7725
onnée	-7726
▁Flor	-7727
▁gris	-7728
▁inje	-7729
▁inno	-7730
airage	-7731
orités	-7732
▁accél	-7733
▁aimez	-7734
▁biodi	-7735
▁bénév	-7736
▁coins	-7737
▁mythe	-7738
▁résid	-7739
asseoir	-7740
éroport	-7741
▁Allons	-7742
▁Lorsqu	-7743
▁arrête	-7744
▁discut	-7745
▁géomét	-7746
▁leader	-7747
▁rentré	-7748
▁repose	-7749
▁établi	-7750
empêcher	-7751
essayais	-7752
▁allions	-7753
▁baisser	-7754
▁propose	-7755
▁remplir	-7756
▁restait	-7757
▁uniques	-7758
▁échange	-7759
tionnelle	-7760
▁ennuyeux	-7761
▁entendez	-7762
▁essaient	-7763
▁lucratif	-7764
▁parvenir	-7765
▁proposer	-7766
▁remercie	-7767
▁sanguins	-7768
▁épidémie	-7769
▁évidence	-7770
otechnolog	-7771
▁privilège	-7772
▁cartograph	-7773
▁simplicité	-7774
▁disposition	-7775
▁apparaissent	-7776
▁reproduction	-7777
.»	-7778
lo	-7779
▁95	-7780
cool	-7781
ectu	-7782
exam	-7783
hane	-7784
éria	-7785
▁90%	-7786
▁Aux	-7787
▁Bre	-7788
▁Del	-7789
▁lob	-7790
aviez	-7791
conne	-7792
gérer	-7793
moine	-7794
onsci	-7795
▁Jeff	-7796
▁pier	-7797
▁serp	-7798
aspect	-7799
associ	-7800
ommage	-7801
▁Ghana	-7802
▁anony	-7803
▁aspir	-7804
▁calme	-7805
▁idéal	-7806
▁paire	-7807
▁pires	-7808
▁stéré	-7809
▁verts	-7810
arienne	-7811
endront	-7812
▁apparu	-7813
▁bulles	-7814
▁diable	-7815
▁microb	-7816
▁puisqu	-7817
▁vivait	-7818
▁affront	-7819
▁partagé	-7820
▁défendre	-7821
▁installé	-7822
▁aléatoire	-7823
▁nécessite	-7824
▁sexuelles	-7825
▁suffisant	-7826
▁maternelle	-7827
▁territoire	-7828
▁discussions	-7829
▁explication	-7830
▁occidentale	-7831
▁quotidienne	-7832
▁supplémentaire	-7833
yt	-7834
ark	-7835
isc	-7836
jou	-7837
ota	-7838
toi	-7839
▁Ad	-7840
▁ax	-7841
èner	-7842
▁Haw	-7843
▁Pap	-7844
▁arb	-7845
acier	-7846
armes	-7847
▁bous	-7848
archie	-7849
ectuer	-7850
iteurs	-7851
▁caché	-7852
▁fondé	-7853
▁laver	-7854
▁légis	-7855
▁meurt	-7856
▁métro	-7857
▁plait	-7858
▁crimes	-7859
▁dormir	-7860
▁entrée	-7861
▁explic	-7862
▁option	-7863
▁voyant	-7864
▁potable	-7865
▁sensori	-7866
▁victime	-7867
▁Mesdames	-7868
▁devienne	-7869
▁musulman	-7870
▁provoque	-7871
▁périodes	-7872
▁supermar	-7873
▁symboles	-7874
▁tiennent	-7875
▁Président	-7876
▁anciennes	-7877
▁critiques	-7878
▁parcourir	-7879
▁possèdent	-7880
▁variations	-7881
▁biologistes	-7882
▁catastrophe	-7883
▁champignons	-7884
▁démocratique	-7885
Ins	-7886
mas	-7887
▁33	-7888
osex	-7889
uter	-7890
▁700	-7891
▁Bob	-7892
▁Vir	-7893
▁idi	-7894
Union	-7895
right	-7896
▁Mary	-7897
▁joli	-7898
▁liné	-7899
▁sinc	-7900
▁tenu	-7901
onnaie	-7902
▁actif	-7903
▁pause	-7904
▁repar	-7905
▁tradu	-7906
▁têtes	-7907
▁vivez	-7908
tionnel	-7909
▁Europé	-7910
▁analog	-7911
▁couple	-7912
▁emmené	-7913
▁majeur	-7914
▁titres	-7915
▁urbain	-7916
▁affecte	-7917
▁consist	-7918
▁fassent	-7919
▁intense	-7920
▁mouches	-7921
▁publier	-7922
▁reconnu	-7923
▁superbe	-7924
▁vivante	-7925
▁voyages	-7926
▁circuits	-7927
▁extraire	-7928
▁fermiers	-7929
▁laissent	-7930
▁obtenons	-7931
▁sauvages	-7932
▁thérapie	-7933
▁Allemagne	-7934
▁attendent	-7935
▁pharmaceu	-7936
▁connaissais	-7937
▁essentielle	-7938
▁merveilleuses	-7939
Si	-7940
gué	-7941
imb	-7942
omo	-7943
oue	-7944
ouf	-7945
▁26	-7946
▁kg	-7947
adop	-7948
phab	-7949
reur	-7950
▁Con	-7951
▁Pri	-7952
▁Rio	-7953
▁cra	-7954
▁jui	-7955
▁vus	-7956
Ouest	-7957
aband	-7958
fiées	-7959
osses	-7960
xford	-7961
▁Jack	-7962
▁crai	-7963
▁volc	-7964
▁chers	-7965
▁corré	-7966
▁nager	-7967
▁plani	-7968
▁rayon	-7969
▁élève	-7970
▁examin	-7971
▁excité	-7972
▁iPhone	-7973
▁interf	-7974
▁étages	-7975
lantique	-7976
étranger	-7977
▁accéder	-7978
▁avancée	-7979
▁couvrir	-7980
▁diabète	-7981
▁enlever	-7982
▁légumes	-7983
▁rejoint	-7984
essentiel	-7985
intention	-7986
▁abstrait	-7987
▁inventer	-7988
▁paysages	-7989
▁promesse	-7990
▁conserver	-7991
▁constante	-7992
▁créateurs	-7993
▁reprendre	-7994
▁minuscules	-7995
▁secondaire	-7996
▁signifiait	-7997
▁Évidemment	-7998
alimentation	-7999
▁biodiversité	-8000
▁propriétaire	-8001
▁régulièrement	-8002
On	-8003
die	-8004
ink	-8005
nam	-8006
▁DH	-8007
▁da	-8008
copt	-8009
fond	-8010
lles	-8011
onau	-8012
▁Cap	-8013
▁Mah	-8014
▁Ses	-8015
▁nat	-8016
▁pli	-8017
▁île	-8018
autom	-8019
bliez	-8020
écriv	-8021
▁attr	-8022
▁dise	-8023
heimer	-8024
▁Unies	-8025
▁crain	-8026
▁inclu	-8027
▁laser	-8028
▁ondes	-8029
▁roman	-8030
▁récit	-8031
▁régén	-8032
▁rétro	-8033
▁sexes	-8034
▁avancé	-8035
▁balles	-8036
▁détour	-8037
▁engagé	-8038
▁froide	-8039
▁paquet	-8040
▁séduis	-8041
▁œuvres	-8042
▁investi	-8043
▁mystéri	-8044
▁paradox	-8045
▁prisons	-8046
mentation	-8047
▁arrivait	-8048
▁examiner	-8049
▁japonais	-8050
▁poussent	-8051
▁effrayant	-8052
▁impliqués	-8053
▁suivantes	-8054
▁traumatis	-8055
▁directions	-8056
▁équipement	-8057
entraînement	-8058
▁comparaison	-8059
▁alimentaires	-8060
▁transmission	-8061
▁investissement	-8062
oz	-8063
▁AB	-8064
▁rh	-8065
Irak	-8066
agée	-8067
arai	-8068
ctob	-8069
orde	-8070
▁Gén	-8071
▁clo	-8072
▁ord	-8073
▁Mark	-8074
▁cout	-8075
▁hiér	-8076
▁mass	-8077
▁poit	-8078
aiment	-8079
ctobre	-8080
occupe	-8081
onnées	-8082
▁Willi	-8083
▁ailes	-8084
▁coute	-8085
▁impré	-8086
▁ouvre	-8087
▁préci	-8088
▁revue	-8089
▁sandw	-8090
▁épuis	-8091
session	-8092
▁Malgré	-8093
▁Valley	-8094
▁assist	-8095
▁cinqui	-8096
▁débats	-8097
▁fortes	-8098
▁frappe	-8099
▁mouche	-8100
▁mélang	-8101
▁résumé	-8102
▁réunis	-8103
▁ultime	-8104
▁voyait	-8105
térieure	-8106
▁déclaré	-8107
▁dépensé	-8108
▁fiction	-8109
▁marques	-8110
▁millier	-8111
▁paradis	-8112
▁pierres	-8113
▁prévoir	-8114
▁tension	-8115
organiser	-8116
▁attentes	-8117
▁aventure	-8118
▁doctorat	-8119
▁produite	-8120
▁pyramide	-8121
▁symétrie	-8122
▁tableaux	-8123
▁totalité	-8124
▁constater	-8125
▁rendement	-8126
▁abandonner	-8127
▁volontaire	-8128
▁ingrédients	-8129
gez	-8130
mée	-8131
▁cm	-8132
chiz	-8133
gnés	-8134
orph	-8135
osph	-8136
▁Ins	-8137
▁cot	-8138
ignor	-8139
irait	-8140
uteur	-8141
▁King	-8142
▁narr	-8143
▁rose	-8144
▁vété	-8145
▁œufs	-8146
ctique	-8147
▁Envir	-8148
▁Nobel	-8149
▁Voila	-8150
▁bière	-8151
▁chrom	-8152
▁préco	-8153
▁recue	-8154
▁sonne	-8155
▁trace	-8156
alisées	-8157
issante	-8158
▁Faites	-8159
▁bourse	-8160
▁larmes	-8161
▁écouté	-8162
autorité	-8163
endroits	-8164
tinction	-8165
▁gagnent	-8166
▁géniale	-8167
▁intrins	-8168
▁maximum	-8169
▁peuples	-8170
▁pleurer	-8171
▁plongée	-8172
▁prenait	-8173
▁recours	-8174
▁rendant	-8175
▁avancées	-8176
▁banlieue	-8177
▁chinoise	-8178
▁démarrer	-8179
▁extrêmes	-8180
▁sensible	-8181
▁démontrer	-8182
▁percevoir	-8183
▁proposition	-8184
▁construisons	-8185
▁traditionnel	-8186
▁informatiques	-8187
▁installations	-8188
▁signification	-8189
▁technologiques	-8190
%,	-8191
cô	-8192
ji	-8193
azz	-8194
kin	-8195
obs	-8196
oyé	-8197
agan	-8198
icon	-8199
lité	-8200
ossé	-8201
utes	-8202
▁191	-8203
▁202	-8204
▁Cin	-8205
▁Cop	-8206
▁Tal	-8207
▁Tor	-8208
▁dél	-8209
ctées	-8210
etnam	-8211
fient	-8212
onges	-8213
osent	-8214
ulent	-8215
▁gras	-8216
▁incl	-8217
▁juin	-8218
▁péni	-8219
amener	-8220
illent	-8221
istère	-8222
ouvant	-8223
quants	-8224
▁Leurs	-8225
▁Monde	-8226
▁casse	-8227
▁piste	-8228
▁schiz	-8229
absence	-8230
▁adopté	-8231
▁forcer	-8232
▁guérir	-8233
▁muscle	-8234
▁prouvé	-8235
▁réduis	-8236
▁unités	-8237
▁écrans	-8238
▁élever	-8239
attaquer	-8240
individu	-8241
▁crucial	-8242
▁empêche	-8243
▁janvier	-8244
▁retourn	-8245
▁visiter	-8246
▁autonome	-8247
▁barrière	-8248
▁concours	-8249
▁dépasser	-8250
▁matières	-8251
▁préférée	-8252
▁qualités	-8253
▁surfaces	-8254
▁émission	-8255
▁apprécier	-8256
▁intérieur	-8257
▁musulmans	-8258
▁parlaient	-8259
▁passerait	-8260
▁universel	-8261
▁conducteur	-8262
▁gouvernance	-8263
▁moléculaire	-8264
▁statistique	-8265
▁volontaires	-8266
eum	-8267
own	-8268
▁28	-8269
▁Rw	-8270
▁er	-8271
▁ur	-8272
erge	-8273
héli	-8274
idéo	-8275
▁Bri	-8276
▁bag	-8277
▁her	-8278
▁sév	-8279
▁twe	-8280
▁zoom	-8281
aimais	-8282
▁Parmi	-8283
▁chère	-8284
▁crâne	-8285
▁dissi	-8286
▁délic	-8287
▁dépla	-8288
▁embau	-8289
▁exter	-8290
▁hyper	-8291
attente	-8292
optimis	-8293
uration	-8294
zheimer	-8295
▁Aucune	-8296
▁impati	-8297
▁libres	-8298
▁oeuvre	-8299
▁passez	-8300
▁témoin	-8301
Histoire	-8302
▁William	-8303
▁dioxyde	-8304
▁détruit	-8305
▁miracle	-8306
▁occuper	-8307
▁options	-8308
▁réparti	-8309
▁éthique	-8310
▁aveugles	-8311
▁baseball	-8312
▁brillant	-8313
▁créative	-8314
▁designer	-8315
▁durables	-8316
▁fabrique	-8317
▁femelles	-8318
▁poitrine	-8319
▁retourne	-8320
▁schizoph	-8321
▁traversé	-8322
▁étranger	-8323
▁aimerions	-8324
▁diagramme	-8325
▁mentionné	-8326
▁paradigme	-8327
▁répondent	-8328
▁hypothèses	-8329
▁puissantes	-8330
▁diapositive	-8331
▁commentaires	-8332
administration	-8333
▁intellectuelle	-8334
▁investissements	-8335
IS	-8336
aid	-8337
car	-8338
emm	-8339
oué	-8340
rek	-8341
▁fe	-8342
actu	-8343
ower	-8344
▁agr	-8345
▁fan	-8346
illon	-8347
▁méch	-8348
assons	-8349
effort	-8350
▁Peter	-8351
▁Smith	-8352
▁déten	-8353
▁tribu	-8354
▁Banque	-8355
▁Rwanda	-8356
▁faudra	-8357
▁feriez	-8358
▁hautes	-8359
▁mienne	-8360
▁pertes	-8361
▁sécher	-8362
mensionn	-8363
▁annoncé	-8364
▁branche	-8365
▁chromos	-8366
▁clavier	-8367
▁résumer	-8368
▁section	-8369
▁serions	-8370
▁évaluer	-8371
▁chapitre	-8372
▁croyance	-8373
▁cérébral	-8374
▁financer	-8375
▁inattend	-8376
▁intégrer	-8377
▁mensonge	-8378
▁neurolog	-8379
▁vaisseau	-8380
▁voudrait	-8381
▁kilomètre	-8382
application	-8383
▁catégories	-8384
▁conscients	-8385
▁tranquille	-8386
▁département	-8387
▁photographe	-8388
▁utilisation	-8389
▁performances	-8390
▁remarquables	-8391
▁significative	-8392
ife	-8393
ino	-8394
oly	-8395
ool	-8396
ève	-8397
▁Gi	-8398
▁II	-8399
▁Éc	-8400
abri	-8401
aper	-8402
ilée	-8403
mies	-8404
èche	-8405
▁Ver	-8406
▁ext	-8407
▁tor	-8408
▁tuy	-8409
allez	-8410
drome	-8411
huile	-8412
▁Jour	-8413
▁Norv	-8414
▁coch	-8415
▁crit	-8416
▁mini	-8417
▁paie	-8418
▁pand	-8419
hypoth	-8420
lavage	-8421
mpleur	-8422
▁embar	-8423
▁extré	-8424
▁fract	-8425
▁hôtel	-8426
▁lumin	-8427
culaire	-8428
ensible	-8429
▁actifs	-8430
▁bombes	-8431
▁conçus	-8432
▁crédit	-8433
▁fibres	-8434
▁figure	-8435
▁orbite	-8436
▁vallée	-8437
▁élimin	-8438
Institut	-8439
apporter	-8440
explorer	-8441
interpré	-8442
émission	-8443
▁entouré	-8444
▁gratuit	-8445
▁normaux	-8446
▁Occident	-8447
▁devenues	-8448
▁dialogue	-8449
▁marchait	-8450
▁origines	-8451
▁tragédie	-8452
▁évidente	-8453
▁hautement	-8454
▁remercier	-8455
▁squelette	-8456
▁évènement	-8457
▁continuons	-8458
▁magnétique	-8459
▁connaissait	-8460
▁considérons	-8461
▁travaillaient	-8462
▁internationaux	-8463
▁traditionnelles	-8464
erc	-8465
▁SP	-8466
▁fu	-8467
▁na	-8468
quez	-8469
tiez	-8470
uiss	-8471
visi	-8472
▁fit	-8473
▁riz	-8474
accum	-8475
▁Amaz	-8476
▁abou	-8477
▁bain	-8478
▁bill	-8479
▁Saint	-8480
▁compt	-8481
▁dense	-8482
▁indic	-8483
▁inond	-8484
▁taper	-8485
▁voyag	-8486
attaque	-8487
quettes	-8488
▁camion	-8489
▁genoux	-8490
▁récent	-8491
▁aborder	-8492
▁camions	-8493
▁diminue	-8494
▁menaces	-8495
▁monnaie	-8496
▁relever	-8497
othérapie	-8498
▁héritage	-8499
▁versions	-8500
▁étranges	-8501
▁Australie	-8502
▁accidents	-8503
▁attendant	-8504
▁cherchons	-8505
▁cérébrale	-8506
▁organiser	-8507
▁provoquer	-8508
▁regardais	-8509
▁religions	-8510
▁patrimoine	-8511
amélioration	-8512
▁contraintes	-8513
▁institution	-8514
▁agriculteurs	-8515
▁fondamentaux	-8516
▁terriblement	-8517
▁internationales	-8518
ffe	-8519
ilé	-8520
ory	-8521
âts	-8522
appe	-8523
rupt	-8524
épar	-8525
▁Jim	-8526
▁bab	-8527
▁fal	-8528
itime	-8529
lante	-8530
raine	-8531
▁dram	-8532
▁pèse	-8533
objets	-8534
orique	-8535
ouvons	-8536
ptions	-8537
ustral	-8538
▁citer	-8539
▁corde	-8540
▁créés	-8541
▁globe	-8542
▁pairs	-8543
▁soign	-8544
▁tenté	-8545
▁échec	-8546
ajouter	-8547
archite	-8548
▁appels	-8549
▁deviez	-8550
▁dégrad	-8551
▁fermer	-8552
▁graves	-8553
▁génoci	-8554
▁incomp	-8555
▁intime	-8556
▁mental	-8557
▁omnipr	-8558
▁ramène	-8559
▁voyais	-8560
imagerie	-8561
▁bateaux	-8562
▁chauves	-8563
▁command	-8564
▁croyais	-8565
▁deviner	-8566
▁dépassé	-8567
▁formule	-8568
▁surpren	-8569
espérance	-8570
▁football	-8571
▁maîtrise	-8572
▁récolter	-8573
▁spéciale	-8574
▁télécomm	-8575
▁épinière	-8576
▁autorités	-8577
▁autrefois	-8578
▁cherchent	-8579
▁collision	-8580
▁contribué	-8581
▁diffusion	-8582
▁immeubles	-8583
▁virtuelle	-8584
▁programmer	-8585
▁prédiction	-8586
▁université	-8587
▁commerciaux	-8588
▁conventionn	-8589
▁infirmières	-8590
▁individuelle	-8591
▁attentivement	-8592
6.	-8593
ip	-8594
ye	-8595
ics	-8596
oul	-8597
▁%.	-8598
Alle	-8599
Etat	-8600
atts	-8601
lets	-8602
▁120	-8603
▁205	-8604
▁Ter	-8605
▁ate	-8606
▁inj	-8607
▁ira	-8608
▁joy	-8609
▁pom	-8610
▁top	-8611
atter	-8612
ondes	-8613
oyers	-8614
phone	-8615
étant	-8616
▁Soud	-8617
▁oeil	-8618
cembre	-8619
envers	-8620
explos	-8621
onfort	-8622
▁crist	-8623
▁câble	-8624
▁demie	-8625
▁durer	-8626
▁noyau	-8627
▁puits	-8628
▁rêver	-8629
▁vôtre	-8630
espèces	-8631
inverse	-8632
▁Quatre	-8633
▁assure	-8634
▁bruits	-8635
▁expert	-8636
▁gamins	-8637
▁immédi	-8638
▁paires	-8639
▁stable	-8640
▁traces	-8641
▁Environ	-8642
▁cancers	-8643
▁diminué	-8644
▁exister	-8645
▁souffre	-8646
▁variole	-8647
▁verrons	-8648
étudiants	-8649
▁cultiver	-8650
▁imprimer	-8651
▁laissons	-8652
▁cinquième	-8653
▁collectif	-8654
▁contempor	-8655
▁habitudes	-8656
▁commençait	-8657
▁compliquée	-8658
▁discipline	-8659
▁inégalités	-8660
▁commentaire	-8661
▁vulnérables	-8662
▁mondialisation	-8663
▁progressivement	-8664
bri	-8665
oeu	-8666
ste	-8667
Mais	-8668
eler	-8669
icip	-8670
rade	-8671
▁Bal	-8672
▁Hum	-8673
▁bin	-8674
chron	-8675
gènes	-8676
ortée	-8677
oules	-8678
▁Coca	-8679
▁Gand	-8680
▁Juli	-8681
▁astu	-8682
▁chré	-8683
▁diss	-8684
▁piét	-8685
▁tués	-8686
▁vibr	-8687
▁volé	-8688
emment	-8689
heures	-8690
onnier	-8691
orment	-8692
▁Dites	-8693
▁Gates	-8694
▁blogs	-8695
▁cancé	-8696
▁chats	-8697
▁costu	-8698
▁hydro	-8699
▁millé	-8700
▁pomme	-8701
▁quasi	-8702
étoiles	-8703
▁ambiti	-8704
▁drones	-8705
▁décide	-8706
▁effond	-8707
▁grille	-8708
▁invers	-8709
▁nommée	-8710
▁parach	-8711
▁propag	-8712
▁échecs	-8713
auraient	-8714
▁adopter	-8715
▁adorent	-8716
▁chemins	-8717
▁comptes	-8718
▁devoirs	-8719
▁perturb	-8720
invention	-8721
▁arrivera	-8722
▁atteints	-8723
▁enceinte	-8724
▁fréquent	-8725
▁précieux	-8726
▁tournant	-8727
▁semblable	-8728
▁éléphants	-8729
▁développée	-8730
▁rencontrés	-8731
▁traditions	-8732
▁Internation	-8733
▁grandissent	-8734
▁immunitaire	-8735
▁écosystèmes	-8736
▁étonnamment	-8737
▁architecture	-8738
▁températures	-8739
▁divertissement	-8740
BI	-8741
Ne	-8742
rè	-8743
▁85	-8744
atom	-8745
déqu	-8746
omin	-8747
quie	-8748
ueux	-8749
èvre	-8750
▁Esp	-8751
▁Kar	-8752
▁Lab	-8753
▁Sau	-8754
▁ger	-8755
▁égo	-8756
Allem	-8757
agnol	-8758
autor	-8759
hôtel	-8760
ocine	-8761
ommer	-8762
prême	-8763
écart	-8764
▁Mons	-8765
▁agit	-8766
▁thon	-8767
▁tube	-8768
adoles	-8769
humain	-8770
quante	-8771
vistes	-8772
▁Quels	-8773
▁adéqu	-8774
▁autis	-8775
▁battu	-8776
▁color	-8777
▁décri	-8778
▁facil	-8779
▁ferai	-8780
▁léger	-8781
▁maire	-8782
▁mangé	-8783
▁outre	-8784
▁pirat	-8785
▁spont	-8786
enfance	-8787
istique	-8788
▁absorb	-8789
▁algues	-8790
▁astéro	-8791
▁attiré	-8792
▁génère	-8793
▁jouant	-8794
▁organe	-8795
▁soirée	-8796
▁thérap	-8797
▁Floride	-8798
▁apprise	-8799
▁cercles	-8800
▁chaînes	-8801
▁civilis	-8802
▁consult	-8803
▁dispers	-8804
▁dossier	-8805
▁examiné	-8806
▁massive	-8807
▁neurone	-8808
▁ressens	-8809
▁réelles	-8810
▁tombent	-8811
▁urbaine	-8812
▁étroite	-8813
▁associés	-8814
▁décharge	-8815
▁enseigné	-8816
▁habitués	-8817
▁inconsci	-8818
▁musicale	-8819
équipement	-8820
▁brillants	-8821
▁collecter	-8822
▁introduit	-8823
▁permettra	-8824
▁regardait	-8825
▁centimètres	-8826
▁intrinsèque	-8827
▁philanthrop	-8828
▁proviennent	-8829
▁intervention	-8830
▁spécialistes	-8831
▁susceptibles	-8832
▁fondamentales	-8833
cts	-8834
gén	-8835
rey	-8836
burg	-8837
ilib	-8838
▁Bur	-8839
▁For	-8840
▁lev	-8841
▁épr	-8842
amène	-8843
aussi	-8844
inson	-8845
odeur	-8846
pedia	-8847
usine	-8848
▁Cinq	-8849
▁abus	-8850
▁insu	-8851
▁loup	-8852
▁roue	-8853
▁scep	-8854
ançons	-8855
étions	-8856
▁2008,	-8857
▁2009,	-8858
▁Bible	-8859
▁Centr	-8860
▁Phili	-8861
▁allum	-8862
▁défor	-8863
▁révol	-8864
encieux	-8865
émotion	-8866
▁Orient	-8867
▁affirm	-8868
▁connus	-8869
▁câbles	-8870
▁exclus	-8871
▁pommes	-8872
▁report	-8873
▁sortis	-8874
▁synthé	-8875
▁agences	-8876
▁colonne	-8877
▁croyait	-8878
▁frapper	-8879
▁grottes	-8880
▁illustr	-8881
▁recette	-8882
▁roulant	-8883
▁traduit	-8884
attendais	-8885
habitants	-8886
▁apparten	-8887
▁archives	-8888
▁attitude	-8889
▁commença	-8890
▁comptent	-8891
▁familier	-8892
▁logement	-8893
▁positifs	-8894
▁priorité	-8895
▁radicale	-8896
▁éducatif	-8897
dimensionn	-8898
▁substance	-8899
▁graphiques	-8900
▁phénomènes	-8901
▁promouvoir	-8902
▁américaines	-8903
▁appartement	-8904
▁concepteurs	-8905
▁indépendant	-8906
▁restaurants	-8907
▁alternatives	-8908
▁catastrophes	-8909
▁connectivité	-8910
▁désespérément	-8911
▁psychologique	-8912
▁mathématiciens	-8913
pé	-8914
olo	-8915
rét	-8916
▁We	-8917
agon	-8918
aign	-8919
avis	-8920
oeil	-8921
rist	-8922
tise	-8923
étud	-8924
▁10%	-8925
▁Der	-8926
▁Mag	-8927
▁eut	-8928
▁mec	-8929
▁mit	-8930
▁nul	-8931
▁the	-8932
escal	-8933
herbe	-8934
marin	-8935
▁Norm	-8936
▁Pays	-8937
▁iron	-8938
▁Carol	-8939
▁carre	-8940
▁exécu	-8941
▁innoc	-8942
▁poète	-8943
▁remis	-8944
▁sache	-8945
oreille	-8946
èvement	-8947
échange	-8948
▁bandes	-8949
▁déform	-8950
▁estime	-8951
▁fourmi	-8952
▁foyers	-8953
▁fusion	-8954
▁posent	-8955
▁relier	-8956
▁rendus	-8957
▁venais	-8958
misphère	-8959
▁courbes	-8960
▁manquer	-8961
▁minimum	-8962
▁redéfin	-8963
▁ressort	-8964
Allemagne	-8965
augmenter	-8966
histoires	-8967
utilisent	-8968
▁Revenons	-8969
▁accompli	-8970
▁laissant	-8971
▁magasins	-8972
▁ressorti	-8973
▁résister	-8974
dépendance	-8975
identifier	-8976
▁mondiales	-8977
▁participé	-8978
entreprises	-8979
▁dépendance	-8980
▁personnels	-8981
▁surveiller	-8982
▁travaillez	-8983
▁écosystème	-8984
▁prédictions	-8985
▁fonctionnait	-8986
▁impressionnant	-8987
▁infrastructure	-8988
agr	-8989
bat	-8990
din	-8991
igh	-8992
nec	-8993
▁55	-8994
▁KB	-8995
▁LG	-8996
▁My	-8997
ands	-8998
isée	-8999
mide	-9000
rich	-9001
▁20%	-9002
▁Met	-9003
▁Pal	-9004
▁Tes	-9005
▁cig	-9006
acter	-9007
alors	-9008
assés	-9009
tiles	-9010
tilis	-9011
ôtres	-9012
▁Rome	-9013
▁pâte	-9014
▁trot	-9015
église	-9016
évrier	-9017
▁2000,	-9018
▁Apple	-9019
▁Homme	-9020
▁blocs	-9021
▁ceint	-9022
▁côtes	-9023
▁exige	-9024
▁famil	-9025
▁fumée	-9026
▁mines	-9027
▁param	-9028
▁subir	-9029
▁testé	-9030
▁voter	-9031
▁conçue	-9032
▁débrou	-9033
▁enlevé	-9034
▁restée	-9035
▁récifs	-9036
accident	-9037
aéroport	-9038
▁agressi	-9039
▁capture	-9040
▁combatt	-9041
▁corpore	-9042
▁couloir	-9043
▁coûteux	-9044
▁dépasse	-9045
▁implant	-9046
▁limitée	-9047
▁municip	-9048
▁perdent	-9049
▁tournée	-9050
interface	-9051
▁africain	-9052
▁capturer	-9053
▁chanceux	-9054
▁combiner	-9055
▁cuisiner	-9056
▁exprimer	-9057
▁habitant	-9058
▁improvis	-9059
▁inspirer	-9060
▁prévenir	-9061
▁sandwich	-9062
▁synthèse	-9063
▁éliminer	-9064
assistance	-9065
▁chercheur	-9066
▁finissent	-9067
▁physicien	-9068
▁remarquez	-9069
▁satisfait	-9070
ordinateurs	-9071
▁malheureux	-9072
▁physiciens	-9073
▁prospérité	-9074
▁remarquerez	-9075
▁conservation	-9076
▁contribution	-9077
▁fantastiques	-9078
aya	-9079
fro	-9080
éop	-9081
bola	-9082
tiqu	-9083
▁193	-9084
▁70,	-9085
▁80,	-9086
▁Dém	-9087
chose	-9088
illez	-9089
▁100%	-9090
▁Cour	-9091
▁perc	-9092
▁subi	-9093
disant	-9094
fiante	-9095
ituels	-9096
timité	-9097
étudie	-9098
▁Brook	-9099
▁béton	-9100
▁camps	-9101
▁créez	-9102
▁faute	-9103
▁lampe	-9104
lements	-9105
oureuse	-9106
ytocine	-9107
écurité	-9108
▁bouill	-9109
▁briser	-9110
▁dégâts	-9111
▁gestes	-9112
▁mortes	-9113
▁perdez	-9114
▁protoc	-9115
▁refusé	-9116
▁soldat	-9117
culaires	-9118
▁Silicon	-9119
▁appelés	-9120
▁billets	-9121
▁coucher	-9122
▁diviser	-9123
▁espérer	-9124
▁homosex	-9125
▁joindre	-9126
▁membran	-9127
▁précoce	-9128
▁réveill	-9129
▁solides	-9130
enseigner	-9131
fications	-9132
▁bizarres	-9133
▁blanches	-9134
▁envelopp	-9135
▁nettoyer	-9136
▁rivières	-9137
extinction	-9138
▁consommer	-9139
▁détecteur	-9140
▁installer	-9141
▁invention	-9142
▁tentative	-9143
▁cellulaire	-9144
▁continents	-9145
▁intérieure	-9146
▁émotionnel	-9147
▁composition	-9148
▁contiennent	-9149
▁description	-9150
▁grandissant	-9151
▁implications	-9152
▁communications	-9153
uk	-9154
ît	-9155
bum	-9156
oto	-9157
sey	-9158
▁1.	-9159
▁BF	-9160
ador	-9161
agos	-9162
levé	-9163
ting	-9164
▁Air	-9165
▁Dem	-9166
▁FBI	-9167
▁Som	-9168
▁aqu	-9169
▁dil	-9170
▁dop	-9171
▁jur	-9172
▁sit	-9173
accél	-9174
adesh	-9175
ertes	-9176
hiver	-9177
▁Matt	-9178
▁Wall	-9179
▁bass	-9180
▁mand	-9181
▁remb	-9182
anique	-9183
▁bleus	-9184
▁cassé	-9185
▁excit	-9186
▁fossé	-9187
▁impos	-9188
▁sauce	-9189
humains	-9190
▁bleues	-9191
▁dirigé	-9192
▁discri	-9193
▁fierté	-9194
▁problé	-9195
▁écoute	-9196
arrières	-9197
▁Turquie	-9198
▁chapeau	-9199
▁contrat	-9200
▁dérange	-9201
▁déroule	-9202
▁licence	-9203
▁prétend	-9204
▁traités	-9205
appliquer	-9206
▁attaquer	-9207
▁colonies	-9208
▁repenser	-9209
▁Africains	-9210
▁blessures	-9211
▁détection	-9212
▁notamment	-9213
▁terrestre	-9214
▁fonctionné	-9215
▁nutriments	-9216
▁silencieux	-9217
▁traduction	-9218
▁architectur	-9219
▁gigantesque	-9220
▁partenariat	-9221
▁psychologues	-9222
▁interagissent	-9223
▁investisseurs	-9224
ja	-9225
aug	-9226
cis	-9227
cre	-9228
jac	-9229
osh	-9230
œud	-9231
▁Bo	-9232
▁Lu	-9233
▁So	-9234
alle	-9235
gués	-9236
inet	-9237
ives	-9238
otes	-9239
ouge	-9240
rite	-9241
terr	-9242
▁Gro	-9243
▁Joe	-9244
▁Six	-9245
▁fid	-9246
▁âgé	-9247
icien	-9248
illée	-9249
jugés	-9250
lants	-9251
meaux	-9252
onald	-9253
raham	-9254
▁Golf	-9255
▁Life	-9256
▁Soci	-9257
▁cray	-9258
▁jeté	-9259
▁luxe	-9260
▁nœud	-9261
▁porc	-9262
▁réag	-9263
alcool	-9264
aucune	-9265
ogènes	-9266
onnant	-9267
ximité	-9268
▁Satur	-9269
▁anten	-9270
▁armée	-9271
▁corri	-9272
▁hallu	-9273
▁poign	-9274
▁roues	-9275
▁réels	-9276
▁simul	-9277
▁tasse	-9278
▁vides	-9279
▁éclai	-9280
écosyst	-9281
▁campus	-9282
▁défini	-9283
▁guider	-9284
▁pollin	-9285
▁vapeur	-9286
▁ventre	-9287
▁vienne	-9288
▁voyagé	-9289
▁écrite	-9290
inquiète	-9291
éricaine	-9292
▁colline	-9293
▁fantôme	-9294
▁inutile	-9295
▁méthane	-9296
▁partant	-9297
▁pensiez	-9298
▁poignée	-9299
Alzheimer	-9300
aharienne	-9301
▁blessure	-9302
▁essayait	-9303
▁jugement	-9304
▁monsieur	-9305
▁multipli	-9306
▁pouvoirs	-9307
▁préjugés	-9308
▁synchron	-9309
▁Cambridge	-9310
▁barrières	-9311
▁concentré	-9312
▁distances	-9313
▁désespoir	-9314
▁enregistr	-9315
▁lancement	-9316
▁manipuler	-9317
▁parallèle	-9318
▁proximité	-9319
▁souligner	-9320
▁stabilité	-9321
▁étrangère	-9322
expériences	-9323
▁Révolution	-9324
▁distinguer	-9325
▁populaires	-9326
▁prédateurs	-9327
▁prévention	-9328
▁semblables	-9329
▁séparation	-9330
▁destination	-9331
▁déclaration	-9332
▁dictionnaire	-9333
▁spécialement	-9334
▁déforestation	-9335
▁renouvelables	-9336
▁vulnérabilité	-9337
▁professionnelle	-9338
Ce	-9339
DE	-9340
hyp	-9341
lit	-9342
évé	-9343
▁29	-9344
▁4,	-9345
▁MT	-9346
▁cu	-9347
ache	-9348
dici	-9349
loge	-9350
nant	-9351
otte	-9352
rète	-9353
viol	-9354
▁Jon	-9355
▁Nic	-9356
▁chô	-9357
▁hon	-9358
▁rot	-9359
▁tir	-9360
fléch	-9361
horiz	-9362
tront	-9363
urban	-9364
xiété	-9365
▁Chez	-9366
▁dose	-9367
▁pant	-9368
▁sach	-9369
▁sper	-9370
▁tang	-9371
assiez	-9372
▁Islam	-9373
▁bouts	-9374
▁cache	-9375
▁norme	-9376
▁ouais	-9377
▁salon	-9378
▁sauve	-9379
▁Plutôt	-9380
▁crises	-9381
▁célébr	-9382
▁ferais	-9383
▁légère	-9384
▁marins	-9385
▁phosph	-9386
▁poèmes	-9387
▁propul	-9388
▁réfrig	-9389
▁soumis	-9390
▁vaches	-9391
▁évolue	-9392
▁cancére	-9393
▁engagés	-9394
▁préparé	-9395
▁tromper	-9396
▁diamètre	-9397
▁immeuble	-9398
▁inconnus	-9399
▁commandes	-9400
▁criminels	-9401
▁exploiter	-9402
▁supprimer	-9403
▁adolescent	-9404
▁caractères	-9405
▁plastiques	-9406
▁rechercher	-9407
▁romantique	-9408
▁stupéfiant	-9409
▁économiser	-9410
otechnologie	-9411
▁interaction	-9412
▁raisonnable	-9413
▁récompenses	-9414
▁utilisaient	-9415
mo	-9416
▁x	-9417
Art	-9418
ary	-9419
cha	-9420
ora	-9421
uba	-9422
▁42	-9423
▁Fe	-9424
Amaz	-9425
amer	-9426
aude	-9427
blie	-9428
nels	-9429
oses	-9430
tech	-9431
▁Fer	-9432
▁LED	-9433
▁Mur	-9434
▁bil	-9435
▁bis	-9436
▁hyp	-9437
▁péd	-9438
icité	-9439
laves	-9440
▁3000	-9441
▁Gore	-9442
▁Hong	-9443
▁Mand	-9444
▁dira	-9445
▁ling	-9446
▁obsc	-9447
▁papa	-9448
▁susp	-9449
▁vole	-9450
▁week	-9451
accent	-9452
angers	-9453
cheurs	-9454
inions	-9455
▁2007,	-9456
▁Green	-9457
▁Moore	-9458
▁Titan	-9459
▁actes	-9460
▁agent	-9461
▁balay	-9462
▁cohér	-9463
▁dirai	-9464
▁délib	-9465
▁fibre	-9466
▁grati	-9467
▁jolie	-9468
▁porté	-9469
parents	-9470
▁Centre	-9471
▁Maison	-9472
▁civils	-9473
▁disque	-9474
▁débuts	-9475
▁profil	-9476
▁révélé	-9477
▁tenait	-9478
▁émerge	-9479
▁Norvège	-9480
▁communs	-9481
▁devenez	-9482
▁fassiez	-9483
▁hackers	-9484
▁matrice	-9485
▁rendait	-9486
▁trouvée	-9487
▁télévis	-9488
▁écoutez	-9489
esclavage	-9490
inégalité	-9491
▁cherchez	-9492
▁collecte	-9493
▁connecte	-9494
▁courante	-9495
▁courants	-9496
▁céréales	-9497
▁découvre	-9498
▁définiti	-9499
▁entraîne	-9500
▁génocide	-9501
▁linéaire	-9502
▁moustiqu	-9503
▁vieillis	-9504
▁empreinte	-9505
▁juridique	-9506
▁organique	-9507
▁terribles	-9508
ographiques	-9509
▁dangereuse	-9510
▁domestique	-9511
▁engagement	-9512
▁fondations	-9513
▁industriel	-9514
▁proportion	-9515
▁précédente	-9516
zy	-9517
eck	-9518
gre	-9519
har	-9520
lif	-9521
non	-9522
tal	-9523
van	-9524
ycl	-9525
▁CD	-9526
▁Hy	-9527
alli	-9528
itch	-9529
odie	-9530
pire	-9531
rate	-9532
réer	-9533
émer	-9534
▁Sir	-9535
▁mac	-9536
arder	-9537
cheur	-9538
illés	-9539
intui	-9540
irent	-9541
mètre	-9542
▁Brow	-9543
▁chôm	-9544
▁âgés	-9545
traper	-9546
▁Musée	-9547
▁bâton	-9548
▁camar	-9549
▁coton	-9550
▁criti	-9551
▁dette	-9552
▁dieux	-9553
▁enter	-9554
▁fonde	-9555
▁geste	-9556
▁hiver	-9557
▁levez	-9558
▁récip	-9559
▁cigare	-9560
▁concev	-9561
▁endomm	-9562
▁improb	-9563
▁manuel	-9564
▁obligé	-9565
▁ordonn	-9566
▁perdue	-9567
▁promis	-9568
▁sporti	-9569
▁textes	-9570
▁visité	-9571
▁volent	-9572
▁actuels	-9573
▁constit	-9574
▁couples	-9575
▁déconne	-9576
▁fluores	-9577
▁inconnu	-9578
▁passées	-9579
▁portant	-9580
▁séparés	-9581
▁tristes	-9582
assurance	-9583
ocytocine	-9584
▁consomme	-9585
▁coupable	-9586
▁décembre	-9587
▁préférés	-9588
▁syndrome	-9589
▁trouvais	-9590
▁cherchant	-9591
▁demandons	-9592
▁détermine	-9593
▁effectuer	-9594
▁nécessité	-9595
▁promotion	-9596
▁automobile	-9597
▁inévitable	-9598
▁ressentent	-9599
▁reviennent	-9600
▁accessibles	-9601
▁commerciale	-9602
▁enregistrer	-9603
▁expressions	-9604
▁formidables	-9605
▁humanitaire	-9606
▁télécharger	-9607
▁disparaissent	-9608
▁exponentielle	-9609
Hé	-9610
Que	-9611
aqu	-9612
rog	-9613
ylo	-9614
ôte	-9615
ster	-9616
▁Rem	-9617
▁Sar	-9618
▁Sim	-9619
▁goû	-9620
▁âme	-9621
eller	-9622
orale	-9623
throp	-9624
truis	-9625
èques	-9626
▁Sing	-9627
▁Soit	-9628
▁anec	-9629
▁arai	-9630
▁durs	-9631
▁fine	-9632
▁rech	-9633
▁sage	-9634
erreur	-9635
▁Coran	-9636
▁Vidéo	-9637
▁carit	-9638
▁enfer	-9639
▁gross	-9640
▁météo	-9641
▁posée	-9642
▁vagin	-9643
acteurs	-9644
appelez	-9645
oiseaux	-9646
▁ajoute	-9647
▁boîtes	-9648
▁bétail	-9649
▁débuté	-9650
▁fiable	-9651
▁marqué	-9652
▁pardon	-9653
▁pleins	-9654
▁répété	-9655
▁tribun	-9656
iliation	-9657
▁contour	-9658
▁rappelé	-9659
▁répéter	-9660
▁schémas	-9661
▁sondage	-9662
▁troupes	-9663
▁étendre	-9664
▁étendue	-9665
orchestre	-9666
▁apprenez	-9667
▁branches	-9668
▁capitale	-9669
▁créateur	-9670
▁répandre	-9671
▁suggérer	-9672
▁apparence	-9673
▁envisager	-9674
▁expansion	-9675
▁positions	-9676
▁prenaient	-9677
▁priorités	-9678
▁préserver	-9679
▁ressentez	-9680
▁réfléchit	-9681
▁souhaitez	-9682
▁traversent	-9683
▁trouvaient	-9684
▁évènements	-9685
▁choisissent	-9686
▁financières	-9687
▁sensibilité	-9688
Ex	-9689
itt	-9690
ost	-9691
pas	-9692
ril	-9693
▁Lé	-9694
▁RB	-9695
astr	-9696
atar	-9697
dote	-9698
encé	-9699
inés	-9700
opée	-9701
ttes	-9702
▁70%	-9703
▁Ali	-9704
▁Che	-9705
▁Num	-9706
▁cac	-9707
▁lap	-9708
▁sph	-9709
▁tar	-9710
▁véc	-9711
athan	-9712
aurai	-9713
ogène	-9714
opath	-9715
ument	-9716
▁Bron	-9717
▁Eric	-9718
▁Glob	-9719
▁Rock	-9720
▁Stev	-9721
▁anne	-9722
▁arra	-9723
▁fixe	-9724
▁sexy	-9725
▁soul	-9726
▁vols	-9727
alphab	-9728
arbres	-9729
enseur	-9730
ionner	-9731
▁Chili	-9732
▁Golfe	-9733
▁Shang	-9734
▁dilem	-9735
▁exact	-9736
▁fiers	-9737
▁fruit	-9738
▁odeur	-9739
▁oncle	-9740
▁pouce	-9741
▁prost	-9742
▁soeur	-9743
▁tubes	-9744
ativité	-9745
honneur	-9746
opinion	-9747
ouilles	-9748
▁affich	-9749
▁config	-9750
▁empris	-9751
▁fondée	-9752
▁navire	-9753
▁plaque	-9754
▁poches	-9755
▁sauvet	-9756
▁sièges	-9757
illusion	-9758
investir	-9759
▁authent	-9760
▁directe	-9761
▁honneur	-9762
▁meubles	-9763
▁passera	-9764
▁procure	-9765
▁admettre	-9766
▁amateurs	-9767
▁bénéfice	-9768
▁diraient	-9769
▁mobilité	-9770
▁ouvertes	-9771
▁partagée	-9772
▁privilég	-9773
▁stupides	-9774
▁africaine	-9775
▁batteries	-9776
▁boulevers	-9777
▁brillante	-9778
▁candidats	-9779
▁néanmoins	-9780
▁préfèrent	-9781
utilisateur	-9782
▁algorithme	-9783
▁architecte	-9784
▁augmentent	-9785
▁dynamiques	-9786
visionnement	-9787
▁concurrence	-9788
▁dangereuses	-9789
▁honnêtement	-9790
▁significatif	-9791
▁propriétaires	-9792
RA	-9793
App	-9794
irs	-9795
itz	-9796
ulf	-9797
ull	-9798
âme	-9799
▁Ni	-9800
▁PC	-9801
▁éb	-9802
anée	-9803
argu	-9804
disp	-9805
esth	-9806
igne	-9807
port	-9808
shir	-9809
utés	-9810
êter	-9811
▁Enf	-9812
▁Ray	-9813
▁ber	-9814
▁bip	-9815
▁bro	-9816
▁hur	-9817
▁net	-9818
▁urg	-9819
erait	-9820
gents	-9821
ories	-9822
uyant	-9823
▁cage	-9824
▁poub	-9825
▁égal	-9826
accoup	-9827
amuser	-9828
ctrice	-9829
endrez	-9830
outils	-9831
▁2010,	-9832
▁Derek	-9833
▁Syrie	-9834
▁ampli	-9835
▁fière	-9836
▁neutr	-9837
▁plier	-9838
▁résil	-9839
▁épidé	-9840
étendre	-9841
▁Suisse	-9842
▁Virgin	-9843
▁aimait	-9844
▁conclu	-9845
▁créées	-9846
▁famine	-9847
▁garage	-9848
▁grotte	-9849
▁invite	-9850
▁isolés	-9851
▁neutre	-9852
▁remède	-9853
▁rouler	-9854
▁sexuel	-9855
observer	-9856
▁attendu	-9857
▁avocats	-9858
▁creuser	-9859
▁dépense	-9860
▁fasciné	-9861
▁fausses	-9862
▁maîtres	-9863
▁réponds	-9864
▁trouble	-9865
▁établis	-9866
explosion	-9867
interview	-9868
ologistes	-9869
éclairage	-9870
▁agissent	-9871
▁déménagé	-9872
▁exercice	-9873
▁grandeur	-9874
▁inspirés	-9875
▁naviguer	-9876
▁toxiques	-9877
▁victoire	-9878
Américains	-9879
▁courageux	-9880
▁démocrati	-9881
▁médicales	-9882
▁observons	-9883
Antarctique	-9884
▁brièvement	-9885
▁conseiller	-9886
▁construits	-9887
▁individuel	-9888
▁représenté	-9889
▁visualiser	-9890
▁combustible	-9891
▁fournissent	-9892
▁respiration	-9893
▁transforment	-9894
▁constructions	-9895
CA	-9896
00,	-9897
Mon	-9898
hom	-9899
ini	-9900
ouc	-9901
pit	-9902
sun	-9903
▁pn	-9904
..."	-9905
affi	-9906
eute	-9907
kins	-9908
▁1,5	-9909
▁Aut	-9910
▁Imp	-9911
▁far	-9912
▁fun	-9913
eries	-9914
incer	-9915
initi	-9916
itale	-9917
liste	-9918
omage	-9919
quets	-9920
ropie	-9921
écris	-9922
▁Brun	-9923
▁Long	-9924
▁agri	-9925
▁audi	-9926
▁cath	-9927
▁chou	-9928
▁cuir	-9929
▁dévo	-9930
▁ench	-9931
▁feux	-9932
▁rats	-9933
▁sale	-9934
encour	-9935
issais	-9936
▁coupé	-9937
▁diapo	-9938
▁intég	-9939
▁isolé	-9940
▁marin	-9941
▁modes	-9942
▁noter	-9943
▁pères	-9944
▁saute	-9945
▁savon	-9946
▁sécur	-9947
▁tronc	-9948
▁trott	-9949
coptère	-9950
estival	-9951
landais	-9952
élément	-9953
▁Center	-9954
▁Christ	-9955
▁Italie	-9956
▁billet	-9957
▁format	-9958
▁gâteau	-9959
▁géants	-9960
▁généré	-9961
▁jouait	-9962
▁judici	-9963
▁patron	-9964
▁poumon	-9965
▁prédit	-9966
▁périph	-9967
▁pêcher	-9968
▁répéti	-9969
▁tunnel	-9970
▁étudie	-9971
altitude	-9972
iblement	-9973
intégrer	-9974
oustique	-9975
▁Faisons	-9976
▁Vietnam	-9977
▁démarré	-9978
▁ennemis	-9979
▁grandit	-9980
▁mettait	-9981
▁perpétu	-9982
▁reflète	-9983
▁viendra	-9984
▁Monsieur	-9985
▁composés	-9986
▁descendu	-9987
▁horizont	-9988
▁plaisant	-9989
▁reprises	-9990
▁revanche	-9991
▁tragique	-9992
écosystème	-9993
▁dinosaure	-9994
▁dirigeant	-9995
▁identifié	-9996
▁impliquer	-9997
▁incapable	-9998
▁interface	-9999
▁mensonges	-10000
▁procédure	-10001
▁rassemblé	-10002
▁respecter	-10003
▁superfici	-10004
▁bouteilles	-10005
▁contrôlent	-10006
▁différenci	-10007
▁perfection	-10008
▁pleinement	-10009
▁réagissent	-10010
▁individuels	-10011
▁alimentation	-10012
▁instructions	-10013
▁traditionnels	-10014
▁manifestations	-10015
ET	-10016
Un	-10017
ake	-10018
ero	-10019
feu	-10020
had	-10021
ker	-10022
mez	-10023
och	-10024
ple	-10025
▁Li	-10026
▁US	-10027
ffis	-10028
ider	-10029
▁Hen	-10030
▁Tas	-10031
▁Tim	-10032
▁dys	-10033
▁icô	-10034
▁uni	-10035
chers	-10036
elson	-10037
insul	-10038
tième	-10039
▁Bref	-10040
▁bamb	-10041
▁doux	-10042
▁duré	-10043
▁exag	-10044
▁luci	-10045
▁rond	-10046
▁surn	-10047
▁Andre	-10048
▁Bronx	-10049
▁coinc	-10050
▁diarr	-10051
▁juger	-10052
▁parcs	-10053
▁saine	-10054
▁smart	-10055
▁étage	-10056
▁évalu	-10057
armonie	-10058
emplois	-10059
install	-10060
▁duquel	-10061
▁entrez	-10062
▁finale	-10063
▁inclut	-10064
▁intent	-10065
▁noires	-10066
▁orange	-10067
▁privés	-10068
▁quitte	-10069
▁résume	-10070
▁sortez	-10071
▁souter	-10072
▁supers	-10073
▁épaule	-10074
applique	-10075
esthésie	-10076
rètement	-10077
▁Blanche	-10078
▁Indiens	-10079
▁Parlons	-10080
▁Passons	-10081
▁Saturne	-10082
▁apparue	-10083
▁bougent	-10084
▁corromp	-10085
▁détruis	-10086
▁février	-10087
▁manuels	-10088
▁nourrit	-10089
▁papiers	-10090
▁portait	-10091
▁profits	-10092
▁session	-10093
▁suggéré	-10094
▁séparer	-10095
▁appelait	-10096
▁envoient	-10097
▁espérant	-10098
▁lecteurs	-10099
▁méritent	-10100
▁réalisée	-10101
▁sérieuse	-10102
▁terrains	-10103
▁échanges	-10104
incroyable	-10105
▁Fondation	-10106
▁Seulement	-10107
▁changeant	-10108
▁positives	-10109
▁présentes	-10110
▁appartient	-10111
▁occidental	-10112
▁prototypes	-10113
▁rapprocher	-10114
▁télescopes	-10115
▁constituent	-10116
▁religieuses	-10117
▁réalisation	-10118
▁réussissent	-10119
▁supermarché	-10120
▁communiquent	-10121
▁individuelles	-10122
iP	-10123
dul	-10124
hée	-10125
lyn	-10126
oug	-10127
thi	-10128
way	-10129
▁AK	-10130
▁LT	-10131
Isra	-10132
atch	-10133
atti	-10134
inée	-10135
▁192	-10136
▁50,	-10137
▁Fem	-10138
▁How	-10139
▁Jés	-10140
▁Lin	-10141
▁Rés	-10142
▁aud	-10143
▁blo	-10144
▁gra	-10145
▁riv	-10146
▁tat	-10147
manie	-10148
offre	-10149
pirer	-10150
▁dons	-10151
▁fins	-10152
▁heur	-10153
▁mena	-10154
▁mépr	-10155
▁puzz	-10156
▁unif	-10157
bercul	-10158
diques	-10159
tienne	-10160
▁Contr	-10161
▁Scott	-10162
▁incon	-10163
▁lions	-10164
▁longs	-10165
▁mince	-10166
▁nerfs	-10167
▁press	-10168
▁score	-10169
▁voile	-10170
▁égale	-10171
▁équit	-10172
cession	-10173
chaient	-10174
ectares	-10175
extrême	-10176
horizon	-10177
otiques	-10178
établir	-10179
▁Jamais	-10180
▁acteur	-10181
▁allong	-10182
▁cachée	-10183
▁coûter	-10184
▁cycles	-10185
▁devint	-10186
▁enlève	-10187
▁genres	-10188
▁hausse	-10189
▁larges	-10190
▁rebond	-10191
▁retiré	-10192
▁sonore	-10193
araignée	-10194
viétique	-10195
▁Pouvons	-10196
▁Réfléch	-10197
▁absolue	-10198
▁devinez	-10199
▁fragile	-10200
▁fromage	-10201
▁glamour	-10202
▁grimper	-10203
▁ignorer	-10204
▁illégal	-10205
▁intenti	-10206
▁plonger	-10207
▁privées	-10208
▁radical	-10209
▁soulève	-10210
▁tumeurs	-10211
ieusement	-10212
ignorance	-10213
▁Ensemble	-10214
▁allemand	-10215
▁célèbres	-10216
▁diffuser	-10217
▁dopamine	-10218
▁fourniss	-10219
▁salaires	-10220
▁violents	-10221
▁échelles	-10222
▁apportent	-10223
▁autonomes	-10224
▁comporter	-10225
▁constitue	-10226
▁doucement	-10227
intéressent	-10228
observation	-10229
▁douloureux	-10230
▁terroriste	-10231
effondrement	-10232
▁déplacement	-10233
▁profondeurs	-10234
▁préparation	-10235
▁spécialiste	-10236
▁universelle	-10237
▁consommateur	-10238
▁perspectives	-10239
▁responsabilités	-10240
30	-10241
Ch	-10242
ao	-10243
ki	-10244
yo	-10245
enh	-10246
iog	-10247
tén	-10248
vol	-10249
ases	-10250
elin	-10251
itoy	-10252
olet	-10253
ound	-10254
plan	-10255
tude	-10256
well	-10257
▁Mer	-10258
▁féc	-10259
▁mos	-10260
aterr	-10261
ayant	-10262
encre	-10263
venue	-10264
▁Ford	-10265
▁Narr	-10266
▁Penn	-10267
▁Tant	-10268
▁aver	-10269
▁boit	-10270
▁bête	-10271
▁coca	-10272
▁ital	-10273
▁magn	-10274
▁migr	-10275
▁tsun	-10276
ladesh	-10277
rammes	-10278
umines	-10279
▁Maman	-10280
▁Soyez	-10281
▁audit	-10282
▁certi	-10283
▁chair	-10284
▁forcé	-10285
▁lisez	-10286
▁occas	-10287
▁arabes	-10288
▁censés	-10289
▁exacte	-10290
▁filmer	-10291
▁fourni	-10292
▁mentir	-10293
▁occupé	-10294
équation	-10295
▁adapter	-10296
▁applaud	-10297
▁choisis	-10298
▁connues	-10299
▁destiné	-10300
▁définit	-10301
▁engager	-10302
▁habitat	-10303
▁institu	-10304
▁opinion	-10305
▁réforme	-10306
▁sanguin	-10307
berculose	-10308
▁Caroline	-10309
▁critères	-10310
▁célébrer	-10311
▁enseigne	-10312
▁illusion	-10313
▁mangeons	-10314
▁parcouru	-10315
▁équation	-10316
▁Wikipedia	-10317
▁accélérer	-10318
▁agricoles	-10319
▁centrales	-10320
▁observant	-10321
▁réglement	-10322
▁séquences	-10323
▁étonnante	-10324
▁conviction	-10325
▁directeurs	-10326
▁influencer	-10327
▁intentions	-10328
▁philosophe	-10329
▁progresser	-10330
▁présentent	-10331
▁satisfaire	-10332
▁historiques	-10333
▁omniprésent	-10334
▁mutuellement	-10335
▁ressemblerait	-10336
▁habituellement	-10337
▁instantanément	-10338
eg	-10339
agh	-10340
uts	-10341
▁%,	-10342
▁2.	-10343
▁31	-10344
▁ya	-10345
amas	-10346
ames	-10347
arie	-10348
dies	-10349
dité	-10350
ourg	-10351
tais	-10352
▁90,	-10353
▁Lou	-10354
▁Lut	-10355
▁Sin	-10356
▁har	-10357
▁lés	-10358
▁pav	-10359
▁éol	-10360
estim	-10361
grais	-10362
lines	-10363
onard	-10364
uster	-10365
▁West	-10366
▁boul	-10367
▁chol	-10368
▁corb	-10369
▁déri	-10370
▁noci	-10371
▁panc	-10372
▁prol	-10373
▁quar	-10374
▁épis	-10375
endrai	-10376
quiert	-10377
urants	-10378
▁Jésus	-10379
▁filet	-10380
▁guide	-10381
▁haine	-10382
▁plomb	-10383
▁provo	-10384
▁reine	-10385
▁rôles	-10386
▁stopp	-10387
▁toits	-10388
Univers	-10389
arrivée	-10390
quaient	-10391
▁Colomb	-10392
▁Gandhi	-10393
▁avocat	-10394
▁brûler	-10395
▁dingue	-10396
▁diriez	-10397
▁déprim	-10398
▁examen	-10399
▁flèche	-10400
▁future	-10401
▁infini	-10402
▁marath	-10403
▁marier	-10404
▁mesuré	-10405
▁primor	-10406
▁présid	-10407
▁racine	-10408
▁éclair	-10409
accepter	-10410
exercice	-10411
▁Johnson	-10412
▁Science	-10413
▁Seconde	-10414
▁correct	-10415
▁exposés	-10416
▁favoris	-10417
▁mobilis	-10418
▁montant	-10419
▁réduite	-10420
▁sexuels	-10421
▁tempête	-10422
▁trouvés	-10423
▁émotion	-10424
entrepren	-10425
hypothèse	-10426
issements	-10427
▁agricole	-10428
▁effectué	-10429
▁exploser	-10430
▁instants	-10431
▁posséder	-10432
▁prostitu	-10433
intéresser	-10434
▁Autrement	-10435
▁affronter	-10436
▁arguments	-10437
▁bénévoles	-10438
▁gentilles	-10439
▁interromp	-10440
▁intuition	-10441
▁peintures	-10442
▁recommand	-10443
▁repousser	-10444
▁réalisent	-10445
▁tropicale	-10446
▁variation	-10447
▁atmosphère	-10448
▁controvers	-10449
▁industries	-10450
▁retrouvent	-10451
▁substances	-10452
▁transplant	-10453
▁conclusions	-10454
▁considèrent	-10455
▁disparition	-10456
▁recommencer	-10457
▁rencontrent	-10458
▁transformée	-10459
▁indépendante	-10460
enregistrement	-10461
▁reconstruction	-10462
eld	-10463
ild	-10464
lui	-10465
rol	-10466
▁Pé	-10467
▁Sn	-10468
▁be	-10469
ails	-10470
angé	-10471
aura	-10472
inse	-10473
▁blé	-10474
cente	-10475
jamin	-10476
osons	-10477
oyons	-10478
écout	-10479
élite	-10480
▁Jane	-10481
▁Shak	-10482
▁cosm	-10483
▁céli	-10484
▁flam	-10485
▁pist	-10486
▁racc	-10487
▁raff	-10488
▁évol	-10489
andert	-10490
inconn	-10491
ission	-10492
▁Earth	-10493
▁Levez	-10494
▁Pékin	-10495
▁abond	-10496
▁décor	-10497
▁dépit	-10498
▁islam	-10499
▁merde	-10500
▁nette	-10501
▁posez	-10502
▁rends	-10503
▁voila	-10504
▁éradi	-10505
ampleur	-10506
cidence	-10507
ensions	-10508
thiopie	-10509
ublique	-10510
▁Disons	-10511
▁Nelson	-10512
▁canaux	-10513
▁casser	-10514
▁doublé	-10515
▁formés	-10516
▁futurs	-10517
▁inclus	-10518
▁litres	-10519
▁poster	-10520
▁postes	-10521
▁revend	-10522
▁répète	-10523
▁révèle	-10524
▁simult	-10525
▁sperme	-10526
tination	-10527
▁Premier	-10528
▁brouill	-10529
▁chevaux	-10530
▁célibat	-10531
▁dauphin	-10532
▁discuté	-10533
▁déteste	-10534
▁invités	-10535
▁publiée	-10536
▁reviens	-10537
▁rituels	-10538
▁royaume	-10539
▁sortant	-10540
▁élevées	-10541
▁éloigné	-10542
▁épaules	-10543
ordinaire	-10544
▁Benjamin	-10545
▁Rappelez	-10546
▁anglaise	-10547
▁distribu	-10548
▁esclaves	-10549
▁existait	-10550
▁hallucin	-10551
▁majeures	-10552
▁observez	-10553
▁opinions	-10554
▁souffrir	-10555
▁stations	-10556
▁stéréoty	-10557
▁voyaient	-10558
▁chasseurs	-10559
▁deviendra	-10560
▁entraîner	-10561
▁scolaires	-10562
▁souhaiter	-10563
▁thermique	-10564
▁écrivains	-10565
intéressant	-10566
▁bénéficier	-10567
▁durabilité	-10568
▁mentionner	-10569
▁schizophré	-10570
▁association	-10571
▁confortable	-10572
▁distinction	-10573
▁permettrait	-10574
▁publication	-10575
▁transparent	-10576
▁combustibles	-10577
▁conservateurs	-10578
▁génétiquement	-10579
▁neurosciences	-10580
▁reconnaissant	-10581
ep	-10582
to	-10583
lip	-10584
oln	-10585
ouh	-10586
ator	-10587
irez	-10588
migr	-10589
çage	-10590
▁2,5	-10591
▁30%	-10592
▁60,	-10593
▁Mas	-10594
▁Uni	-10595
▁myc	-10596
attle	-10597
orker	-10598
▁5000	-10599
▁Nick	-10600
▁Phil	-10601
▁pizz	-10602
▁prai	-10603
▁pôle	-10604
▁ramp	-10605
▁rede	-10606
▁sulf	-10607
incoln	-10608
istres	-10609
niques	-10610
villes	-10611
▁Santé	-10612
▁adoré	-10613
▁diman	-10614
▁incar	-10615
▁intri	-10616
▁pente	-10617
▁piège	-10618
▁scann	-10619
▁vents	-10620
article	-10621
quement	-10622
visible	-10623
▁Island	-10624
▁blessé	-10625
▁casque	-10626
▁cauche	-10627
▁danser	-10628
▁divisé	-10629
▁incorp	-10630
▁indice	-10631
▁justes	-10632
▁anthrop	-10633
▁battent	-10634
▁chaises	-10635
▁dessiné	-10636
▁financé	-10637
▁indices	-10638
▁interag	-10639
▁milieux	-10640
▁paroles	-10641
▁plateau	-10642
▁protège	-10643
▁simuler	-10644
▁violent	-10645
▁échouer	-10646
animation	-10647
ertension	-10648
organisme	-10649
▁douzaine	-10650
▁fraction	-10651
▁lointain	-10652
▁méchants	-10653
▁passions	-10654
▁phénomén	-10655
▁réformes	-10656
▁soutient	-10657
▁tournent	-10658
▁vendredi	-10659
architecte	-10660
▁approprié	-10661
▁consacrer	-10662
▁dépendent	-10663
▁extraterr	-10664
▁librement	-10665
▁rassemble	-10666
▁sauvetage	-10667
▁signature	-10668
▁hiérarchie	-10669
▁interconne	-10670
▁obtiennent	-10671
▁sculptures	-10672
▁électrodes	-10673
▁dispositifs	-10674
▁passionnant	-10675
▁raisonnement	-10676
▁civilisations	-10677
▁correspondent	-10678
▁démographique	-10679
Ab	-10680
OC	-10681
dh	-10682
».	-10683
rég	-10684
▁37	-10685
▁38	-10686
▁he	-10687
conf	-10688
▁Exc	-10689
▁IRM	-10690
▁Pan	-10691
▁enj	-10692
▁fat	-10693
▁ral	-10694
▁tom	-10695
▁élu	-10696
atine	-10697
endie	-10698
ensus	-10699
essai	-10700
ettre	-10701
ibans	-10702
inton	-10703
ourde	-10704
▁Bell	-10705
▁Mike	-10706
▁gère	-10707
▁logo	-10708
▁néoc	-10709
▁spéc	-10710
vaient	-10711
▁drone	-10712
▁fixer	-10713
▁genou	-10714
▁immob	-10715
▁légal	-10716
▁nuits	-10717
▁pompe	-10718
▁repos	-10719
▁scand	-10720
▁situe	-10721
▁sèche	-10722
ellules	-10723
rupteur	-10724
éraient	-10725
▁Désolé	-10726
▁Numéro	-10727
▁comète	-10728
▁engage	-10729
▁filtre	-10730
▁infect	-10731
▁nettoy	-10732
▁pantal	-10733
▁plonge	-10734
▁puzzle	-10735
▁suivez	-10736
▁tenant	-10737
▁vastes	-10738
▁ventes	-10739
imprimer	-10740
▁Mandela	-10741
▁Seattle	-10742
▁atelier	-10743
▁attaché	-10744
▁auteurs	-10745
▁charges	-10746
▁chômage	-10747
▁cochons	-10748
▁collège	-10749
▁couteau	-10750
▁examens	-10751
▁fédéral	-10752
▁gagnant	-10753
▁majeurs	-10754
▁modifié	-10755
▁optique	-10756
▁reprodu	-10757
▁soutenu	-10758
▁termine	-10759
▁toxique	-10760
▁témoign	-10761
interagir	-10762
▁calories	-10763
▁ceinture	-10764
▁contamin	-10765
▁contenir	-10766
▁cybercri	-10767
▁diplômés	-10768
▁domicile	-10769
▁mutation	-10770
▁obstacle	-10771
▁original	-10772
▁pandémie	-10773
▁prostate	-10774
▁revenons	-10775
▁spéciaux	-10776
▁traitent	-10777
ordination	-10778
▁Messieurs	-10779
▁Récemment	-10780
▁assembler	-10781
▁chimpanzé	-10782
▁constitué	-10783
▁douzaines	-10784
▁intermédi	-10785
▁phosphore	-10786
▁prédateur	-10787
▁signifier	-10788
▁Bangladesh	-10789
▁biologiste	-10790
▁concentrés	-10791
▁excellente	-10792
▁inférieure	-10793
▁permission	-10794
▁révélation	-10795
▁sécheresse	-10796
électronique	-10797
▁progression	-10798
▁considérable	-10799
▁renouvelable	-10800
▁satisfaction	-10801
▁manifestation	-10802
▁planification	-10803
xy	-10804
hai	-10805
mil	-10806
nal	-10807
éné	-10808
▁CE	-10809
▁Mi	-10810
▁Mu	-10811
▁pé	-10812
abby	-10813
agog	-10814
asme	-10815
espe	-10816
oiff	-10817
ésil	-10818
▁Per	-10819
▁ais	-10820
▁ill	-10821
▁oss	-10822
jihad	-10823
lètes	-10824
royez	-10825
éléph	-10826
▁Rand	-10827
▁Sauf	-10828
▁Supp	-10829
▁Tanz	-10830
▁Unis	-10831
▁déco	-10832
▁grec	-10833
▁jazz	-10834
▁rati	-10835
formes	-10836
oiseau	-10837
rlande	-10838
édents	-10839
▁Brian	-10840
▁Delhi	-10841
▁Faire	-10842
▁Salut	-10843
▁Savez	-10844
▁absor	-10845
▁arrêt	-10846
▁fuite	-10847
▁milit	-10848
▁motiv	-10849
▁médit	-10850
▁ponts	-10851
▁rétab	-10852
▁écart	-10853
▁élarg	-10854
mpiques	-10855
rection	-10856
▁Howard	-10857
▁Projet	-10858
▁achète	-10859
▁basées	-10860
▁brésil	-10861
▁couvre	-10862
▁donnés	-10863
▁détach	-10864
▁engend	-10865
▁gloire	-10866
▁jaunes	-10867
▁législ	-10868
▁reçois	-10869
▁réside	-10870
▁saviez	-10871
▁tables	-10872
▁verrou	-10873
écologie	-10874
▁Lincoln	-10875
▁capteur	-10876
▁civique	-10877
▁enquête	-10878
▁juillet	-10879
▁limiter	-10880
▁linguis	-10881
▁malaria	-10882
▁rurales	-10883
▁supposé	-10884
▁tsunami	-10885
▁visuels	-10886
▁Brooklyn	-10887
▁Tanzanie	-10888
▁atteinte	-10889
▁coordonn	-10890
▁drapeaux	-10891
▁démarche	-10892
▁feraient	-10893
▁fragment	-10894
▁humanité	-10895
▁indienne	-10896
▁indiquer	-10897
▁interdit	-10898
▁provoqué	-10899
▁touchent	-10900
Atlantique	-10901
▁abordable	-10902
▁administr	-10903
▁cognitive	-10904
▁convertir	-10905
▁déterminé	-10906
▁illustrer	-10907
▁inférieur	-10908
▁nouveauté	-10909
▁policiers	-10910
▁recyclage	-10911
▁artificiel	-10912
▁classiques	-10913
▁commençant	-10914
▁imprimante	-10915
▁permanente	-10916
▁projection	-10917
intervention	-10918
opportunités	-10919
▁corrélation	-10920
▁tuberculose	-10921
▁observations	-10922
▁particuliers	-10923
▁préservation	-10924
▁continuellement	-10925
aa	-10926
ty	-10927
»,	-10928
Esp	-10929
eut	-10930
▁rè	-10931
adis	-10932
cier	-10933
ecti	-10934
omen	-10935
sons	-10936
tinc	-10937
uche	-10938
usez	-10939
élic	-10940
▁190	-10941
▁20,	-10942
▁30,	-10943
▁Moz	-10944
▁Pat	-10945
▁Ret	-10946
▁Vos	-10947
▁due	-10948
aniel	-10949
iaire	-10950
érait	-10951
▁Boud	-10952
▁Hans	-10953
▁Jose	-10954
▁Papa	-10955
▁Tony	-10956
▁airs	-10957
▁cock	-10958
▁refu	-10959
▁slog	-10960
▁écou	-10961
uteurs	-10962
vembre	-10963
▁2005,	-10964
▁Brown	-10965
▁Gabby	-10966
▁Steph	-10967
▁fumer	-10968
▁marée	-10969
▁payés	-10970
▁pénis	-10971
▁roule	-10972
▁tante	-10973
▁urban	-10974
anxiété	-10975
épargne	-10976
▁Berlin	-10977
▁Droits	-10978
▁Newton	-10979
▁agrand	-10980
▁conser	-10981
▁copier	-10982
▁gentil	-10983
▁musées	-10984
▁prenne	-10985
appeller	-10986
entement	-10987
ographic	-10988
ologiste	-10989
▁Conseil	-10990
▁combler	-10991
▁compare	-10992
▁costume	-10993
▁excités	-10994
▁graisse	-10995
▁manipul	-10996
▁motiver	-10997
▁méchant	-10998
▁pouvant	-10999
▁récolte	-11000
▁sombres	-11001
▁émerger	-11002
installer	-11003
▁appelées	-11004
▁centimes	-11005
▁décident	-11006
▁fabuleux	-11007
▁musicien	-11008
▁stabilis	-11009
▁terminée	-11010
▁urgences	-11011
enseignant	-11012
▁chirurgic	-11013
▁dépensent	-11014
▁passionné	-11015
▁réveiller	-11016
▁utilisait	-11017
▁champignon	-11018
▁inhabituel	-11019
▁intervenir	-11020
▁profession	-11021
▁gentillesse	-11022
▁équipements	-11023
▁combinaisons	-11024
▁entrepreneur	-11025
▁schizophrénie	-11026
▁universitaires	-11027
bi	-11028
ado	-11029
pha	-11030
sme	-11031
xic	-11032
▁my	-11033
aure	-11034
céan	-11035
dial	-11036
dits	-11037
nées	-11038
oign	-11039
oyal	-11040
rect	-11041
véni	-11042
▁Bab	-11043
▁Bir	-11044
▁Cyr	-11045
▁Net	-11046
▁Sah	-11047
▁asc	-11048
▁cic	-11049
▁raf	-11050
▁rub	-11051
assez	-11052
venir	-11053
édier	-11054
édois	-11055
▁Mère	-11056
▁cité	-11057
▁cube	-11058
▁enzy	-11059
▁jung	-11060
▁mine	-11061
▁rect	-11062
▁robe	-11063
▁surg	-11064
▁turb	-11065
▁Black	-11066
▁Entre	-11067
▁Grèce	-11068
▁Venez	-11069
▁absur	-11070
▁amies	-11071
▁crier	-11072
▁décro	-11073
▁flott	-11074
▁forum	-11075
▁grain	-11076
▁marge	-11077
▁numér	-11078
▁souri	-11079
▁tenez	-11080
aissait	-11081
espeare	-11082
▁Andrew	-11083
▁contag	-11084
▁financ	-11085
▁grains	-11086
▁grossi	-11087
▁marine	-11088
▁seriez	-11089
▁tenais	-11090
ancienne	-11091
intimité	-11092
▁Clinton	-11093
▁Nigéria	-11094
▁arrêtés	-11095
▁cliquer	-11096
▁comédie	-11097
▁courses	-11098
▁croître	-11099
▁doubler	-11100
▁glacier	-11101
▁marionn	-11102
▁mentaux	-11103
▁octobre	-11104
▁pirates	-11105
▁réussit	-11106
▁sentons	-11107
expansion	-11108
émergence	-11109
▁Attendez	-11110
▁Souvenez	-11111
▁arrivant	-11112
▁contente	-11113
▁cruciale	-11114
▁dimanche	-11115
▁familial	-11116
▁guérison	-11117
▁hormones	-11118
▁initiale	-11119
▁normales	-11120
▁négative	-11121
▁paradoxe	-11122
▁réaliste	-11123
▁réalités	-11124
▁Américain	-11125
▁actuelles	-11126
▁connectée	-11127
▁donnerait	-11128
▁dépensons	-11129
▁exception	-11130
▁féministe	-11131
▁justement	-11132
▁mutations	-11133
▁nationaux	-11134
▁pratiquer	-11135
▁récompens	-11136
intégration	-11137
▁cognitives	-11138
▁comportent	-11139
▁fascinante	-11140
▁libération	-11141
▁paramètres	-11142
▁vulnérable	-11143
▁chirurgiens	-11144
▁climatiques	-11145
▁construites	-11146
▁culturelles	-11147
▁journalisme	-11148
▁producteurs	-11149
▁socialement	-11150
▁synthétique	-11151
Éc	-11152
▁ç	-11153
dée	-11154
ima	-11155
rac	-11156
▁48	-11157
▁72	-11158
▁TV	-11159
amus	-11160
anny	-11161
gure	-11162
mées	-11163
outs	-11164
rans	-11165
tins	-11166
uies	-11167
▁Ele	-11168
▁Oug	-11169
▁cav	-11170
▁fle	-11171
▁sel	-11172
apour	-11173
arter	-11174
crire	-11175
monie	-11176
oques	-11177
orium	-11178
quare	-11179
queur	-11180
rices	-11181
yclop	-11182
▁000.	-11183
▁Actu	-11184
▁Nike	-11185
▁Pres	-11186
▁Pôle	-11187
▁Sous	-11188
▁Whit	-11189
▁baie	-11190
▁bouc	-11191
▁boue	-11192
▁grib	-11193
▁héro	-11194
▁muti	-11195
▁orth	-11196
▁pard	-11197
▁ride	-11198
▁rock	-11199
midité	-11200
▁2011,	-11201
▁acadé	-11202
▁brisé	-11203
▁défic	-11204
▁déliv	-11205
▁fusée	-11206
▁intes	-11207
▁jette	-11208
▁poils	-11209
▁puces	-11210
▁tonne	-11211
▁ultra	-11212
attends	-11213
donésie	-11214
olument	-11215
▁Donnez	-11216
▁adapté	-11217
▁cadres	-11218
▁causer	-11219
▁cuisin	-11220
▁ferons	-11221
▁géante	-11222
▁imiter	-11223
▁lancée	-11224
▁massac	-11225
▁mortel	-11226
▁météor	-11227
▁prêter	-11228
▁radios	-11229
▁réagit	-11230
▁subtil	-11231
▁violon	-11232
▁église	-11233
adoption	-11234
apparten	-11235
cription	-11236
▁Charlie	-11237
▁Partout	-11238
▁balance	-11239
▁canopée	-11240
▁changez	-11241
▁dilemme	-11242
▁futures	-11243
▁partent	-11244
▁plaques	-11245
▁remplie	-11246
▁retrait	-11247
▁revenue	-11248
▁équival	-11249
atisation	-11250
atterriss	-11251
▁Ministre	-11252
▁Shanghai	-11253
▁ampoules	-11254
▁amélioré	-11255
▁astronau	-11256
▁contacts	-11257
▁corriger	-11258
▁devenait	-11259
▁division	-11260
▁débattre	-11261
▁naissent	-11262
▁protégés	-11263
▁pêcheurs	-11264
▁répandue	-11265
▁vivantes	-11266
▁ambitieux	-11267
▁approches	-11268
▁contribue	-11269
▁cérémonie	-11270
▁européens	-11271
▁microscop	-11272
▁présentée	-11273
▁récepteur	-11274
▁tolérance	-11275
▁transfert	-11276
▁variables	-11277
▁consciente	-11278
▁essayaient	-11279
▁essentiels	-11280
▁grenouille	-11281
▁médiatique	-11282
▁organiques	-11283
▁permettait	-11284
▁recueillir	-11285
▁religieuse	-11286
▁Shakespeare	-11287
▁cybercrimin	-11288
▁occidentaux	-11289
▁enthousiaste	-11290
▁moléculaires	-11291
▁négociations	-11292
▁révolutionnaire	-11293
OL	-11294
ané	-11295
awa	-11296
gen	-11297
inn	-11298
ows	-11299
pos	-11300
rép	-11301
▁Kh	-11302
ings	-11303
itôt	-11304
meau	-11305
medi	-11306
pper	-11307
teau	-11308
unis	-11309
èges	-11310
▁350	-11311
▁900	-11312
▁Ass	-11313
▁Jui	-11314
▁Lac	-11315
▁Mel	-11316
▁cle	-11317
▁dat	-11318
▁fri	-11319
▁éve	-11320
atson	-11321
enver	-11322
envie	-11323
infin	-11324
nulle	-11325
otter	-11326
ousse	-11327
outch	-11328
pédia	-11329
ulter	-11330
viste	-11331
▁Brad	-11332
▁Fort	-11333
▁Prix	-11334
▁afro	-11335
▁conj	-11336
▁curs	-11337
▁hein	-11338
▁modu	-11339
▁mâch	-11340
▁sols	-11341
▁vice	-11342
active	-11343
angiog	-11344
esthés	-11345
ingues	-11346
oeuvre	-11347
upiter	-11348
▁1990,	-11349
▁Monte	-11350
▁South	-11351
▁Trans	-11352
▁basés	-11353
▁canal	-11354
▁charm	-11355
▁cylin	-11356
▁faill	-11357
▁folie	-11358
▁gardé	-11359
▁récif	-11360
▁révél	-11361
▁signé	-11362
▁soupe	-11363
▁synap	-11364
▁tuent	-11365
▁usées	-11366
ercices	-11367
itement	-11368
jectifs	-11369
ussitôt	-11370
éthique	-11371
▁audaci	-11372
▁basant	-11373
▁chanti	-11374
▁décour	-11375
▁défend	-11376
▁lèvres	-11377
▁margin	-11378
▁nommer	-11379
▁nôtres	-11380
▁poursu	-11381
▁remise	-11382
▁repris	-11383
▁tendre	-11384
▁trente	-11385
aventure	-11386
enseigne	-11387
immeuble	-11388
▁Anglais	-11389
▁Chacune	-11390
▁Puisque	-11391
▁Univers	-11392
▁achetez	-11393
▁conçues	-11394
▁glisser	-11395
▁génomes	-11396
▁inviter	-11397
▁moutons	-11398
▁oeuvres	-11399
▁planche	-11400
▁planter	-11401
▁refaire	-11402
▁soucier	-11403
▁stocker	-11404
▁équilib	-11405
inquiéter	-11406
▁associée	-11407
▁biomasse	-11408
▁diarrhée	-11409
▁notation	-11410
▁propager	-11411
▁surement	-11412
▁Plusieurs	-11413
▁Singapour	-11414
▁accomplis	-11415
▁certitude	-11416
▁changeons	-11417
▁disparaît	-11418
▁disposons	-11419
▁désaccord	-11420
▁géométrie	-11421
▁horribles	-11422
▁magazines	-11423
▁plaisante	-11424
▁protégées	-11425
▁rapproche	-11426
▁Européenne	-11427
▁compétence	-11428
▁distribuer	-11429
▁extérieure	-11430
▁infections	-11431
▁opposition	-11432
▁authentique	-11433
▁participent	-11434
▁écologiques	-11435
▁associations	-11436
▁commencement	-11437
▁coordination	-11438
▁probabilités	-11439
▁prostitution	-11440
▁représentant	-11441
▁détermination	-11442
▁visualisation	-11443
▁chimiothérapie	-11444
▁discrimination	-11445
▁psychologiques	-11446
Ah	-11447
BM	-11448
amé	-11449
bor	-11450
ech	-11451
ext	-11452
ita	-11453
lah	-11454
oui	-11455
▁5,	-11456
▁MK	-11457
aies	-11458
chim	-11459
imal	-11460
olée	-11461
pour	-11462
ward	-11463
▁185	-11464
▁Nat	-11465
▁Sun	-11466
▁Ted	-11467
▁Van	-11468
▁oxy	-11469
ansas	-11470
arium	-11471
eniez	-11472
orisé	-11473
quête	-11474
▁Jord	-11475
▁cite	-11476
▁jong	-11477
▁orph	-11478
▁pein	-11479
ambres	-11480
auriez	-11481
offrir	-11482
thèses	-11483
titute	-11484
élande	-11485
érable	-11486
étoile	-11487
▁1980,	-11488
▁Bruno	-11489
▁Pales	-11490
▁bords	-11491
▁cessé	-11492
▁expul	-11493
▁fiche	-11494
▁juges	-11495
▁parie	-11496
▁pizza	-11497
▁relie	-11498
▁verra	-11499
activer	-11500
ologies	-11501
▁Croyez	-11502
▁Watson	-11503
▁basket	-11504
▁dégoût	-11505
▁impôts	-11506
▁levier	-11507
▁maître	-11508
▁métaux	-11509
▁souver	-11510
▁séries	-11511
▁traits	-11512
▁venues	-11513
▁étendu	-11514
appelons	-11515
▁Jupiter	-11516
▁calculé	-11517
▁choisit	-11518
▁collect	-11519
▁explosé	-11520
▁filtres	-11521
▁miroirs	-11522
▁raccour	-11523
▁tricher	-11524
▁éduquer	-11525
exception	-11526
▁appliqué	-11527
▁apprises	-11528
▁aérienne	-11529
▁circuler	-11530
▁conceptu	-11531
▁contradi	-11532
▁devenons	-11533
▁flexible	-11534
▁généraux	-11535
▁lucioles	-11536
▁mentales	-11537
▁parlerai	-11538
▁précises	-11539
▁récentes	-11540
▁semblant	-11541
▁stockage	-11542
▁évoluent	-11543
expériment	-11544
▁Hollywood	-11545
▁bénéfique	-11546
▁confronté	-11547
▁dominante	-11548
▁fabriqués	-11549
▁identique	-11550
▁logements	-11551
▁parachute	-11552
▁passaient	-11553
▁retrouvée	-11554
incertitude	-11555
orientation	-11556
▁choisissez	-11557
▁collaborer	-11558
▁concepteur	-11559
▁cérébrales	-11560
▁efficacité	-11561
▁initiative	-11562
▁psychopath	-11563
▁résilience	-11564
▁tropicales	-11565
hypertension	-11566
▁domestiques	-11567
▁psychologue	-11568
▁typiquement	-11569
▁documentaire	-11570
▁communautaire	-11571
▁mathématicien	-11572
▁moustiquaires	-11573
▁collaborateurs	-11574
▁spécifiquement	-11575
BC	-11576
VD	-11577
lv	-11578
ms	-11579
na	-11580
ût	-11581
adg	-11582
dic	-11583
ena	-11584
▁44	-11585
▁BM	-11586
▁Ki	-11587
aigu	-11588
cton	-11589
fonc	-11590
four	-11591
héro	-11592
itié	-11593
pler	-11594
thur	-11595
èler	-11596
▁DVD	-11597
▁Eli	-11598
▁Her	-11599
▁Kat	-11600
▁SPM	-11601
▁Sén	-11602
▁Tam	-11603
▁oly	-11604
Océan	-11605
glise	-11606
graph	-11607
lanta	-11608
ortez	-11609
relle	-11610
shirt	-11611
uient	-11612
ynman	-11613
étrer	-11614
▁Prof	-11615
▁abri	-11616
▁clôt	-11617
▁empi	-11618
▁file	-11619
▁hété	-11620
▁insi	-11621
▁lave	-11622
▁obti	-11623
▁ravi	-11624
▁stig	-11625
▁ultr	-11626
andais	-11627
dience	-11628
▁2006,	-11629
▁Bonne	-11630
▁Compr	-11631
▁Henry	-11632
▁Kevin	-11633
▁Liban	-11634
▁filmé	-11635
▁idiot	-11636
▁locom	-11637
▁menée	-11638
▁peurs	-11639
▁piles	-11640
▁pitié	-11641
▁règne	-11642
▁strat	-11643
▁thons	-11644
▁vélos	-11645
▁équiv	-11646
gentine	-11647
métique	-11648
ocrates	-11649
olement	-11650
traient	-11651
▁Albert	-11652
▁Oxford	-11653
▁bottes	-11654
▁carton	-11655
▁cataly	-11656
▁cibles	-11657
▁djihad	-11658
▁ennemi	-11659
▁entrés	-11660
▁mènent	-11661
▁naître	-11662
▁parait	-11663
▁parfum	-11664
▁retomb	-11665
▁samedi	-11666
▁trains	-11667
▁vendus	-11668
▁échapp	-11669
insuline	-11670
ociation	-11671
érateurs	-11672
▁Feynman	-11673
▁Ouganda	-11674
▁binaire	-11675
▁cachées	-11676
▁constat	-11677
▁croquis	-11678
▁fortune	-11679
▁marches	-11680
▁ralenti	-11681
▁restant	-11682
▁tempore	-11683
▁vendent	-11684
▁visions	-11685
▁évoluti	-11686
▁Britanni	-11687
▁dirigent	-11688
▁franchir	-11689
▁immenses	-11690
▁immobile	-11691
▁incluant	-11692
▁libéraux	-11693
▁négatifs	-11694
▁remédier	-11695
▁traitons	-11696
▁vertical	-11697
▁échanger	-11698
▁Narrateur	-11699
▁Wikipédia	-11700
▁familiers	-11701
▁fragments	-11702
▁manifeste	-11703
▁parasites	-11704
▁planifier	-11705
▁portraits	-11706
▁recueilli	-11707
▁équations	-11708
▁Geographic	-11709
▁considérez	-11710
▁consistait	-11711
▁dramatique	-11712
▁enseignant	-11713
▁improbable	-11714
▁interfaces	-11715
▁mystérieux	-11716
▁planétaire	-11717
▁processeur	-11718
▁préoccuper	-11719
▁réinventer	-11720
▁bidonvilles	-11721
▁grenouilles	-11722
▁rassemblent	-11723
▁travailleur	-11724
▁photographié	-11725
interprétation	-11726
▁démocratiques	-11727
▁soigneusement	-11728
-1	-11729
BA	-11730
OK	-11731
ish	-11732
sés	-11733
▁JH	-11734
▁SW	-11735
abie	-11736
alem	-11737
ayez	-11738
olis	-11739
rise	-11740
▁160	-11741
▁25%	-11742
▁40%	-11743
▁Amy	-11744
▁Cur	-11745
▁Inc	-11746
▁NSA	-11747
▁Sus	-11748
▁mix	-11749
▁nig	-11750
▁pix	-11751
▁rab	-11752
▁tac	-11753
▁van	-11754
eutes	-11755
extré	-11756
infir	-11757
isses	-11758
orial	-11759
▁Carl	-11760
▁Dire	-11761
▁bask	-11762
▁cric	-11763
▁dort	-11764
▁paye	-11765
▁plas	-11766
ailler	-11767
examen	-11768
excell	-11769
illion	-11770
istote	-11771
ulmans	-11772
épanou	-11773
▁Ebola	-11774
▁Jones	-11775
▁couru	-11776
▁cœurs	-11777
▁divin	-11778
▁enver	-11779
▁farde	-11780
▁redes	-11781
▁stric	-11782
▁tacti	-11783
aisseur	-11784
ectueux	-11785
▁Lester	-11786
▁School	-11787
▁Second	-11788
▁attire	-11789
▁cloche	-11790
▁coincé	-11791
▁complé	-11792
▁crayon	-11793
▁existé	-11794
▁fluide	-11795
▁fondre	-11796
▁libert	-11797
▁lourde	-11798
▁poudre	-11799
▁restre	-11800
▁répert	-11801
▁sports	-11802
▁séquoi	-11803
▁tombés	-11804
▁triang	-11805
▁valait	-11806
▁ventil	-11807
élection	-11808
▁analysé	-11809
▁attaqué	-11810
▁basique	-11811
▁blessés	-11812
▁cricket	-11813
▁dispose	-11814
▁employé	-11815
▁faculté	-11816
▁fermier	-11817
▁infecti	-11818
▁lecteur	-11819
▁meurtri	-11820
▁offrent	-11821
▁recevez	-11822
▁texture	-11823
autonomie	-11824
infection	-11825
optimisme	-11826
▁Talibans	-11827
▁apparait	-11828
▁bancaire	-11829
▁bureaucr	-11830
▁cognitif	-11831
▁composée	-11832
▁coopérer	-11833
▁ethnique	-11834
▁festival	-11835
▁marathon	-11836
▁marchant	-11837
▁moralité	-11838
▁primates	-11839
▁réacteur	-11840
▁voudriez	-11841
▁échapper	-11842
assemblage	-11843
évaluation	-11844
▁chauffeur	-11845
▁cherchais	-11846
▁contraste	-11847
▁créations	-11848
▁gratitude	-11849
▁parlement	-11850
▁particule	-11851
▁passagers	-11852
▁permanent	-11853
▁regardiez	-11854
▁retournée	-11855
▁résidents	-11856
▁solitaire	-11857
▁visiteurs	-11858
▁électrons	-11859
▁diminution	-11860
▁découvrons	-11861
▁interactif	-11862
▁intéressée	-11863
▁semblerait	-11864
▁spectateur	-11865
▁étonnantes	-11866
ologiquement	-11867
▁Département	-11868
▁millénaires	-11869
▁métabolisme	-11870
▁géographique	-11871
▁mammographie	-11872
▁International	-11873
▁enthousiastes	-11874
De	-11875
my	-11876
Bas	-11877
alé	-11878
apé	-11879
eus	-11880
mun	-11881
ope	-11882
ulg	-11883
yon	-11884
▁Pi	-11885
▁Sw	-11886
▁gy	-11887
▁lo	-11888
▁ov	-11889
dale	-11890
eues	-11891
omac	-11892
orée	-11893
ulés	-11894
▁1,2	-11895
▁60.	-11896
▁Abe	-11897
▁Cro	-11898
▁Hey	-11899
▁McD	-11900
▁Ram	-11901
▁Red	-11902
▁aig	-11903
▁cob	-11904
▁lou	-11905
▁pér	-11906
atéri	-11907
isent	-11908
rospe	-11909
éradi	-11910
évité	-11911
▁Data	-11912
▁Rick	-11913
▁biol	-11914
▁bros	-11915
▁clip	-11916
▁gluc	-11917
▁hamb	-11918
▁isra	-11919
▁mars	-11920
▁orte	-11921
▁prie	-11922
▁qual	-11923
▁rupt	-11924
▁tabl	-11925
▁âgée	-11926
ançant	-11927
nelles	-11928
▁album	-11929
▁banqu	-11930
▁bonus	-11931
▁dévou	-11932
▁explo	-11933
▁malin	-11934
▁plats	-11935
▁protè	-11936
▁redéc	-11937
▁situé	-11938
▁sonde	-11939
▁stylo	-11940
▁tatou	-11941
▁tremp	-11942
aborder	-11943
accueil	-11944
aurions	-11945
endrons	-11946
habitat	-11947
ulsions	-11948
▁Square	-11949
▁access	-11950
▁armées	-11951
▁arriva	-11952
▁chante	-11953
▁commer	-11954
▁contra	-11955
▁cosmos	-11956
▁craign	-11957
▁dévast	-11958
▁emails	-11959
▁fermes	-11960
▁mangez	-11961
▁occupe	-11962
▁partez	-11963
▁places	-11964
▁provis	-11965
▁récits	-11966
▁trompe	-11967
▁vierge	-11968
andertal	-11969
outchouc	-11970
échapper	-11971
éloigner	-11972
éléments	-11973
▁Presque	-11974
▁Souvent	-11975
▁anonyme	-11976
▁ballons	-11977
▁baskets	-11978
▁essence	-11979
▁fardeau	-11980
▁injuste	-11981
▁modeste	-11982
▁navires	-11983
autoroute	-11984
erveilles	-11985
▁atomique	-11986
▁autorisé	-11987
▁contribu	-11988
▁contrôlé	-11989
▁espagnol	-11990
▁garantir	-11991
▁habitude	-11992
▁mariages	-11993
▁missions	-11994
▁parasite	-11995
▁parlions	-11996
▁poubelle	-11997
▁écrivain	-11998
enthousias	-11999
▁affectent	-12000
▁consensus	-12001
▁contrôlée	-12002
▁entrepris	-12003
▁fermement	-12004
▁influencé	-12005
▁intensifs	-12006
▁prothèses	-12007
▁préférées	-12008
▁reproduis	-12009
▁restaurer	-12010
▁récession	-12011
▁traversée	-12012
▁vingtaine	-12013
▁étudiante	-12014
▁acoustique	-12015
▁activistes	-12016
▁caoutchouc	-12017
▁comparable	-12018
▁expliquent	-12019
▁géographie	-12020
▁rencontres	-12021
▁ressentons	-12022
▁cancéreuses	-12023
▁disciplines	-12024
▁nourrissent	-12025
▁répartition	-12026
▁stéréotypes	-12027
▁Actuellement	-12028
▁amélioration	-12029
▁expérimenter	-12030
▁installation	-12031
▁contradiction	-12032
▁philanthropie	-12033
▁indépendamment	-12034
▁interprétation	-12035
km	-12036
▁0	-12037
aix	-12038
col	-12039
cut	-12040
oma	-12041
ona	-12042
via	-12043
▁46	-12044
▁6,	-12045
▁Bh	-12046
▁FM	-12047
▁Wi	-12048
erry	-12049
ffér	-12050
mise	-12051
ppoc	-12052
quin	-12053
▁Abs	-12054
▁Jac	-12055
▁bor	-12056
▁lét	-12057
actif	-12058
agner	-12059
culer	-12060
exemp	-12061
fense	-12062
keley	-12063
outan	-12064
écras	-12065
▁Snow	-12066
▁anom	-12067
▁déni	-12068
▁exéc	-12069
▁impl	-12070
▁léop	-12071
▁mien	-12072
▁plac	-12073
▁rich	-12074
aisses	-12075
amitié	-12076
queurs	-12077
usalem	-12078
▁accus	-12079
▁arbit	-12080
▁brute	-12081
▁bâtir	-12082
▁coiff	-12083
▁démis	-12084
▁dépos	-12085
▁hybri	-12086
▁inhib	-12087
▁mèmes	-12088
▁naiss	-12089
▁nœuds	-12090
▁pique	-12091
▁roche	-12092
▁réson	-12093
▁sourd	-12094
▁spons	-12095
▁troub	-12096
▁verbe	-12097
fiction	-12098
liquent	-12099
ographe	-12100
oubliez	-12101
▁Amazon	-12102
▁Disney	-12103
▁Enfant	-12104
▁Steven	-12105
▁allumé	-12106
▁bambou	-12107
▁barres	-12108
▁cochon	-12109
▁couver	-12110
▁diminu	-12111
▁issues	-12112
▁listes	-12113
▁livrer	-12114
▁mariée	-12115
▁ramené	-12116
▁sacrée	-12117
▁sugges	-12118
▁symbol	-12119
▁séparé	-12120
▁vertes	-12121
▁vivais	-12122
▁écrits	-12123
argument	-12124
exemples	-12125
héritage	-12126
versaire	-12127
▁Stephen	-12128
▁ajoutez	-12129
▁annonce	-12130
▁chasser	-12131
▁chaudes	-12132
▁fichier	-12133
▁glucose	-12134
▁indiens	-12135
▁innover	-12136
▁métiers	-12137
▁origine	-12138
▁panique	-12139
▁perdons	-12140
▁propage	-12141
▁protége	-12142
▁quoique	-12143
▁rendons	-12144
▁renvers	-12145
▁régimes	-12146
▁résolus	-12147
▁serveur	-12148
▁visionn	-12149
▁vétérin	-12150
▁éclaire	-12151
effondrer	-12152
urrection	-12153
utilisons	-12154
▁Berkeley	-12155
▁analogie	-12156
▁antennes	-12157
▁cosmique	-12158
▁curieuse	-12159
▁demandes	-12160
▁inconnue	-12161
▁infectés	-12162
▁lumineux	-12163
▁membrane	-12164
▁plaindre	-12165
▁policier	-12166
▁rentable	-12167
▁transist	-12168
▁visibles	-12169
▁éléphant	-12170
▁étudions	-12171
▁éventail	-12172
apparition	-12173
▁Institute	-12174
▁Parkinson	-12175
▁carrières	-12176
▁croyaient	-12177
▁créatives	-12178
▁possédons	-12179
▁prendrait	-12180
▁ressortir	-12181
▁transcend	-12182
▁appropriée	-12183
▁astronomes	-12184
▁conduisent	-12185
▁estimation	-12186
▁inventions	-12187
▁localement	-12188
▁voudraient	-12189
indépendance	-12190
▁conducteurs	-12191
▁demandaient	-12192
▁frustration	-12193
▁multination	-12194
▁rayonnement	-12195
▁susceptible	-12196
▁élémentaires	-12197
▁politiquement	-12198
▁problématique	-12199
▁présentations	-12200
▁représentants	-12201
▁réfléchissons	-12202
▁troisièmement	-12203
▁inévitablement	-12204
▁pharmaceutique	-12205
-2	-12206
Ass	-12207
ETI	-12208
agu	-12209
bal	-12210
elé	-12211
hos	-12212
iée	-12213
ols	-12214
onç	-12215
pôt	-12216
▁JF	-12217
▁JS	-12218
▁Ky	-12219
▁Né	-12220
▁Ri	-12221
▁mê	-12222
arté	-12223
oies	-12224
olas	-12225
oral	-12226
sylv	-12227
uyer	-12228
écou	-12229
étez	-12230
▁Bas	-12231
▁Jér	-12232
▁Law	-12233
▁Loi	-12234
▁Sky	-12235
▁Stu	-12236
▁Vou	-12237
▁fas	-12238
▁gor	-12239
▁pru	-12240
▁tru	-12241
afric	-12242
ailli	-12243
enfer	-12244
ersey	-12245
exper	-12246
illis	-12247
isées	-12248
ligne	-12249
mides	-12250
onger	-12251
oplan	-12252
oyant	-12253
reuve	-12254
utile	-12255
visme	-12256
▁1500	-12257
▁Ever	-12258
▁Okay	-12259
▁Sant	-12260
▁août	-12261
▁bioc	-12262
▁bric	-12263
▁buts	-12264
▁gadg	-12265
▁pisc	-12266
▁quin	-12267
▁sors	-12268
▁star	-12269
agisse	-12270
agrand	-12271
assant	-12272
bilité	-12273
enions	-12274
iciens	-12275
odique	-12276
▁Colle	-12277
▁Groen	-12278
▁Intel	-12279
▁Sarah	-12280
▁abrit	-12281
▁barbe	-12282
▁brins	-12283
▁congé	-12284
▁creus	-12285
▁desqu	-12286
▁digne	-12287
▁défav	-12288
▁issue	-12289
▁issus	-12290
▁pesti	-12291
▁pince	-12292
▁proto	-12293
▁réjou	-12294
▁soupç	-12295
▁thèse	-12296
▁zéros	-12297
adorais	-12298
alisent	-12299
avancer	-12300
enhague	-12301
ensable	-12302
▁Daniel	-12303
▁acides	-12304
▁alliez	-12305
▁assass	-12306
▁cousin	-12307
▁drôles	-12308
▁gosses	-12309
▁idéale	-12310
▁jungle	-12311
▁obsédé	-12312
▁opposé	-12313
▁ordres	-12314
▁percep	-12315
▁restes	-12316
▁slogan	-12317
▁Somalie	-12318
▁appuyer	-12319
▁boutons	-12320
▁cousins	-12321
▁coûtent	-12322
▁donnera	-12323
▁déchiff	-12324
▁emboute	-12325
▁entrons	-12326
▁envoyés	-12327
▁excuses	-12328
▁gentils	-12329
▁morales	-12330
▁sachiez	-12331
▁suicide	-12332
▁vaincre	-12333
▁verriez	-12334
oublierai	-12335
▁Pennsylv	-12336
▁Républic	-12337
▁achètent	-12338
▁altitude	-12339
▁approxim	-12340
▁athlètes	-12341
▁civiques	-12342
▁constate	-12343
▁entraîné	-12344
▁extraits	-12345
▁ironique	-12346
▁irration	-12347
▁réveille	-12348
▁souvient	-12349
▁variable	-12350
▁éloignés	-12351
américains	-12352
excitation	-12353
opérations	-12354
▁attendons	-12355
▁continuez	-12356
▁imaginons	-12357
▁impulsion	-12358
▁indiquent	-12359
▁intention	-12360
▁lentilles	-12361
▁longévité	-12362
▁moustique	-12363
▁prochains	-12364
▁précieuse	-12365
▁radiation	-12366
▁rationnel	-12367
▁richesses	-12368
▁serviette	-12369
▁sexualité	-12370
▁thérapies	-12371
▁équitable	-12372
▁Copenhague	-12373
▁activement	-12374
▁biolumines	-12375
▁croissante	-12376
▁formations	-12377
▁intégrante	-12378
▁intéresser	-12379
▁nationales	-12380
▁pathogènes	-12381
▁prisonnier	-12382
▁prévisions	-12383
▁sanitaires	-12384
installation	-12385
▁combattants	-12386
▁définissent	-12387
▁estimations	-12388
▁hélicoptère	-12389
▁regardaient	-12390
▁traumatisme	-12391
▁commençaient	-12392
▁Contrairement	-12393
▁cartographier	-12394
▁connaissaient	-12395
▁collectivement	-12396
ES	-12397
IA	-12398
RIS	-12399
low	-12400
phe	-12401
rus	-12402
▁RM	-12403
▁mu	-12404
▁mû	-12405
adel	-12406
anne	-12407
attr	-12408
aube	-12409
back	-12410
bons	-12411
inci	-12412
inda	-12413
itez	-12414
ning	-12415
obst	-12416
tian	-12417
urée	-12418
▁Boy	-12419
▁Tok	-12420
▁asi	-12421
▁axe	-12422
▁bos	-12423
▁fic	-12424
▁lot	-12425
▁raj	-12426
▁éth	-12427
arios	-12428
assey	-12429
hyper	-12430
orcer	-12431
rètes	-12432
èvres	-12433
élarg	-12434
épuis	-12435
▁4000	-12436
▁Bern	-12437
▁Lego	-12438
▁Will	-12439
▁clon	-12440
▁cond	-12441
▁cong	-12442
▁exer	-12443
▁pige	-12444
▁pond	-12445
▁pots	-12446
▁raté	-12447
▁romp	-12448
▁semi	-12449
adelph	-12450
autant	-12451
ennemi	-12452
nistes	-12453
omètre	-12454
orisés	-12455
oudite	-12456
quérir	-12457
uelles	-12458
écoles	-12459
▁2004,	-12460
▁Laden	-12461
▁Louis	-12462
▁Power	-12463
▁admis	-12464
▁croix	-12465
▁devra	-12466
▁flash	-12467
▁fusil	-12468
▁gangs	-12469
▁infos	-12470
▁latin	-12471
▁levée	-12472
▁manus	-12473
▁miles	-12474
▁pales	-12475
▁polar	-12476
▁réuni	-12477
▁tirée	-12478
▁éclat	-12479
culture	-12480
ouragan	-12481
▁Luther	-12482
▁Michel	-12483
▁accent	-12484
▁alliés	-12485
▁cachés	-12486
▁cesser	-12487
▁douche	-12488
▁décent	-12489
▁emmène	-12490
▁hanche	-12491
▁marais	-12492
▁relève	-12493
▁risqué	-12494
▁scènes	-12495
▁signer	-12496
▁séjour	-12497
▁tirent	-12498
▁valent	-12499
▁éclaté	-12500
Amazonie	-12501
arrivais	-12502
existait	-12503
improvis	-12504
▁assisté	-12505
▁attrapé	-12506
▁briques	-12507
▁coincés	-12508
▁courtes	-12509
▁deviens	-12510
▁diplômé	-12511
▁entiers	-12512
▁ineffic	-12513
▁infinie	-12514
▁inquiet	-12515
▁meurtre	-12516
▁obligés	-12517
▁pencher	-12518
▁pleines	-12519
▁répandu	-12520
abondance	-12521
endraient	-12522
inflation	-12523
▁accéléré	-12524
▁assister	-12525
▁basiques	-12526
▁boutique	-12527
▁capitaux	-12528
▁chambres	-12529
▁communes	-12530
▁compatis	-12531
▁contents	-12532
▁corbeaux	-12533
▁couloirs	-12534
▁dessinée	-12535
▁entières	-12536
▁fragiles	-12537
▁illustre	-12538
▁intégrée	-12539
▁inutiles	-12540
▁minéraux	-12541
▁mortelle	-12542
▁ouvriers	-12543
▁prothèse	-12544
▁ramasser	-12545
▁scandale	-12546
▁solitude	-12547
▁souffert	-12548
▁suivants	-12549
▁éditeurs	-12550
ingénieurs	-12551
▁Islamique	-12552
▁aptitudes	-12553
▁atteintes	-12554
▁campagnes	-12555
▁contenant	-12556
▁donnaient	-12557
▁entourent	-12558
▁explosion	-12559
▁extension	-12560
▁négatives	-12561
▁néocortex	-12562
▁renforcer	-12563
▁électeurs	-12564
▁émergents	-12565
onnellement	-12566
▁acceptable	-12567
▁bidonville	-12568
▁grandement	-12569
▁navigation	-12570
▁potentiels	-12571
▁producteur	-12572
▁rencontrée	-12573
▁souhaitent	-12574
▁supérieurs	-12575
▁transférer	-12576
▁véritables	-12577
▁étrangères	-12578
▁compliquées	-12579
▁contribuent	-12580
▁gravitation	-12581
▁philosophes	-12582
▁stratégique	-12583
▁étroitement	-12584
▁Pennsylvanie	-12585
▁Réfléchissez	-12586
▁conservateur	-12587
▁essentielles	-12588
▁indépendants	-12589
▁partenariats	-12590
▁premièrement	-12591
▁préservatifs	-12592
▁spontanément	-12593
▁philosophique	-12594
▁pharmaceutiques	-12595
tt	-12596
za	-12597
bie	-12598
cir	-12599
men	-12600
obe	-12601
top	-12602
Bien	-12603
agré	-12604
asth	-12605
azar	-12606
ciel	-12607
cité	-12608
erra	-12609
itts	-12610
mers	-12611
poll	-12612
sait	-12613
touf	-12614
ègre	-12615
émis	-12616
▁203	-12617
▁Dép	-12618
▁Hub	-12619
▁ail	-12620
▁job	-12621
▁lic	-12622
▁pig	-12623
▁vib	-12624
agère	-12625
andre	-12626
chais	-12627
exécu	-12628
fions	-12629
gique	-12630
illus	-12631
juana	-12632
mères	-12633
élève	-12634
▁Kong	-12635
▁Miss	-12636
▁SETI	-12637
▁Sach	-12638
▁Sand	-12639
▁cerf	-12640
▁clic	-12641
▁high	-12642
▁larg	-12643
▁orch	-12644
▁refl	-12645
intitu	-12646
marine	-12647
opposé	-12648
tilité	-12649
▁2001,	-12650
▁Marie	-12651
▁Sinon	-12652
▁Tokyo	-12653
▁aille	-12654
▁alent	-12655
▁aperç	-12656
▁capti	-12657
▁caver	-12658
▁dissé	-12659
▁dédié	-12660
▁empre	-12661
▁grise	-12662
▁jouez	-12663
▁mèner	-12664
▁préju	-12665
▁therm	-12666
▁étinc	-12667
attendu	-12668
esseurs	-12669
ommages	-12670
évaluer	-12671
▁allées	-12672
▁basses	-12673
▁denses	-12674
▁exprim	-12675
▁libère	-12676
▁lisent	-12677
▁manqué	-12678
▁massif	-12679
▁nigéri	-12680
▁pistes	-12681
▁placés	-12682
▁plongé	-12683
▁pluies	-12684
▁restez	-12685
▁sensib	-12686
▁submer	-12687
▁sépare	-12688
▁thèmes	-12689
abeilles	-12690
adelphie	-12691
aiguille	-12692
entiment	-12693
intitule	-12694
éléphant	-12695
▁Parfait	-12696
▁adresse	-12697
▁affiche	-12698
▁allumer	-12699
▁cascade	-12700
▁confond	-12701
▁dangers	-12702
▁fusionn	-12703
▁hommage	-12704
▁impacts	-12705
▁insecte	-12706
▁jumeaux	-12707
▁montent	-12708
▁orteils	-12709
▁refuser	-12710
▁restera	-12711
▁tentent	-12712
▁vendeur	-12713
▁Français	-12714
▁Tasmanie	-12715
▁aimaient	-12716
▁aimerait	-12717
▁anecdote	-12718
▁appeller	-12719
▁apprécié	-12720
▁colonnes	-12721
▁condamné	-12722
▁constant	-12723
▁décoller	-12724
▁envisage	-12725
▁faillite	-12726
▁généreux	-12727
▁honnêtes	-12728
▁jouaient	-12729
▁mesdames	-12730
▁pénétrer	-12731
▁rotation	-12732
▁rétablir	-12733
▁seringue	-12734
▁violente	-12735
hémisphère	-12736
▁Ministère	-12737
▁boulanger	-12738
▁cinquante	-12739
▁donateurs	-12740
▁déplaçant	-12741
▁entendent	-12742
▁entendons	-12743
▁excitante	-12744
▁indigènes	-12745
▁modéliser	-12746
▁narration	-12747
▁originale	-12748
▁ouverture	-12749
▁portaient	-12750
▁poursuite	-12751
▁racontent	-12752
▁renverser	-12753
▁réservoir	-12754
▁standards	-12755
▁survivent	-12756
▁théorique	-12757
▁tristesse	-12758
▁aléatoires	-12759
▁considérés	-12760
▁européenne	-12761
▁fabricants	-12762
▁fréquences	-12763
▁infiniment	-12764
▁merveilles	-12765
▁rencontrez	-12766
▁sensations	-12767
▁économiste	-12768
▁connections	-12769
▁démocraties	-12770
▁inspiration	-12771
▁mentalement	-12772
▁motivations	-12773
▁surprenante	-12774
▁utilisateur	-12775
▁intellectuel	-12776
▁marchandises	-12777
▁programmeurs	-12778
▁téléphonique	-12779
Ma	-12780
OS	-12781
fa	-12782
The	-12783
acy	-12784
alt	-12785
fre	-12786
sex	-12787
yan	-12788
▁43	-12789
▁7,	-12790
▁EM	-12791
▁GG	-12792
▁Mé	-12793
▁aî	-12794
amib	-12795
enda	-12796
iger	-12797
issi	-12798
oman	-12799
onci	-12800
otis	-12801
pile	-12802
trui	-12803
ulée	-12804
ylac	-12805
érou	-12806
▁Cos	-12807
▁Dev	-12808
▁Kos	-12809
▁Mau	-12810
▁Méd	-12811
▁Vol	-12812
▁arc	-12813
▁céc	-12814
▁eue	-12815
allen	-12816
aveug	-12817
azote	-12818
envis	-12819
faits	-12820
immob	-12821
nutri	-12822
orées	-12823
tière	-12824
ulier	-12825
ustes	-12826
▁Barb	-12827
▁Chap	-12828
▁Dick	-12829
▁Ouah	-12830
▁Paix	-12831
▁Prob	-12832
▁Sept	-12833
▁Star	-12834
▁atro	-12835
▁brin	-12836
▁case	-12837
▁culp	-12838
▁fall	-12839
▁fixé	-12840
▁guit	-12841
▁iPod	-12842
▁nuis	-12843
▁pois	-12844
▁raci	-12845
▁tamb	-12846
actifs	-12847
appare	-12848
enants	-12849
entrai	-12850
hélium	-12851
ticien	-12852
▁2003,	-12853
▁2010.	-12854
▁2012,	-12855
▁Obser	-12856
▁adore	-12857
▁ambig	-12858
▁armés	-12859
▁boiss	-12860
▁bonob	-12861
▁brûle	-12862
▁coule	-12863
▁crédi	-12864
▁dormi	-12865
▁douze	-12866
▁décap	-12867
▁décou	-12868
▁ombre	-12869
▁pleut	-12870
▁tweet	-12871
▁verté	-12872
▁vocab	-12873
▁vécue	-12874
adresse	-12875
efforts	-12876
inconnu	-12877
organes	-12878
étiques	-12879
▁Sierra	-12880
▁Utilis	-12881
▁Wright	-12882
▁baissé	-12883
▁chères	-12884
▁cécité	-12885
▁débarr	-12886
▁espère	-12887
▁folles	-12888
▁fraude	-12889
▁gribou	-12890
▁inters	-12891
▁légale	-12892
▁masque	-12893
▁natale	-12894
▁recouv	-12895
▁semblé	-12896
▁urgent	-12897
▁veille	-12898
▁volcan	-12899
▁zoomer	-12900
actement	-12901
apprécie	-12902
étudiant	-12903
▁Essayez	-12904
▁Regarde	-12905
▁accords	-12906
▁arrêtez	-12907
▁atterri	-12908
▁bloquer	-12909
▁cabinet	-12910
▁charger	-12911
▁compati	-12912
▁disques	-12913
▁détenus	-12914
▁envoyée	-12915
▁espoirs	-12916
▁féminin	-12917
▁jardins	-12918
▁limités	-12919
▁maintes	-12920
▁oreille	-12921
▁persist	-12922
▁piétons	-12923
▁poignet	-12924
▁protégé	-12925
▁recréer	-12926
▁reposer	-12927
▁rupture	-12928
▁sentait	-12929
▁serpent	-12930
▁tranche	-12931
accomplir	-12932
actualité	-12933
▁Monterey	-12934
▁Sécurité	-12935
▁amusante	-12936
▁analyses	-12937
▁arrivées	-12938
▁aussitôt	-12939
▁contrace	-12940
▁courrier	-12941
▁danseurs	-12942
▁destinée	-12943
▁digitale	-12944
▁disparus	-12945
▁désordre	-12946
▁emporter	-12947
▁faisable	-12948
▁migrants	-12949
▁minorité	-12950
▁mélanger	-12951
▁novembre	-12952
▁paralysé	-12953
▁penseurs	-12954
▁piratage	-12955
▁rembours	-12956
▁rentrent	-12957
▁serpents	-12958
▁statique	-12959
▁tribunal	-12960
▁étudient	-12961
organismes	-12962
▁Jérusalem	-12963
▁Néanmoins	-12964
▁camarades	-12965
▁citations	-12966
▁concernés	-12967
▁connaitre	-12968
▁crevettes	-12969
▁culturels	-12970
▁exercices	-12971
▁ministère	-12972
▁primitive	-12973
▁scénarios	-12974
▁spirituel	-12975
▁spéciales	-12976
▁chromosome	-12977
▁compliqués	-12978
▁confronter	-12979
▁considérée	-12980
▁descendent	-12981
▁diplomatie	-12982
▁handicapés	-12983
▁passionnés	-12984
▁procédures	-12985
▁régulation	-12986
▁survivants	-12987
appartenance	-12988
enthousiasme	-12989
entiellement	-12990
▁observation	-12991
▁souviennent	-12992
▁Philadelphie	-12993
▁constitution	-12994
▁représentait	-12995
▁Troisièmement	-12996
▁apprentissage	-12997
▁considération	-12998
▁dictionnaires	-12999
▁économiquement	-13000
▁environnemental	-13001
▁intrinsèquement	-13002
As	-13003
CH	-13004
MA	-13005
ARN	-13006
Par	-13007
cue	-13008
dou	-13009
fer	-13010
las	-13011
ops	-13012
wan	-13013
▁5%	-13014
▁98	-13015
▁Ay	-13016
▁Es	-13017
Cola	-13018
aker	-13019
aron	-13020
ican	-13021
illa	-13022
lend	-13023
ming	-13024
neur	-13025
nons	-13026
ombr	-13027
ouch	-13028
rick	-13029
robi	-13030
étab	-13031
▁Dét	-13032
▁Gar	-13033
▁Han	-13034
▁Hel	-13035
▁Sol	-13036
▁Str	-13037
▁Tel	-13038
▁nus	-13039
▁réd	-13040
▁vœu	-13041
Afric	-13042
agées	-13043
assée	-13044
audit	-13045
corps	-13046
enter	-13047
faire	-13048
oscop	-13049
press	-13050
ultes	-13051
èlent	-13052
▁Afin	-13053
▁Crai	-13054
▁Hill	-13055
▁Mach	-13056
▁abat	-13057
▁barr	-13058
▁bion	-13059
▁illi	-13060
▁infr	-13061
▁lier	-13062
▁miel	-13063
▁rass	-13064
▁taxe	-13065
▁visc	-13066
immens	-13067
immigr	-13068
otions	-13069
source	-13070
unique	-13071
▁1960,	-13072
▁2000.	-13073
▁Cyrus	-13074
▁Harry	-13075
▁admir	-13076
▁aidés	-13077
▁avent	-13078
▁codes	-13079
▁crack	-13080
▁débit	-13081
▁embry	-13082
▁symph	-13083
▁trafi	-13084
▁tuées	-13085
▁watts	-13086
▁égaux	-13087
allumer	-13088
authent	-13089
rétaire	-13090
▁Indien	-13091
▁Jersey	-13092
▁Joseph	-13093
▁angles	-13094
▁bassin	-13095
▁canapé	-13096
▁chauve	-13097
▁dépist	-13098
▁désirs	-13099
▁détéri	-13100
▁exempl	-13101
▁favori	-13102
▁franch	-13103
▁gardes	-13104
▁hétéro	-13105
▁incert	-13106
▁joyeux	-13107
▁masses	-13108
▁motive	-13109
▁ouvrez	-13110
▁pancré	-13111
▁promot	-13112
▁refuge	-13113
▁rituel	-13114
▁séquen	-13115
▁tuyaux	-13116
▁étouff	-13117
algorith	-13118
entropie	-13119
tionnels	-13120
▁austral	-13121
▁briller	-13122
▁charité	-13123
▁choléra	-13124
▁civiles	-13125
▁externe	-13126
▁gardent	-13127
▁inverse	-13128
▁mentors	-13129
▁musical	-13130
▁prendra	-13131
▁promett	-13132
▁toxines	-13133
▁traitée	-13134
▁visites	-13135
▁éclairé	-13136
appellent	-13137
approcher	-13138
impliquer	-13139
orisation	-13140
yclopédie	-13141
▁Essayons	-13142
▁anonymes	-13143
▁avançons	-13144
▁dommages	-13145
▁gratuits	-13146
▁intégrés	-13147
▁inventée	-13148
▁masculin	-13149
▁négocier	-13150
▁passager	-13151
▁profonds	-13152
▁progress	-13153
▁requiert	-13154
▁récupéré	-13155
▁réveillé	-13156
▁tensions	-13157
▁épouvant	-13158
▁Groenland	-13159
▁Musulmans	-13160
▁Toutefois	-13161
▁connaisse	-13162
▁détestent	-13163
▁illusions	-13164
▁promesses	-13165
▁protègent	-13166
▁redéfinir	-13167
▁satisfais	-13168
▁visuelles	-13169
▁époustouf	-13170
▁Absolument	-13171
▁classement	-13172
▁comprenait	-13173
▁esthétique	-13174
▁expédition	-13175
▁fabriquent	-13176
▁logistique	-13177
▁originaire	-13178
▁précieuses	-13179
▁prévisible	-13180
▁radiations	-13181
▁rassemblés	-13182
▁relativité	-13183
▁équivalent	-13184
▁Antarctique	-13185
▁aspirations	-13186
▁plateformes	-13187
▁consciemment	-13188
▁consentement	-13189
▁enthousiasme	-13190
▁sophistiqués	-13191
Ac	-13192
ga	-13193
ny	-13194
ida	-13195
mph	-13196
pel	-13197
œuf	-13198
▁3.	-13199
▁TK	-13200
aska	-13201
hier	-13202
olie	-13203
seur	-13204
uise	-13205
urés	-13206
évap	-13207
▁180	-13208
▁60%	-13209
▁Den	-13210
▁Dix	-13211
▁May	-13212
▁Syl	-13213
▁bit	-13214
▁gau	-13215
▁piv	-13216
▁tél	-13217
▁zoo	-13218
adeur	-13219
afaud	-13220
crits	-13221
enèse	-13222
extra	-13223
ision	-13224
pollo	-13225
▁Cuba	-13226
▁Trav	-13227
▁baby	-13228
▁brac	-13229
▁bron	-13230
▁fuir	-13231
▁infi	-13232
▁insé	-13233
▁pari	-13234
▁rêvé	-13235
Oxford	-13236
agères	-13237
bation	-13238
chette	-13239
infini	-13240
orable	-13241
ualité	-13242
élever	-13243
▁2050,	-13244
▁banal	-13245
▁bosse	-13246
▁erron	-13247
▁gorge	-13248
▁impér	-13249
▁ouest	-13250
▁relié	-13251
▁régul	-13252
▁subit	-13253
▁toxic	-13254
▁tuyau	-13255
▁vital	-13256
Organis	-13257
ardions	-13258
enseurs	-13259
erreurs	-13260
uminium	-13261
élevage	-13262
éloigne	-13263
étendue	-13264
évelopp	-13265
▁Mozart	-13266
▁Norden	-13267
▁Sommes	-13268
▁agence	-13269
▁amenés	-13270
▁auteur	-13271
▁bâtons	-13272
▁chauds	-13273
▁cliché	-13274
▁courri	-13275
▁distri	-13276
▁divise	-13277
▁détect	-13278
▁embarr	-13279
▁flotte	-13280
▁fusées	-13281
▁gardez	-13282
▁marron	-13283
▁mousta	-13284
▁mythes	-13285
▁pleure	-13286
▁Égypte	-13287
▁égards	-13288
admettre	-13289
escalier	-13290
explique	-13291
industri	-13292
lèvement	-13293
écrivais	-13294
▁Docteur	-13295
▁Montana	-13296
▁Suprême	-13297
▁animale	-13298
▁aviaire	-13299
▁crainte	-13300
▁croyant	-13301
▁diversi	-13302
▁entités	-13303
▁excessi	-13304
▁exploré	-13305
▁ferions	-13306
▁galerie	-13307
▁imprimé	-13308
▁initial	-13309
▁inquiét	-13310
▁inscrit	-13311
▁marrant	-13312
▁mélodie	-13313
▁numéros	-13314
▁pasteur	-13315
▁protest	-13316
▁pénible	-13317
▁retours	-13318
▁spirale	-13319
▁terreur	-13320
assembler	-13321
ellulaire	-13322
▁Virginie	-13323
▁attachés	-13324
▁atterrir	-13325
▁candidat	-13326
▁déployer	-13327
▁environs	-13328
▁glaciers	-13329
▁habitats	-13330
▁internes	-13331
▁magicien	-13332
▁monument	-13333
▁parfaits	-13334
▁projeter	-13335
▁prospère	-13336
▁recettes	-13337
▁triangle	-13338
▁trottoir	-13339
▁troupeau	-13340
▁urbaines	-13341
▁écoutant	-13342
américaine	-13343
tionnaires	-13344
tionnelles	-13345
▁alimenter	-13346
▁amoureuse	-13347
▁biosphère	-13348
▁chronique	-13349
▁maintient	-13350
▁marqueurs	-13351
▁mentalité	-13352
▁productif	-13353
▁recouvert	-13354
▁reportage	-13355
▁résonance	-13356
▁séquencer	-13357
▁épidémies	-13358
▁Evidemment	-13359
▁atteignent	-13360
▁continuera	-13361
▁convaincus	-13362
▁démissionn	-13363
▁empreintes	-13364
▁impliquées	-13365
▁incapables	-13366
▁judiciaire	-13367
▁millimètre	-13368
▁parallèles	-13369
▁retournons	-13370
▁artistiques	-13371
▁choisissons	-13372
▁chromosomes	-13373
▁criminalité	-13374
▁globalement	-13375
▁inattendues	-13376
▁prostituées	-13377
▁sincèrement	-13378
▁électricité	-13379
▁appartements	-13380
▁britanniques	-13381
▁construisant	-13382
▁enseignement	-13383
▁explications	-13384
▁collaborative	-13385
▁fonctionnelle	-13386
▁manifestement	-13387
▁photographier	-13388
▁rassemblement	-13389
▁téléphoniques	-13390
▁biotechnologie	-13391
▁compréhensible	-13392
▁historiquement	-13393
▁représentations	-13394
PR	-13395
so	-13396
ahu	-13397
aze	-13398
ban	-13399
cré	-13400
dra	-13401
euf	-13402
hou	-13403
ied	-13404
oté	-13405
rup	-13406
the	-13407
zab	-13408
ûte	-13409
▁47	-13410
▁96	-13411
▁AG	-13412
▁Ag	-13413
▁BJ	-13414
▁CM	-13415
▁JC	-13416
▁MS	-13417
▁Ty	-13418
eton	-13419
ffes	-13420
grès	-13421
orez	-13422
prés	-13423
ryth	-13424
épal	-13425
▁140	-13426
▁Bay	-13427
▁Bel	-13428
▁Jet	-13429
▁Mid	-13430
▁Mos	-13431
▁Tib	-13432
▁bap	-13433
▁cyb	-13434
▁nit	-13435
▁obé	-13436
▁vén	-13437
Quand	-13438
achat	-13439
affir	-13440
arren	-13441
burgh	-13442
giène	-13443
itons	-13444
opéra	-13445
ueurs	-13446
êteté	-13447
▁Pete	-13448
▁ambi	-13449
▁fisc	-13450
▁fraî	-13451
▁frot	-13452
▁gare	-13453
▁moto	-13454
▁pédi	-13455
▁supr	-13456
▁taxi	-13457
▁éman	-13458
adulte	-13459
antine	-13460
cevant	-13461
chemin	-13462
engage	-13463
ennedy	-13464
ernité	-13465
humeur	-13466
ironie	-13467
marins	-13468
mation	-13469
omagné	-13470
rontal	-13471
rosité	-13472
ustice	-13473
▁Conne	-13474
▁Femme	-13475
▁Kosov	-13476
▁Linux	-13477
▁Parti	-13478
▁Pitts	-13479
▁Pérou	-13480
▁audio	-13481
▁biscu	-13482
▁chari	-13483
▁cockt	-13484
▁comté	-13485
▁déser	-13486
▁franc	-13487
▁lente	-13488
▁perçu	-13489
▁ratio	-13490
▁roses	-13491
▁sourc	-13492
▁souvi	-13493
▁tabou	-13494
▁triom	-13495
accéder	-13496
oignent	-13497
▁Retour	-13498
▁ambass	-13499
▁battus	-13500
▁cabine	-13501
▁chaine	-13502
▁ciment	-13503
▁compli	-13504
▁contex	-13505
▁diapos	-13506
▁excuse	-13507
▁fleuve	-13508
▁fluctu	-13509
▁greffe	-13510
▁herbes	-13511
▁jouons	-13512
▁libéré	-13513
▁lourds	-13514
▁lâcher	-13515
▁mignon	-13516
▁nourri	-13517
▁prolif	-13518
▁réclam	-13519
▁timide	-13520
▁étroit	-13521
arrivera	-13522
audience	-13523
humidité	-13524
ossibles	-13525
oureuses	-13526
▁Atlanta	-13527
▁Kennedy	-13528
▁adaptés	-13529
▁affecté	-13530
▁chameau	-13531
▁chemise	-13532
▁combats	-13533
▁dessine	-13534
▁dysfonc	-13535
▁défauts	-13536
▁envoyez	-13537
▁estimer	-13538
▁flèches	-13539
▁inclure	-13540
▁invitée	-13541
▁pilotes	-13542
▁poussée	-13543
▁prenais	-13544
▁publiés	-13545
▁touchée	-13546
▁urbains	-13547
▁Centrale	-13548
▁Colombie	-13549
▁Développ	-13550
▁acquérir	-13551
▁ajoutant	-13552
▁améliore	-13553
▁autistes	-13554
▁correcte	-13555
▁dossiers	-13556
▁féminine	-13557
▁illégale	-13558
▁inquiets	-13559
▁journées	-13560
▁limitées	-13561
▁légitime	-13562
▁maintien	-13563
▁pancréas	-13564
▁procédés	-13565
▁prononcé	-13566
▁prélever	-13567
▁psychiat	-13568
▁rapporte	-13569
▁répondit	-13570
▁équivaut	-13571
abandonner	-13572
adaptation	-13573
introduire	-13574
▁autorisés	-13575
▁concevons	-13576
▁coupables	-13577
▁célébrité	-13578
▁indiennes	-13579
▁organisée	-13580
▁parfaites	-13581
▁qualifiés	-13582
▁reconnait	-13583
▁réchauffe	-13584
▁violences	-13585
explication	-13586
▁Exactement	-13587
▁contourner	-13588
▁détecteurs	-13589
▁gaspillage	-13590
▁générosité	-13591
▁mécaniques	-13592
▁périphérie	-13593
▁semblaient	-13594
▁terrestres	-13595
Organisation	-13596
erveillement	-13597
▁développées	-13598
▁interpréter	-13599
▁reconnaitre	-13600
▁représentés	-13601
▁ressemblera	-13602
▁sophistiqué	-13603
▁supérieures	-13604
▁techniciens	-13605
▁vocabulaire	-13606
improvisation	-13607
▁distributeur	-13608
▁exceptionnel	-13609
▁humanitaires	-13610
▁occidentales	-13611
▁publications	-13612
▁sexuellement	-13613
▁personnalités	-13614
▁reconnaissent	-13615
▁sophistiquées	-13616
▁techniquement	-13617
▁embouteillages	-13618
▁remarquablement	-13619
▁transformations	-13620
',	-13621
Ec	-13622
SS	-13623
ene	-13624
enz	-13625
gni	-13626
hua	-13627
mix	-13628
▁34	-13629
▁DP	-13630
▁ED	-13631
▁Gé	-13632
▁Ti	-13633
▁çà	-13634
agez	-13635
atte	-13636
aule	-13637
avoc	-13638
cill	-13639
elly	-13640
ensé	-13641
etti	-13642
hédr	-13643
omie	-13644
tête	-13645
wart	-13646
étit	-13647
▁10.	-13648
▁187	-13649
▁Env	-13650
▁Jos	-13651
▁Kal	-13652
▁Ven	-13653
▁cry	-13654
▁cui	-13655
▁nov	-13656
▁sap	-13657
▁tit	-13658
▁édi	-13659
Apple	-13660
allas	-13661
dions	-13662
itées	-13663
onyme	-13664
ourir	-13665
tiser	-13666
çaise	-13667
▁Amer	-13668
▁Bali	-13669
▁Hall	-13670
▁Mass	-13671
▁News	-13672
▁Tour	-13673
▁allu	-13674
▁broc	-13675
▁décr	-13676
▁déta	-13677
▁engl	-13678
▁flor	-13679
▁gain	-13680
▁harc	-13681
▁midi	-13682
▁murm	-13683
▁noix	-13684
▁pend	-13685
▁rele	-13686
▁voté	-13687
▁égyp	-13688
acquis	-13689
appuie	-13690
hésion	-13691
issiez	-13692
ossile	-13693
réhend	-13694
traite	-13695
ussani	-13696
échapp	-13697
▁Camer	-13698
▁Larry	-13699
▁Reine	-13700
▁avril	-13701
▁bourd	-13702
▁coord	-13703
▁croco	-13704
▁crête	-13705
▁doués	-13706
▁dériv	-13707
▁faune	-13708
▁félic	-13709
▁gosse	-13710
▁marié	-13711
▁nomme	-13712
▁néant	-13713
▁obsol	-13714
▁pleur	-13715
▁pèler	-13716
▁russe	-13717
▁sérop	-13718
▁vertu	-13719
▁viole	-13720
▁épais	-13721
attirer	-13722
horloge	-13723
ogramme	-13724
ouiller	-13725
▁Portug	-13726
▁Sahara	-13727
▁Sylvia	-13728
▁Warren	-13729
▁chargé	-13730
▁comics	-13731
▁coulis	-13732
▁dissim	-13733
▁enjeux	-13734
▁jetons	-13735
▁jouais	-13736
▁lampes	-13737
▁lisant	-13738
▁prouve	-13739
▁retire	-13740
▁rocher	-13741
▁roches	-13742
▁rurale	-13743
▁sauveg	-13744
▁souple	-13745
▁temple	-13746
▁viable	-13747
encontre	-13748
existent	-13749
▁Espagne	-13750
▁ampoule	-13751
▁appelez	-13752
▁artisan	-13753
▁biocarb	-13754
▁bombard	-13755
▁budgets	-13756
▁capturé	-13757
▁censure	-13758
▁combiné	-13759
▁digital	-13760
▁dixième	-13761
▁déplacé	-13762
▁exprimé	-13763
▁fossile	-13764
▁israéli	-13765
▁montage	-13766
▁osseuse	-13767
▁paysans	-13768
▁pilules	-13769
▁piscine	-13770
▁poulets	-13771
▁repérer	-13772
▁réponde	-13773
▁suivait	-13774
▁sulfure	-13775
▁suspend	-13776
▁touchés	-13777
apparence	-13778
expertise	-13779
intuition	-13780
nutrition	-13781
▁Giussani	-13782
▁affecter	-13783
▁assiette	-13784
▁autorité	-13785
▁comparez	-13786
▁convient	-13787
▁crevette	-13788
▁cylindre	-13789
▁district	-13790
▁douleurs	-13791
▁dérouler	-13792
▁entendue	-13793
▁informés	-13794
▁instinct	-13795
▁maquette	-13796
▁massives	-13797
▁miracles	-13798
▁montrait	-13799
▁mystères	-13800
▁pantalon	-13801
▁patience	-13802
▁produise	-13803
▁regardée	-13804
▁remplace	-13805
▁tempêtes	-13806
▁écrivent	-13807
▁éteindre	-13808
astronomie	-13809
▁Objectifs	-13810
▁Supposons	-13811
▁abondance	-13812
▁araignées	-13813
▁chauffage	-13814
▁contenter	-13815
▁contrôles	-13816
▁découvrez	-13817
▁délicieux	-13818
▁emprunter	-13819
▁faciliter	-13820
▁heureuses	-13821
▁inquiétez	-13822
▁maîtriser	-13823
▁moustache	-13824
▁rapporter	-13825
▁réception	-13826
▁stimulant	-13827
▁symétries	-13828
▁verticale	-13829
▁viendrait	-13830
▁voudrions	-13831
▁accompagné	-13832
▁centimètre	-13833
▁communique	-13834
▁exceptions	-13835
▁existantes	-13836
▁management	-13837
▁navigateur	-13838
▁pesticides	-13839
▁productive	-13840
▁rappellent	-13841
▁séquençage	-13842
▁séropositi	-13843
▁tentatives	-13844
utilisateurs	-13845
▁bénéficient	-13846
▁concentrent	-13847
▁indicateurs	-13848
▁précédentes	-13849
▁révolutions	-13850
▁spécialisés	-13851
▁Probablement	-13852
▁deuxièmement	-13853
▁fournisseurs	-13854
▁interrupteur	-13855
▁améliorations	-13856
▁simultanément	-13857
▁enregistrement	-13858
RN	-13859
Qui	-13860
hal	-13861
inj	-13862
nik	-13863
ula	-13864
wis	-13865
éte	-13866
▁1%	-13867
▁52	-13868
▁CV	-13869
▁MR	-13870
....	-13871
Quel	-13872
abus	-13873
alth	-13874
asie	-13875
elas	-13876
nova	-13877
omat	-13878
oupe	-13879
sive	-13880
sole	-13881
tini	-13882
ture	-13883
velt	-13884
voir	-13885
èles	-13886
▁130	-13887
▁Bat	-13888
▁Oly	-13889
▁Res	-13890
▁Roi	-13891
▁Tha	-13892
▁Vas	-13893
▁Wow	-13894
▁hui	-13895
▁jal	-13896
▁las	-13897
▁ooh	-13898
▁sab	-13899
▁vig	-13900
▁éni	-13901
agrin	-13902
berté	-13903
hanol	-13904
imbab	-13905
oblig	-13906
onale	-13907
trans	-13908
trois	-13909
têtes	-13910
urger	-13911
ustin	-13912
érais	-13913
▁Kath	-13914
▁Simp	-13915
▁Wood	-13916
▁fout	-13917
▁hall	-13918
▁lacs	-13919
▁mecs	-13920
▁nano	-13921
▁naît	-13922
▁rédi	-13923
▁trés	-13924
▁vint	-13925
affich	-13926
analog	-13927
assées	-13928
attach	-13929
ellule	-13930
ersion	-13931
estime	-13932
former	-13933
mistes	-13934
ouveau	-13935
tionné	-13936
tituer	-13937
urrent	-13938
▁Arabe	-13939
▁Chuck	-13940
▁Craig	-13941
▁Lagos	-13942
▁Princ	-13943
▁Remar	-13944
▁Tesla	-13945
▁abatt	-13946
▁adapt	-13947
▁anorm	-13948
▁bouse	-13949
▁brûlé	-13950
▁caill	-13951
▁chuté	-13952
▁convi	-13953
▁décéd	-13954
▁engin	-13955
▁gradu	-13956
▁gramm	-13957
▁incré	-13958
▁irait	-13959
▁lobby	-13960
▁pessi	-13961
▁remix	-13962
▁socio	-13963
▁solid	-13964
▁sûres	-13965
abeille	-13966
automne	-13967
exister	-13968
▁Joshua	-13969
▁calend	-13970
▁calmer	-13971
▁coller	-13972
▁décriv	-13973
▁désire	-13974
▁export	-13975
▁gratte	-13976
▁moraux	-13977
▁mouton	-13978
▁méduse	-13979
▁opérer	-13980
▁penche	-13981
▁penses	-13982
▁phases	-13983
▁restés	-13984
▁splend	-13985
▁tenons	-13986
▁tombez	-13987
▁émergé	-13988
▁épouse	-13989
▁éteint	-13990
arrêtait	-13991
attitude	-13992
attraper	-13993
entendez	-13994
gyptiens	-13995
tisation	-13996
▁Central	-13997
▁Léonard	-13998
▁absurde	-13999
▁actives	-14000
▁affreux	-14001
▁apparus	-14002
▁blesser	-14003
▁causent	-14004
▁demeure	-14005
▁devrons	-14006
▁décentr	-14007
▁découpe	-14008
▁défaill	-14009
▁déficit	-14010
▁figures	-14011
▁flotter	-14012
▁foresti	-14013
▁promets	-14014
▁pétroli	-14015
▁rentrée	-14016
▁respire	-14017
▁robotis	-14018
▁segment	-14019
▁suprême	-14020
▁vérités	-14021
▁Écoutez	-14022
▁écrites	-14023
▁émeutes	-14024
▁équipés	-14025
accrocher	-14026
américain	-14027
entifique	-14028
ingénieur	-14029
ouchement	-14030
▁Aristote	-14031
▁Deuxième	-14032
▁Industri	-14033
▁McDonald	-14034
▁commenci	-14035
▁déclarer	-14036
▁envoyons	-14037
▁existant	-14038
▁inhabitu	-14039
▁magiques	-14040
▁manquent	-14041
▁marqueur	-14042
▁pompiers	-14043
▁portefeu	-14044
▁promener	-14045
▁protégée	-14046
▁rapidité	-14047
▁renforce	-14048
▁stimuler	-14049
▁subjecti	-14050
▁vraisemb	-14051
▁éthiques	-14052
tification	-14053
▁Alexander	-14054
▁Princeton	-14055
▁Technolog	-14056
▁approfond	-14057
▁attendait	-14058
▁capitaine	-14059
▁cauchemar	-14060
▁composent	-14061
▁distribué	-14062
▁décideurs	-14063
▁déclenche	-14064
▁enceintes	-14065
▁entendrez	-14066
▁familiale	-14067
▁favoriser	-14068
▁occasions	-14069
▁polluants	-14070
▁produites	-14071
▁reconnaît	-14072
▁réalisons	-14073
▁voisinage	-14074
▁étiquette	-14075
▁évidentes	-14076
adolescence	-14077
▁académique	-14078
▁complément	-14079
▁concernent	-14080
▁connectées	-14081
▁consomment	-14082
▁produisons	-14083
▁propagande	-14084
▁présidenti	-14085
▁publicités	-14086
▁regardions	-14087
▁végétation	-14088
introduction	-14089
▁développons	-14090
▁enthousiasm	-14091
▁fonctionnel	-14092
▁impossibles	-14093
▁industriels	-14094
▁obligations	-14095
▁rationnelle	-14096
▁recherchons	-14097
▁spirituelle	-14098
tionnellement	-14099
▁cartographie	-14100
▁commerciales	-14101
▁connaissions	-14102
▁infectieuses	-14103
▁localisation	-14104
▁malnutrition	-14105
▁manipulation	-14106
▁configuration	-14107
▁interventions	-14108
▁réfléchissant	-14109
▁spectaculaires	-14110
IC	-14111
mn	-14112
IRM	-14113
sée	-14114
vue	-14115
▁CN	-14116
▁JA	-14117
▁Lo	-14118
▁Os	-14119
amar	-14120
amie	-14121
aret	-14122
arte	-14123
deux	-14124
enix	-14125
esté	-14126
igan	-14127
imet	-14128
ommé	-14129
ount	-14130
rête	-14131
uons	-14132
xion	-14133
émen	-14134
▁---	-14135
▁Dub	-14136
▁FDA	-14137
▁Map	-14138
▁Nan	-14139
▁bad	-14140
▁cue	-14141
▁hey	-14142
▁hop	-14143
▁éro	-14144
aimez	-14145
andez	-14146
ariat	-14147
erons	-14148
habil	-14149
iront	-14150
mosph	-14151
niste	-14152
oisse	-14153
▁100,	-14154
▁2009	-14155
▁Abed	-14156
▁Conc	-14157
▁Frie	-14158
▁Gold	-14159
▁Jeux	-14160
▁Milo	-14161
▁Pant	-14162
▁Père	-14163
▁Trop	-14164
▁cave	-14165
▁dépê	-14166
▁entr	-14167
▁fans	-14168
▁gour	-14169
▁inéd	-14170
▁mème	-14171
▁pieu	-14172
▁rand	-14173
▁sanc	-14174
▁tari	-14175
▁élus	-14176
argile	-14177
atomes	-14178
ession	-14179
liques	-14180
obiles	-14181
onnait	-14182
riment	-14183
zabeth	-14184
▁Caire	-14185
▁Derni	-14186
▁Force	-14187
▁Media	-14188
▁Namib	-14189
▁Népal	-14190
▁assey	-14191
▁atome	-14192
▁compl	-14193
▁courb	-14194
▁louer	-14195
▁patte	-14196
▁rural	-14197
▁tourb	-14198
ections	-14199
enquête	-14200
fiantes	-14201
illeurs	-14202
implant	-14203
ivement	-14204
omètres	-14205
origami	-14206
ppocamp	-14207
réation	-14208
▁Arthur	-14209
▁Canyon	-14210
▁Health	-14211
▁Hubble	-14212
▁boites	-14213
▁chèvre	-14214
▁cibler	-14215
▁compil	-14216
▁coopér	-14217
▁copies	-14218
▁créait	-14219
▁fermés	-14220
▁marées	-14221
▁misère	-14222
▁métrop	-14223
▁parier	-14224
▁pilule	-14225
▁sables	-14226
▁saumon	-14227
▁tracer	-14228
▁échang	-14229
▁épuisé	-14230
▁étonné	-14231
arrêtent	-14232
artistes	-14233
examiner	-14234
inspirer	-14235
ncidence	-14236
quemment	-14237
échantil	-14238
▁Snowden	-14239
▁activer	-14240
▁amateur	-14241
▁blagues	-14242
▁chagrin	-14243
▁chèvres	-14244
▁cristal	-14245
▁cuisson	-14246
▁demanda	-14247
▁déposer	-14248
▁entrant	-14249
▁faisiez	-14250
▁insisté	-14251
▁introdu	-14252
▁monstre	-14253
▁navette	-14254
▁notions	-14255
▁peluche	-14256
▁preniez	-14257
▁renseig	-14258
▁renvoie	-14259
▁secrète	-14260
▁servant	-14261
▁sixième	-14262
▁tactile	-14263
▁variées	-14264
▁vivions	-14265
▁élégant	-14266
▁épisode	-14267
épaisseur	-14268
▁affirmer	-14269
▁aiguille	-14270
▁ajoutons	-14271
▁cascades	-14272
▁changera	-14273
▁collines	-14274
▁contenus	-14275
▁facilité	-14276
▁habitent	-14277
▁hectares	-14278
▁libertés	-14279
▁manquait	-14280
▁marchera	-14281
▁moyennes	-14282
▁plancton	-14283
▁polaires	-14284
▁procéder	-14285
▁préparés	-14286
▁recruter	-14287
▁réinvent	-14288
▁séparées	-14289
▁uniforme	-14290
▁virtuels	-14291
saharienne	-14292
▁Imaginons	-14293
▁appliquée	-14294
▁associées	-14295
▁chrétiens	-14296
▁confusion	-14297
▁grossesse	-14298
▁infection	-14299
▁localiser	-14300
▁migration	-14301
▁obsession	-14302
▁paralysie	-14303
▁partagées	-14304
▁protocole	-14305
▁préoccupe	-14306
▁règlement	-14307
▁réconfort	-14308
▁Pittsburgh	-14309
▁commençais	-14310
▁déclencher	-14311
▁familières	-14312
▁juridiques	-14313
▁préférence	-14314
▁recommence	-14315
▁smartphone	-14316
▁souhaitons	-14317
▁symbolique	-14318
authenticité	-14319
urbanisation	-14320
▁cherchaient	-14321
▁controverse	-14322
▁législation	-14323
▁microbienne	-14324
▁physiologie	-14325
▁représentée	-14326
▁subventions	-14327
▁précédemment	-14328
▁quotidiennes	-14329
▁transmettent	-14330
▁particulières	-14331
▁renseignement	-14332
▁virtuellement	-14333
▁cybercriminels	-14334
▁hallucinations	-14335
Ad	-14336
EA	-14337
PT	-14338
jo	-14339
va	-14340
wa	-14341
yg	-14342
Emp	-14343
IMS	-14344
Pas	-14345
aye	-14346
obi	-14347
sci	-14348
uil	-14349
▁53	-14350
▁68	-14351
▁86	-14352
▁Hi	-14353
Ange	-14354
asha	-14355
atra	-14356
chis	-14357
enny	-14358
gnez	-14359
ight	-14360
oyés	-14361
phal	-14362
verb	-14363
▁450	-14364
▁99%	-14365
▁Art	-14366
▁Cre	-14367
▁Die	-14368
▁Jud	-14369
▁Nai	-14370
▁SLA	-14371
▁Vie	-14372
▁gee	-14373
▁kit	-14374
▁rad	-14375
admir	-14376
alage	-14377
nisme	-14378
oenix	-14379
oints	-14380
olont	-14381
orant	-14382
ureau	-14383
▁Camp	-14384
▁Chré	-14385
▁Déjà	-14386
▁Gene	-14387
▁High	-14388
▁Vers	-14389
▁addi	-14390
▁adhé	-14391
▁boom	-14392
▁clef	-14393
▁dout	-14394
▁faça	-14395
▁hont	-14396
▁pais	-14397
▁piég	-14398
▁ponc	-14399
▁porn	-14400
▁poup	-14401
▁verb	-14402
▁âmes	-14403
atomie	-14404
diment	-14405
encore	-14406
orbite	-14407
quiers	-14408
tresse	-14409
térité	-14410
urieux	-14411
énique	-14412
épaule	-14413
équité	-14414
▁2008.	-14415
▁Beach	-14416
▁Carne	-14417
▁Juifs	-14418
▁Mexic	-14419
▁Skype	-14420
▁State	-14421
▁causé	-14422
▁enrou	-14423
▁fondu	-14424
▁loups	-14425
▁lundi	-14426
▁major	-14427
▁pénét	-14428
▁sauté	-14429
▁soirs	-14430
▁tapez	-14431
▁tendu	-14432
▁télés	-14433
aimerai	-14434
enlever	-14435
hérence	-14436
rations	-14437
sterdam	-14438
tissent	-14439
▁Certes	-14440
▁Dallas	-14441
▁Design	-14442
▁Global	-14443
▁Johnny	-14444
▁bullet	-14445
▁canard	-14446
▁comité	-14447
▁couler	-14448
▁devise	-14449
▁détent	-14450
▁emball	-14451
▁enferm	-14452
▁estimé	-14453
▁expédi	-14454
▁fièvre	-14455
▁forcée	-14456
▁fécond	-14457
▁gagnez	-14458
▁légend	-14459
▁légiti	-14460
▁mandat	-14461
▁mariés	-14462
▁noyaux	-14463
▁perdus	-14464
▁pouces	-14465
▁prédis	-14466
▁rendra	-14467
▁rigide	-14468
▁russes	-14469
Einstein	-14470
ortement	-14471
▁Bhoutan	-14472
▁Général	-14473
▁Nairobi	-14474
▁acquise	-14475
▁arrêtée	-14476
▁dommage	-14477
▁exprime	-14478
▁frontal	-14479
▁informé	-14480
▁lésions	-14481
▁marquer	-14482
[...]
